DEPTH = 4096;
WIDTH = 16;
ADDRESS_RADIX = UNS;
DATA_RADIX = HEX;

CONTENT BEGIN
	    0 : FFCE;
	    1 : FFD5;
	    2 : FFE7;
	    3 : FFD0;
	    4 : 000D;
	    5 : FFF8;
	    6 : 0005;
	    7 : FFDF;
	    8 : FFEB;
	    9 : 0011;
	   10 : 0030;
	   11 : FFD2;
	   12 : 0028;
	   13 : 0008;
	   14 : 0007;
	   15 : 0000;
	   16 : FFD4;
	   17 : FFD6;
	   18 : 000A;
	   19 : FFF0;
	   20 : 002B;
	   21 : FFF6;
	   22 : FFDB;
	   23 : 0016;
	   24 : FFEB;
	   25 : 0003;
	   26 : 0014;
	   27 : 0029;
	   28 : 001E;
	   29 : 0012;
	   30 : 0012;
	   31 : 002E;
	   32 : FFEB;
	   33 : FFCD;
	   34 : FFE9;
	   35 : FFE3;
	   36 : 0011;
	   37 : 000E;
	   38 : 000A;
	   39 : FFCE;
	   40 : 0017;
	   41 : FFEE;
	   42 : 0011;
	   43 : 0006;
	   44 : FFF0;
	   45 : FFDB;
	   46 : FFD6;
	   47 : 0022;
	   48 : 002B;
	   49 : 000F;
	   50 : FFD7;
	   51 : FFF6;
	   52 : 0017;
	   53 : 001D;
	   54 : FFD9;
	   55 : FFCD;
	   56 : 0016;
	   57 : FFF1;
	   58 : FFE7;
	   59 : FFCE;
	   60 : 0004;
	   61 : 0024;
	   62 : 002F;
	   63 : 0007;
	   64 : 0001;
	   65 : FFD6;
	   66 : 0005;
	   67 : FFF4;
	   68 : 000B;
	   69 : FFF5;
	   70 : FFE5;
	   71 : FFD7;
	   72 : FFED;
	   73 : FFD7;
	   74 : FFDF;
	   75 : 0032;
	   76 : FFFA;
	   77 : 0003;
	   78 : 0026;
	   79 : 0033;
	   80 : 0008;
	   81 : 0020;
	   82 : FFEE;
	   83 : FFEC;
	   84 : FFF6;
	   85 : 0012;
	   86 : 0013;
	   87 : FFED;
	   88 : FFDA;
	   89 : 000E;
	   90 : FFDA;
	   91 : 0008;
	   92 : 0014;
	   93 : 0015;
	   94 : 001A;
	   95 : 0026;
	   96 : 0000;
	   97 : 0018;
	   98 : 000C;
	   99 : FFE0;
	  100 : FFCF;
	  101 : FFEA;
	  102 : FFFA;
	  103 : 000C;
	  104 : 0024;
	  105 : FFE1;
	  106 : FFDA;
	  107 : 002F;
	  108 : FFD8;
	  109 : FFFE;
	  110 : 0009;
	  111 : 0004;
	  112 : FFD6;
	  113 : FFD3;
	  114 : FFD8;
	  115 : 0009;
	  116 : 0005;
	  117 : FFE5;
	  118 : 000E;
	  119 : 0021;
	  120 : FFD1;
	  121 : 0000;
	  122 : 0013;
	  123 : FFE7;
	  124 : FFEC;
	  125 : 000C;
	  126 : 0029;
	  127 : 0020;
	  128 : 0009;
	  129 : 0018;
	  130 : FFF2;
	  131 : 000E;
	  132 : FFFD;
	  133 : FFE0;
	  134 : 0015;
	  135 : 0006;
	  136 : FFF2;
	  137 : 002A;
	  138 : FFCF;
	  139 : FFED;
	  140 : FFD3;
	  141 : 001B;
	  142 : 0015;
	  143 : FFEF;
	  144 : 0012;
	  145 : FFF5;
	  146 : 001A;
	  147 : FFFB;
	  148 : FFF7;
	  149 : 002D;
	  150 : FFE6;
	  151 : FFD9;
	  152 : 0009;
	  153 : 0030;
	  154 : FFF3;
	  155 : FFD3;
	  156 : FFF0;
	  157 : 0001;
	  158 : FFDD;
	  159 : 0010;
	  160 : 0033;
	  161 : FFFB;
	  162 : FFF1;
	  163 : FFF6;
	  164 : FFD9;
	  165 : 0027;
	  166 : FFF7;
	  167 : FFF4;
	  168 : 0010;
	  169 : FFFA;
	  170 : 000F;
	  171 : FFD3;
	  172 : 0020;
	  173 : 002D;
	  174 : 000F;
	  175 : 002F;
	  176 : FFDC;
	  177 : FFFE;
	  178 : 000A;
	  179 : 0008;
	  180 : FFF6;
	  181 : FFEF;
	  182 : FFDA;
	  183 : FFF5;
	  184 : FFDD;
	  185 : 0018;
	  186 : FFE2;
	  187 : FFD3;
	  188 : 0005;
	  189 : 000A;
	  190 : 0026;
	  191 : 0008;
	  192 : FFF0;
	  193 : 001F;
	  194 : 0004;
	  195 : FFD5;
	  196 : 0007;
	  197 : 002A;
	  198 : FFF5;
	  199 : FFEB;
	  200 : FFDB;
	  201 : FFDC;
	  202 : FFF9;
	  203 : 000A;
	  204 : FFD5;
	  205 : 002D;
	  206 : 001A;
	  207 : 0009;
	  208 : 0022;
	  209 : FFD5;
	  210 : FFFE;
	  211 : 000D;
	  212 : 0022;
	  213 : 001D;
	  214 : FFE9;
	  215 : 002D;
	  216 : FFDA;
	  217 : 0026;
	  218 : 0030;
	  219 : FFDF;
	  220 : 0017;
	  221 : FFD1;
	  222 : FFF6;
	  223 : 0002;
	  224 : 0008;
	  225 : 002D;
	  226 : 0012;
	  227 : FFFE;
	  228 : 0020;
	  229 : 002E;
	  230 : FFCF;
	  231 : 0031;
	  232 : FFD6;
	  233 : 0020;
	  234 : FFEA;
	  235 : FFDA;
	  236 : FFFA;
	  237 : 000F;
	  238 : FFF4;
	  239 : FFD2;
	  240 : 000A;
	  241 : 0029;
	  242 : FFF4;
	  243 : FFE3;
	  244 : FFFA;
	  245 : FFD2;
	  246 : 0021;
	  247 : 0021;
	  248 : 0009;
	  249 : FFF1;
	  250 : 001F;
	  251 : 0006;
	  252 : 0021;
	  253 : 000D;
	  254 : 001D;
	  255 : 000A;
	  256 : FFF7;
	  257 : 002F;
	  258 : 0004;
	  259 : 000B;
	  260 : FFE3;
	  261 : 000D;
	  262 : 0007;
	  263 : FFE0;
	  264 : FFD3;
	  265 : 000B;
	  266 : 001B;
	  267 : 0002;
	  268 : FFE4;
	  269 : 0011;
	  270 : FFD5;
	  271 : FFFA;
	  272 : FFDE;
	  273 : FFE0;
	  274 : FFE2;
	  275 : FFF4;
	  276 : FFD2;
	  277 : FFF6;
	  278 : 0001;
	  279 : FFFE;
	  280 : FFF4;
	  281 : 0023;
	  282 : FFDC;
	  283 : 0001;
	  284 : FFD3;
	  285 : FFD4;
	  286 : 0008;
	  287 : 0007;
	  288 : 0027;
	  289 : 0006;
	  290 : 002F;
	  291 : FFD2;
	  292 : FFD7;
	  293 : FFD1;
	  294 : FFE0;
	  295 : 0004;
	  296 : 000F;
	  297 : FFD1;
	  298 : 002E;
	  299 : 0023;
	  300 : FFEB;
	  301 : FFD5;
	  302 : FFDE;
	  303 : FFDA;
	  304 : FFD9;
	  305 : 0002;
	  306 : FFE6;
	  307 : FFF1;
	  308 : 0032;
	  309 : 0013;
	  310 : 002E;
	  311 : FFDB;
	  312 : FFF4;
	  313 : 0006;
	  314 : FFD5;
	  315 : FFCD;
	  316 : 0011;
	  317 : 000F;
	  318 : FFF7;
	  319 : FFFF;
	  320 : FFF7;
	  321 : FFCF;
	  322 : FFEF;
	  323 : FFDF;
	  324 : FFD7;
	  325 : 002F;
	  326 : 000A;
	  327 : 0017;
	  328 : FFED;
	  329 : FFF5;
	  330 : FFE5;
	  331 : FFD7;
	  332 : FFDF;
	  333 : 001E;
	  334 : 0012;
	  335 : 0005;
	  336 : FFFD;
	  337 : 002B;
	  338 : FFD4;
	  339 : FFEA;
	  340 : FFF1;
	  341 : 001D;
	  342 : 0032;
	  343 : FFE5;
	  344 : 0026;
	  345 : 0022;
	  346 : FFE4;
	  347 : FFF6;
	  348 : FFF7;
	  349 : 0031;
	  350 : FFDF;
	  351 : 001F;
	  352 : FFEF;
	  353 : 0018;
	  354 : FFF8;
	  355 : 0008;
	  356 : 0022;
	  357 : 001F;
	  358 : 0026;
	  359 : FFD3;
	  360 : 0014;
	  361 : FFDB;
	  362 : FFF7;
	  363 : 0005;
	  364 : FFF6;
	  365 : 0002;
	  366 : 0033;
	  367 : FFDB;
	  368 : 0012;
	  369 : FFF5;
	  370 : FFDA;
	  371 : FFDD;
	  372 : 002E;
	  373 : 0027;
	  374 : 002A;
	  375 : 0032;
	  376 : FFE2;
	  377 : FFF1;
	  378 : 0011;
	  379 : FFFE;
	  380 : FFF8;
	  381 : FFF1;
	  382 : 000A;
	  383 : 0008;
	  384 : FFDD;
	  385 : FFFD;
	  386 : 0005;
	  387 : 0007;
	  388 : FFE2;
	  389 : 0019;
	  390 : FFCF;
	  391 : FFF1;
	  392 : 001D;
	  393 : 0007;
	  394 : FFE8;
	  395 : 0014;
	  396 : 0007;
	  397 : 001E;
	  398 : 0018;
	  399 : 000B;
	  400 : FFFF;
	  401 : FFDA;
	  402 : FFE8;
	  403 : FFF8;
	  404 : 000A;
	  405 : 0001;
	  406 : FFEA;
	  407 : FFCD;
	  408 : 0000;
	  409 : FFEA;
	  410 : 0018;
	  411 : FFCF;
	  412 : 0009;
	  413 : 002D;
	  414 : FFDF;
	  415 : FFFD;
	  416 : FFD6;
	  417 : 000D;
	  418 : 0005;
	  419 : FFF7;
	  420 : 0002;
	  421 : 0029;
	  422 : FFE1;
	  423 : FFCF;
	  424 : 0025;
	  425 : 0008;
	  426 : 0028;
	  427 : 000A;
	  428 : 0020;
	  429 : FFF9;
	  430 : 001A;
	  431 : 002A;
	  432 : 0007;
	  433 : FFDF;
	  434 : FFE8;
	  435 : FFE1;
	  436 : FFE6;
	  437 : FFEC;
	  438 : 0006;
	  439 : 0009;
	  440 : FFF8;
	  441 : 000C;
	  442 : FFD5;
	  443 : FFD6;
	  444 : FFDE;
	  445 : 0002;
	  446 : FFE3;
	  447 : FFEA;
	  448 : FFF6;
	  449 : 0020;
	  450 : FFCE;
	  451 : 000F;
	  452 : 0011;
	  453 : 001F;
	  454 : 002C;
	  455 : FFCF;
	  456 : FFDD;
	  457 : 0028;
	  458 : FFFC;
	  459 : 0007;
	  460 : 0011;
	  461 : 0012;
	  462 : 002C;
	  463 : 0033;
	  464 : 0017;
	  465 : FFEA;
	  466 : 0027;
	  467 : FFD2;
	  468 : FFE4;
	  469 : 0029;
	  470 : FFE7;
	  471 : FFE3;
	  472 : FFDB;
	  473 : 0025;
	  474 : 0000;
	  475 : 0012;
	  476 : FFE5;
	  477 : 001A;
	  478 : 001B;
	  479 : FFED;
	  480 : FFF7;
	  481 : FFE2;
	  482 : 0031;
	  483 : 000F;
	  484 : 002C;
	  485 : FFEC;
	  486 : 001D;
	  487 : 001B;
	  488 : 0014;
	  489 : 0030;
	  490 : FFF5;
	  491 : FFDA;
	  492 : 0012;
	  493 : 0017;
	  494 : 0008;
	  495 : FFE2;
	  496 : 0000;
	  497 : FFED;
	  498 : FFF9;
	  499 : 000F;
	  500 : 0019;
	  501 : FFE5;
	  502 : FFF6;
	  503 : FFE8;
	  504 : FFE1;
	  505 : 001D;
	  506 : 002A;
	  507 : FFF3;
	  508 : 001A;
	  509 : 0029;
	  510 : 0023;
	  511 : FFE0;
	  512 : 002F;
	  513 : FFF3;
	  514 : FFF0;
	  515 : FFD3;
	  516 : FFFF;
	  517 : FFD8;
	  518 : FFE6;
	  519 : FFED;
	  520 : 0020;
	  521 : 0026;
	  522 : FFEC;
	  523 : 0025;
	  524 : 0025;
	  525 : 001B;
	  526 : FFDC;
	  527 : 0013;
	  528 : 002E;
	  529 : 0013;
	  530 : FFEF;
	  531 : 0000;
	  532 : 000F;
	  533 : 0001;
	  534 : FFD9;
	  535 : FFED;
	  536 : 001F;
	  537 : 0025;
	  538 : FFDB;
	  539 : 002E;
	  540 : FFEE;
	  541 : 0011;
	  542 : 001A;
	  543 : 0020;
	  544 : 002E;
	  545 : FFED;
	  546 : 0025;
	  547 : FFDA;
	  548 : 0015;
	  549 : 0019;
	  550 : 0012;
	  551 : FFE7;
	  552 : 0026;
	  553 : FFDE;
	  554 : FFD2;
	  555 : 0016;
	  556 : FFFD;
	  557 : 0024;
	  558 : FFF4;
	  559 : FFDE;
	  560 : 0022;
	  561 : 0005;
	  562 : FFE0;
	  563 : 0017;
	  564 : 0001;
	  565 : 000B;
	  566 : FFFC;
	  567 : 0022;
	  568 : 0022;
	  569 : 0015;
	  570 : FFD8;
	  571 : 0023;
	  572 : 0012;
	  573 : 0014;
	  574 : FFF2;
	  575 : 0027;
	  576 : 0017;
	  577 : FFD8;
	  578 : FFF7;
	  579 : 0028;
	  580 : FFD2;
	  581 : 002F;
	  582 : 0012;
	  583 : 000D;
	  584 : FFE9;
	  585 : FFE6;
	  586 : 002D;
	  587 : FFEB;
	  588 : 001C;
	  589 : FFF5;
	  590 : FFDB;
	  591 : FFCE;
	  592 : 0005;
	  593 : 0031;
	  594 : FFF3;
	  595 : FFF1;
	  596 : FFF0;
	  597 : 0002;
	  598 : FFFA;
	  599 : 0027;
	  600 : 0001;
	  601 : 0001;
	  602 : FFDB;
	  603 : 0031;
	  604 : FFE6;
	  605 : FFD4;
	  606 : 0011;
	  607 : 000A;
	  608 : FFF7;
	  609 : FFF8;
	  610 : 001D;
	  611 : FFE1;
	  612 : 0021;
	  613 : 000F;
	  614 : FFF8;
	  615 : FFFC;
	  616 : FFE7;
	  617 : 001A;
	  618 : 0001;
	  619 : FFEE;
	  620 : 000A;
	  621 : 0033;
	  622 : FFF9;
	  623 : 002B;
	  624 : FFF0;
	  625 : FFD2;
	  626 : FFE2;
	  627 : FFF8;
	  628 : FFE3;
	  629 : FFCD;
	  630 : 002A;
	  631 : 0023;
	  632 : 0019;
	  633 : FFDE;
	  634 : FFD9;
	  635 : FFD4;
	  636 : 0017;
	  637 : 002C;
	  638 : FFF9;
	  639 : FFD9;
	  640 : 0001;
	  641 : FFF1;
	  642 : FFF3;
	  643 : 000C;
	  644 : 0016;
	  645 : FFD8;
	  646 : FFD0;
	  647 : 0033;
	  648 : FFE5;
	  649 : FFD2;
	  650 : FFE0;
	  651 : FFD1;
	  652 : FFF5;
	  653 : 001F;
	  654 : FFF0;
	  655 : FFFA;
	  656 : 0012;
	  657 : 0001;
	  658 : 0025;
	  659 : 0025;
	  660 : FFCE;
	  661 : 001C;
	  662 : FFFC;
	  663 : 0032;
	  664 : FFFE;
	  665 : 0032;
	  666 : 001A;
	  667 : FFE6;
	  668 : 0004;
	  669 : 0032;
	  670 : 0025;
	  671 : FFD7;
	  672 : 0015;
	  673 : FFF0;
	  674 : FFCE;
	  675 : FFF6;
	  676 : FFE5;
	  677 : 0021;
	  678 : FFEF;
	  679 : 0022;
	  680 : FFCD;
	  681 : FFEC;
	  682 : FFE5;
	  683 : FFE5;
	  684 : FFD4;
	  685 : FFE0;
	  686 : 0006;
	  687 : FFEB;
	  688 : FFF8;
	  689 : FFF3;
	  690 : 0026;
	  691 : 002A;
	  692 : FFFF;
	  693 : FFEF;
	  694 : FFD8;
	  695 : 002E;
	  696 : FFD3;
	  697 : FFEB;
	  698 : FFEB;
	  699 : FFEE;
	  700 : FFDE;
	  701 : 001D;
	  702 : FFD9;
	  703 : 000E;
	  704 : FFD9;
	  705 : FFD4;
	  706 : 002A;
	  707 : FFE0;
	  708 : 0021;
	  709 : 0005;
	  710 : FFD5;
	  711 : 002F;
	  712 : FFE6;
	  713 : 0025;
	  714 : FFDE;
	  715 : 0024;
	  716 : FFCE;
	  717 : 0001;
	  718 : 001C;
	  719 : 002D;
	  720 : 002A;
	  721 : 0021;
	  722 : 0028;
	  723 : FFE1;
	  724 : FFEA;
	  725 : FFEA;
	  726 : FFF3;
	  727 : FFF5;
	  728 : 0005;
	  729 : FFDD;
	  730 : 0014;
	  731 : FFDE;
	  732 : FFED;
	  733 : 0000;
	  734 : 001E;
	  735 : 0019;
	  736 : 000F;
	  737 : FFDD;
	  738 : 0005;
	  739 : FFD6;
	  740 : FFF3;
	  741 : FFF7;
	  742 : FFD1;
	  743 : FFE9;
	  744 : 002F;
	  745 : 002E;
	  746 : FFF1;
	  747 : FFD1;
	  748 : FFDF;
	  749 : FFF5;
	  750 : 002E;
	  751 : FFDB;
	  752 : 001B;
	  753 : FFD8;
	  754 : 0031;
	  755 : FFF4;
	  756 : 001C;
	  757 : FFF0;
	  758 : 000D;
	  759 : FFE0;
	  760 : FFDC;
	  761 : 002D;
	  762 : 002B;
	  763 : 0028;
	  764 : 000D;
	  765 : 0020;
	  766 : FFD4;
	  767 : FFEF;
	  768 : FFED;
	  769 : 000E;
	  770 : FFF1;
	  771 : FFDC;
	  772 : 000A;
	  773 : 0020;
	  774 : FFF4;
	  775 : FFDA;
	  776 : FFE1;
	  777 : FFE5;
	  778 : FFEC;
	  779 : 000F;
	  780 : 000A;
	  781 : 0014;
	  782 : FFF2;
	  783 : 0021;
	  784 : FFE2;
	  785 : FFFD;
	  786 : 001F;
	  787 : FFDF;
	  788 : FFD8;
	  789 : 0027;
	  790 : FFF0;
	  791 : 0013;
	  792 : FFCF;
	  793 : 0013;
	  794 : FFED;
	  795 : FFD3;
	  796 : 000B;
	  797 : FFE5;
	  798 : FFF4;
	  799 : FFD5;
	  800 : FFDC;
	  801 : FFEB;
	  802 : FFD6;
	  803 : 002A;
	  804 : FFCD;
	  805 : FFFE;
	  806 : FFD9;
	  807 : FFEC;
	  808 : 002C;
	  809 : FFDD;
	  810 : 0030;
	  811 : FFE2;
	  812 : 0019;
	  813 : 0005;
	  814 : 0027;
	  815 : 0006;
	  816 : 0004;
	  817 : FFE1;
	  818 : FFDE;
	  819 : 002B;
	  820 : FFEE;
	  821 : FFF3;
	  822 : 001B;
	  823 : FFEF;
	  824 : 002E;
	  825 : 0018;
	  826 : 000A;
	  827 : 0027;
	  828 : FFD2;
	  829 : FFE7;
	  830 : FFFC;
	  831 : FFE4;
	  832 : 0019;
	  833 : 002B;
	  834 : FFF8;
	  835 : FFF0;
	  836 : 002F;
	  837 : FFFA;
	  838 : FFFF;
	  839 : FFF1;
	  840 : 002A;
	  841 : 0007;
	  842 : 001B;
	  843 : 0020;
	  844 : FFF0;
	  845 : FFF9;
	  846 : 0024;
	  847 : FFF2;
	  848 : 001E;
	  849 : 002D;
	  850 : 000D;
	  851 : 0019;
	  852 : 001F;
	  853 : 0023;
	  854 : FFF5;
	  855 : FFD2;
	  856 : FFF6;
	  857 : 0012;
	  858 : FFFB;
	  859 : 0019;
	  860 : FFF1;
	  861 : 000E;
	  862 : FFE0;
	  863 : 001A;
	  864 : 0005;
	  865 : FFE2;
	  866 : FFEB;
	  867 : 0019;
	  868 : FFFE;
	  869 : FFE3;
	  870 : 0030;
	  871 : 0016;
	  872 : 002F;
	  873 : FFF9;
	  874 : FFFD;
	  875 : 0029;
	  876 : 0003;
	  877 : 0015;
	  878 : FFE7;
	  879 : FFFB;
	  880 : FFD9;
	  881 : FFE2;
	  882 : FFCD;
	  883 : FFD1;
	  884 : 0031;
	  885 : FFE6;
	  886 : 0011;
	  887 : 0023;
	  888 : 0005;
	  889 : FFDC;
	  890 : 0017;
	  891 : 000A;
	  892 : 0018;
	  893 : 001C;
	  894 : 0031;
	  895 : 0008;
	  896 : FFF0;
	  897 : 000F;
	  898 : FFD4;
	  899 : 0029;
	  900 : FFD9;
	  901 : FFEE;
	  902 : 0020;
	  903 : 000A;
	  904 : FFF5;
	  905 : FFFD;
	  906 : 0024;
	  907 : FFF0;
	  908 : 0026;
	  909 : FFD6;
	  910 : 001C;
	  911 : 0024;
	  912 : FFDF;
	  913 : FFF9;
	  914 : FFDE;
	  915 : 0015;
	  916 : 0004;
	  917 : 000E;
	  918 : FFE1;
	  919 : FFE2;
	  920 : FFD1;
	  921 : FFEE;
	  922 : 0006;
	  923 : 0025;
	  924 : 0011;
	  925 : FFF9;
	  926 : 002E;
	  927 : 0016;
	  928 : 002C;
	  929 : 0003;
	  930 : FFE7;
	  931 : FFD2;
	  932 : 0017;
	  933 : FFD9;
	  934 : FFEC;
	  935 : 0003;
	  936 : 0007;
	  937 : 000A;
	  938 : FFDE;
	  939 : FFF4;
	  940 : 000C;
	  941 : 0030;
	  942 : 0017;
	  943 : 002B;
	  944 : 001B;
	  945 : 0009;
	  946 : FFE0;
	  947 : 0011;
	  948 : 000D;
	  949 : 000A;
	  950 : FFFF;
	  951 : 0003;
	  952 : FFEF;
	  953 : 0002;
	  954 : FFE1;
	  955 : 001F;
	  956 : FFE0;
	  957 : FFD6;
	  958 : FFF9;
	  959 : 0010;
	  960 : FFFA;
	  961 : FFE9;
	  962 : 0006;
	  963 : FFF0;
	  964 : 002C;
	  965 : 002B;
	  966 : 0000;
	  967 : FFEE;
	  968 : 0018;
	  969 : FFD1;
	  970 : FFFD;
	  971 : FFEF;
	  972 : 002B;
	  973 : FFCE;
	  974 : 0005;
	  975 : 0019;
	  976 : FFFE;
	  977 : FFD6;
	  978 : 0030;
	  979 : 0002;
	  980 : 000C;
	  981 : FFE5;
	  982 : FFFE;
	  983 : FFF9;
	  984 : FFD4;
	  985 : FFD8;
	  986 : 0023;
	  987 : FFE5;
	  988 : FFE1;
	  989 : 0001;
	  990 : 001C;
	  991 : FFD3;
	  992 : 0008;
	  993 : FFD9;
	  994 : FFD1;
	  995 : FFD2;
	  996 : 0022;
	  997 : FFD9;
	  998 : FFD1;
	  999 : FFFA;
	 1000 : 0023;
	 1001 : FFE8;
	 1002 : FFF8;
	 1003 : FFD1;
	 1004 : FFFB;
	 1005 : 0008;
	 1006 : 0007;
	 1007 : FFEF;
	 1008 : FFED;
	 1009 : FFD8;
	 1010 : FFF2;
	 1011 : FFD7;
	 1012 : 001B;
	 1013 : 0030;
	 1014 : 0030;
	 1015 : 0025;
	 1016 : 000A;
	 1017 : 0015;
	 1018 : FFEA;
	 1019 : 000D;
	 1020 : FFFB;
	 1021 : FFFE;
	 1022 : 001A;
	 1023 : FFEA;
	 1024 : FFED;
	 1025 : 002B;
	 1026 : FFD3;
	 1027 : FFFF;
	 1028 : 002A;
	 1029 : 000B;
	 1030 : 0005;
	 1031 : FFE6;
	 1032 : FFF0;
	 1033 : 0024;
	 1034 : 0006;
	 1035 : 0002;
	 1036 : FFD7;
	 1037 : FFCE;
	 1038 : 002F;
	 1039 : FFF3;
	 1040 : 000B;
	 1041 : FFD5;
	 1042 : 0013;
	 1043 : 002C;
	 1044 : 0008;
	 1045 : FFDA;
	 1046 : 0008;
	 1047 : 001B;
	 1048 : FFF6;
	 1049 : 0027;
	 1050 : 000F;
	 1051 : 0029;
	 1052 : 000D;
	 1053 : FFDA;
	 1054 : FFED;
	 1055 : FFE1;
	 1056 : 002A;
	 1057 : 001B;
	 1058 : 0012;
	 1059 : FFEC;
	 1060 : FFE0;
	 1061 : 001A;
	 1062 : FFFD;
	 1063 : FFE4;
	 1064 : 000C;
	 1065 : FFD1;
	 1066 : FFEE;
	 1067 : FFFD;
	 1068 : FFDC;
	 1069 : 0032;
	 1070 : FFE2;
	 1071 : FFDA;
	 1072 : FFE2;
	 1073 : 001C;
	 1074 : FFF8;
	 1075 : 0007;
	 1076 : FFCF;
	 1077 : FFD0;
	 1078 : FFFA;
	 1079 : 0020;
	 1080 : 0027;
	 1081 : FFD6;
	 1082 : 0004;
	 1083 : 002A;
	 1084 : FFF5;
	 1085 : 0022;
	 1086 : FFDA;
	 1087 : 002D;
	 1088 : 001A;
	 1089 : 002D;
	 1090 : 0012;
	 1091 : FFF2;
	 1092 : 002D;
	 1093 : FFE9;
	 1094 : FFEF;
	 1095 : 0015;
	 1096 : 001B;
	 1097 : 002C;
	 1098 : FFE2;
	 1099 : 001F;
	 1100 : 0018;
	 1101 : FFD3;
	 1102 : FFF4;
	 1103 : FFEA;
	 1104 : FFEC;
	 1105 : 0031;
	 1106 : 000F;
	 1107 : 0016;
	 1108 : 0031;
	 1109 : FFF3;
	 1110 : 001F;
	 1111 : FFF9;
	 1112 : 0026;
	 1113 : FFDF;
	 1114 : 002E;
	 1115 : FFE3;
	 1116 : FFEE;
	 1117 : 001A;
	 1118 : FFF5;
	 1119 : 000B;
	 1120 : FFFA;
	 1121 : 0019;
	 1122 : FFE4;
	 1123 : FFD3;
	 1124 : FFEC;
	 1125 : FFFD;
	 1126 : FFDE;
	 1127 : FFF1;
	 1128 : FFF6;
	 1129 : FFD3;
	 1130 : 0009;
	 1131 : 0027;
	 1132 : FFDC;
	 1133 : 000A;
	 1134 : 0011;
	 1135 : FFF8;
	 1136 : 0015;
	 1137 : FFF7;
	 1138 : 0000;
	 1139 : FFCE;
	 1140 : 0014;
	 1141 : 0011;
	 1142 : FFD1;
	 1143 : FFF3;
	 1144 : 0031;
	 1145 : FFF8;
	 1146 : 0000;
	 1147 : 002A;
	 1148 : 0016;
	 1149 : 0008;
	 1150 : 001E;
	 1151 : 0025;
	 1152 : FFFC;
	 1153 : FFFD;
	 1154 : FFF4;
	 1155 : 0030;
	 1156 : 0014;
	 1157 : FFD5;
	 1158 : 0025;
	 1159 : FFFE;
	 1160 : FFD4;
	 1161 : 0005;
	 1162 : FFF8;
	 1163 : 0027;
	 1164 : FFE2;
	 1165 : 0021;
	 1166 : 0006;
	 1167 : FFD2;
	 1168 : 0030;
	 1169 : 0001;
	 1170 : FFEB;
	 1171 : FFFD;
	 1172 : 0025;
	 1173 : FFEC;
	 1174 : FFE1;
	 1175 : FFDA;
	 1176 : FFEB;
	 1177 : 001D;
	 1178 : FFFD;
	 1179 : FFE4;
	 1180 : FFDE;
	 1181 : FFEF;
	 1182 : 002D;
	 1183 : FFF0;
	 1184 : 0032;
	 1185 : FFFE;
	 1186 : FFDF;
	 1187 : 0028;
	 1188 : FFFC;
	 1189 : 0015;
	 1190 : 0032;
	 1191 : FFD2;
	 1192 : FFD7;
	 1193 : 0017;
	 1194 : FFEA;
	 1195 : FFE0;
	 1196 : FFD1;
	 1197 : FFCF;
	 1198 : 001C;
	 1199 : FFDB;
	 1200 : FFFD;
	 1201 : 000B;
	 1202 : FFF9;
	 1203 : FFD0;
	 1204 : 001D;
	 1205 : FFCE;
	 1206 : 001B;
	 1207 : 0028;
	 1208 : FFF9;
	 1209 : 0004;
	 1210 : FFFE;
	 1211 : FFF5;
	 1212 : 0028;
	 1213 : 0028;
	 1214 : FFEF;
	 1215 : 000C;
	 1216 : 002C;
	 1217 : 002F;
	 1218 : 0001;
	 1219 : FFFB;
	 1220 : FFE9;
	 1221 : 002F;
	 1222 : FFDB;
	 1223 : 0008;
	 1224 : FFEA;
	 1225 : FFE9;
	 1226 : FFF6;
	 1227 : 0033;
	 1228 : FFD2;
	 1229 : 0008;
	 1230 : FFD5;
	 1231 : FFDD;
	 1232 : FFFA;
	 1233 : 0001;
	 1234 : FFE7;
	 1235 : FFED;
	 1236 : FFD6;
	 1237 : FFEC;
	 1238 : 0030;
	 1239 : 002E;
	 1240 : FFEF;
	 1241 : 0007;
	 1242 : 002A;
	 1243 : FFCD;
	 1244 : 0020;
	 1245 : 002E;
	 1246 : FFD6;
	 1247 : FFDD;
	 1248 : 002F;
	 1249 : 0004;
	 1250 : FFCE;
	 1251 : FFE7;
	 1252 : FFFB;
	 1253 : 0014;
	 1254 : 0018;
	 1255 : 0033;
	 1256 : FFEA;
	 1257 : 0004;
	 1258 : 0003;
	 1259 : FFF6;
	 1260 : FFDE;
	 1261 : 0031;
	 1262 : 0024;
	 1263 : 0000;
	 1264 : 000B;
	 1265 : FFE4;
	 1266 : 0004;
	 1267 : 0014;
	 1268 : 0002;
	 1269 : 0032;
	 1270 : 000B;
	 1271 : FFF3;
	 1272 : 001C;
	 1273 : FFDE;
	 1274 : FFF4;
	 1275 : FFF0;
	 1276 : FFF9;
	 1277 : 001D;
	 1278 : FFFE;
	 1279 : 001E;
	 1280 : 0008;
	 1281 : FFF0;
	 1282 : 0020;
	 1283 : FFE5;
	 1284 : FFE4;
	 1285 : 0000;
	 1286 : FFE8;
	 1287 : FFCE;
	 1288 : 000F;
	 1289 : 0001;
	 1290 : FFFA;
	 1291 : 0030;
	 1292 : 0007;
	 1293 : 0025;
	 1294 : FFDB;
	 1295 : 0007;
	 1296 : 0026;
	 1297 : 0009;
	 1298 : 0016;
	 1299 : FFF3;
	 1300 : FFD6;
	 1301 : FFFC;
	 1302 : FFF5;
	 1303 : 0026;
	 1304 : FFE6;
	 1305 : 0030;
	 1306 : 002F;
	 1307 : FFE6;
	 1308 : FFF0;
	 1309 : 0029;
	 1310 : 0030;
	 1311 : FFFA;
	 1312 : FFEE;
	 1313 : 0003;
	 1314 : 0013;
	 1315 : FFE9;
	 1316 : 0018;
	 1317 : FFD2;
	 1318 : FFD2;
	 1319 : FFF4;
	 1320 : FFF1;
	 1321 : FFED;
	 1322 : FFFF;
	 1323 : FFEE;
	 1324 : FFE0;
	 1325 : FFEC;
	 1326 : 0031;
	 1327 : FFF7;
	 1328 : FFFA;
	 1329 : 0008;
	 1330 : 0031;
	 1331 : FFE6;
	 1332 : 0013;
	 1333 : 0016;
	 1334 : 000B;
	 1335 : FFD6;
	 1336 : 0012;
	 1337 : FFD3;
	 1338 : 000A;
	 1339 : 0019;
	 1340 : FFE2;
	 1341 : 0023;
	 1342 : FFD0;
	 1343 : 0023;
	 1344 : FFFC;
	 1345 : FFE3;
	 1346 : FFDA;
	 1347 : 002E;
	 1348 : FFD4;
	 1349 : FFE1;
	 1350 : FFF0;
	 1351 : 000C;
	 1352 : 0005;
	 1353 : FFDA;
	 1354 : FFEA;
	 1355 : FFE5;
	 1356 : FFE3;
	 1357 : FFF7;
	 1358 : 0015;
	 1359 : FFE3;
	 1360 : FFF2;
	 1361 : FFF5;
	 1362 : 0031;
	 1363 : 002F;
	 1364 : 001F;
	 1365 : FFE6;
	 1366 : FFD4;
	 1367 : FFED;
	 1368 : FFE8;
	 1369 : 0001;
	 1370 : 001C;
	 1371 : 0025;
	 1372 : 0023;
	 1373 : FFF2;
	 1374 : 0013;
	 1375 : FFED;
	 1376 : FFD3;
	 1377 : 0015;
	 1378 : FFCE;
	 1379 : FFF7;
	 1380 : FFEF;
	 1381 : 0014;
	 1382 : 001B;
	 1383 : FFEC;
	 1384 : 0020;
	 1385 : FFEB;
	 1386 : FFFB;
	 1387 : 0017;
	 1388 : 0014;
	 1389 : 0032;
	 1390 : FFE4;
	 1391 : 0011;
	 1392 : 000B;
	 1393 : 002B;
	 1394 : FFDD;
	 1395 : 001A;
	 1396 : 0007;
	 1397 : FFE9;
	 1398 : FFFD;
	 1399 : FFEF;
	 1400 : 0008;
	 1401 : 0028;
	 1402 : 0007;
	 1403 : 000D;
	 1404 : 0002;
	 1405 : FFD2;
	 1406 : FFE5;
	 1407 : FFFF;
	 1408 : FFED;
	 1409 : FFDF;
	 1410 : 0000;
	 1411 : FFEE;
	 1412 : FFE7;
	 1413 : FFFC;
	 1414 : FFDA;
	 1415 : 002C;
	 1416 : 0026;
	 1417 : 0015;
	 1418 : FFD8;
	 1419 : 001C;
	 1420 : 0020;
	 1421 : 001B;
	 1422 : FFD8;
	 1423 : 000F;
	 1424 : 0022;
	 1425 : 0008;
	 1426 : 000F;
	 1427 : FFFC;
	 1428 : 0003;
	 1429 : FFD0;
	 1430 : 000E;
	 1431 : FFD5;
	 1432 : FFF9;
	 1433 : FFEB;
	 1434 : 0005;
	 1435 : FFDA;
	 1436 : 0014;
	 1437 : 001E;
	 1438 : FFDE;
	 1439 : FFD7;
	 1440 : FFDC;
	 1441 : 0027;
	 1442 : 0003;
	 1443 : FFFD;
	 1444 : FFD8;
	 1445 : 000F;
	 1446 : 0026;
	 1447 : 0022;
	 1448 : 000D;
	 1449 : FFD5;
	 1450 : FFD8;
	 1451 : FFD2;
	 1452 : FFE7;
	 1453 : FFDB;
	 1454 : FFE7;
	 1455 : FFF4;
	 1456 : 002D;
	 1457 : 000B;
	 1458 : 0022;
	 1459 : 0016;
	 1460 : FFD8;
	 1461 : 0018;
	 1462 : FFE9;
	 1463 : 000E;
	 1464 : FFF0;
	 1465 : 0033;
	 1466 : FFE8;
	 1467 : FFE9;
	 1468 : 002C;
	 1469 : FFCF;
	 1470 : 0014;
	 1471 : 0017;
	 1472 : 0022;
	 1473 : 0031;
	 1474 : 0031;
	 1475 : FFD3;
	 1476 : 0021;
	 1477 : 000F;
	 1478 : 000F;
	 1479 : FFDA;
	 1480 : 000F;
	 1481 : 0031;
	 1482 : 002A;
	 1483 : FFFA;
	 1484 : FFD1;
	 1485 : FFF2;
	 1486 : 0021;
	 1487 : 0015;
	 1488 : FFFC;
	 1489 : FFD2;
	 1490 : FFF9;
	 1491 : FFFD;
	 1492 : 002C;
	 1493 : 000E;
	 1494 : FFED;
	 1495 : 0003;
	 1496 : FFD4;
	 1497 : 0030;
	 1498 : FFF2;
	 1499 : FFFE;
	 1500 : FFF1;
	 1501 : 0013;
	 1502 : 0011;
	 1503 : 0016;
	 1504 : FFE8;
	 1505 : FFED;
	 1506 : FFDA;
	 1507 : 0010;
	 1508 : FFD1;
	 1509 : 000A;
	 1510 : 0026;
	 1511 : 0028;
	 1512 : FFFB;
	 1513 : FFFC;
	 1514 : FFD5;
	 1515 : 0011;
	 1516 : 0021;
	 1517 : FFE6;
	 1518 : FFF8;
	 1519 : 0023;
	 1520 : 0027;
	 1521 : FFE6;
	 1522 : 0005;
	 1523 : FFE1;
	 1524 : FFD7;
	 1525 : 002A;
	 1526 : 0021;
	 1527 : 001B;
	 1528 : FFD2;
	 1529 : 0023;
	 1530 : FFFA;
	 1531 : FFF0;
	 1532 : 0005;
	 1533 : FFD6;
	 1534 : 001A;
	 1535 : 0008;
	 1536 : FFE0;
	 1537 : FFE0;
	 1538 : FFE0;
	 1539 : FFD3;
	 1540 : 0009;
	 1541 : 0023;
	 1542 : FFCF;
	 1543 : FFD2;
	 1544 : 0007;
	 1545 : 0021;
	 1546 : FFEE;
	 1547 : FFF1;
	 1548 : 000A;
	 1549 : FFE9;
	 1550 : FFD0;
	 1551 : 0018;
	 1552 : 000D;
	 1553 : 0008;
	 1554 : 0019;
	 1555 : 0012;
	 1556 : FFE2;
	 1557 : FFF1;
	 1558 : FFDA;
	 1559 : FFDA;
	 1560 : 0012;
	 1561 : 0025;
	 1562 : 002F;
	 1563 : 000D;
	 1564 : FFE0;
	 1565 : FFD8;
	 1566 : 0020;
	 1567 : 0008;
	 1568 : 000C;
	 1569 : 001D;
	 1570 : 0015;
	 1571 : 0022;
	 1572 : FFD3;
	 1573 : 0019;
	 1574 : 0024;
	 1575 : FFEA;
	 1576 : 000E;
	 1577 : FFED;
	 1578 : 002F;
	 1579 : FFD0;
	 1580 : 0008;
	 1581 : FFDE;
	 1582 : 0016;
	 1583 : FFDF;
	 1584 : FFE5;
	 1585 : FFFF;
	 1586 : 002A;
	 1587 : FFE2;
	 1588 : FFDC;
	 1589 : 001B;
	 1590 : 0000;
	 1591 : 002A;
	 1592 : FFDC;
	 1593 : 000F;
	 1594 : FFE5;
	 1595 : FFDD;
	 1596 : 0013;
	 1597 : 000A;
	 1598 : 001A;
	 1599 : FFEC;
	 1600 : FFFB;
	 1601 : FFF6;
	 1602 : 0032;
	 1603 : FFEB;
	 1604 : FFEB;
	 1605 : FFF1;
	 1606 : 0007;
	 1607 : FFE7;
	 1608 : 002B;
	 1609 : FFE8;
	 1610 : 0029;
	 1611 : FFD7;
	 1612 : 0010;
	 1613 : 002A;
	 1614 : FFDE;
	 1615 : 0030;
	 1616 : FFFB;
	 1617 : 002E;
	 1618 : 0012;
	 1619 : FFEC;
	 1620 : FFE0;
	 1621 : FFEC;
	 1622 : FFD6;
	 1623 : FFDC;
	 1624 : FFD8;
	 1625 : FFF8;
	 1626 : 001E;
	 1627 : FFDB;
	 1628 : FFDA;
	 1629 : 000F;
	 1630 : FFE1;
	 1631 : FFD7;
	 1632 : FFDE;
	 1633 : 002B;
	 1634 : 0021;
	 1635 : FFF1;
	 1636 : 0010;
	 1637 : 0004;
	 1638 : 0012;
	 1639 : 0013;
	 1640 : 000D;
	 1641 : FFE8;
	 1642 : FFD1;
	 1643 : FFFB;
	 1644 : 0028;
	 1645 : 0007;
	 1646 : 0022;
	 1647 : 0032;
	 1648 : FFDE;
	 1649 : 0014;
	 1650 : 0012;
	 1651 : 0031;
	 1652 : 0032;
	 1653 : 0013;
	 1654 : FFE6;
	 1655 : 001F;
	 1656 : FFD8;
	 1657 : 001D;
	 1658 : 002A;
	 1659 : FFF4;
	 1660 : 000D;
	 1661 : FFF9;
	 1662 : FFFA;
	 1663 : FFED;
	 1664 : 001B;
	 1665 : 002D;
	 1666 : 002D;
	 1667 : FFDF;
	 1668 : 0026;
	 1669 : 0018;
	 1670 : FFE7;
	 1671 : FFD4;
	 1672 : FFE8;
	 1673 : 002A;
	 1674 : 000E;
	 1675 : 0017;
	 1676 : FFE7;
	 1677 : 0016;
	 1678 : FFD0;
	 1679 : FFF3;
	 1680 : 000D;
	 1681 : FFDC;
	 1682 : 0021;
	 1683 : FFE5;
	 1684 : 0010;
	 1685 : FFF6;
	 1686 : 000A;
	 1687 : FFD8;
	 1688 : FFCF;
	 1689 : 002A;
	 1690 : FFE8;
	 1691 : 0021;
	 1692 : 0033;
	 1693 : FFE2;
	 1694 : FFE8;
	 1695 : 0011;
	 1696 : 0030;
	 1697 : 002B;
	 1698 : 0000;
	 1699 : 001E;
	 1700 : FFDB;
	 1701 : 0031;
	 1702 : 0030;
	 1703 : FFDE;
	 1704 : FFEB;
	 1705 : FFD7;
	 1706 : FFE9;
	 1707 : 0020;
	 1708 : FFF4;
	 1709 : FFD6;
	 1710 : FFF0;
	 1711 : 0031;
	 1712 : 000D;
	 1713 : FFF7;
	 1714 : FFDE;
	 1715 : 0032;
	 1716 : 0021;
	 1717 : FFEA;
	 1718 : FFD4;
	 1719 : FFD3;
	 1720 : FFD9;
	 1721 : 0008;
	 1722 : 002C;
	 1723 : 0000;
	 1724 : 0023;
	 1725 : FFFA;
	 1726 : 0015;
	 1727 : 0018;
	 1728 : FFDF;
	 1729 : FFF2;
	 1730 : 000E;
	 1731 : FFD4;
	 1732 : FFF2;
	 1733 : 0004;
	 1734 : 0033;
	 1735 : FFFD;
	 1736 : 0020;
	 1737 : FFF9;
	 1738 : 001E;
	 1739 : 000A;
	 1740 : 0028;
	 1741 : FFF7;
	 1742 : 000B;
	 1743 : 000D;
	 1744 : FFF8;
	 1745 : FFDC;
	 1746 : FFD6;
	 1747 : FFCF;
	 1748 : 0026;
	 1749 : FFE5;
	 1750 : FFE2;
	 1751 : 0018;
	 1752 : FFEE;
	 1753 : 0001;
	 1754 : FFDD;
	 1755 : 002F;
	 1756 : 0024;
	 1757 : 0025;
	 1758 : FFF6;
	 1759 : 001B;
	 1760 : FFDC;
	 1761 : FFCE;
	 1762 : FFCF;
	 1763 : 0009;
	 1764 : FFFB;
	 1765 : 0002;
	 1766 : FFCE;
	 1767 : FFF8;
	 1768 : 0016;
	 1769 : FFFA;
	 1770 : 0018;
	 1771 : FFE5;
	 1772 : 0020;
	 1773 : 0009;
	 1774 : FFE2;
	 1775 : FFE5;
	 1776 : 000D;
	 1777 : 0022;
	 1778 : FFF7;
	 1779 : FFE7;
	 1780 : 0026;
	 1781 : 0011;
	 1782 : FFFB;
	 1783 : FFFF;
	 1784 : FFE2;
	 1785 : 000D;
	 1786 : FFF2;
	 1787 : 0033;
	 1788 : FFFE;
	 1789 : FFFF;
	 1790 : 0007;
	 1791 : 002B;
	 1792 : 001F;
	 1793 : FFFB;
	 1794 : 0016;
	 1795 : 0009;
	 1796 : FFFF;
	 1797 : FFE0;
	 1798 : FFFC;
	 1799 : FFE6;
	 1800 : 002A;
	 1801 : FFEF;
	 1802 : 002E;
	 1803 : 0003;
	 1804 : 000D;
	 1805 : 0004;
	 1806 : FFDA;
	 1807 : FFF3;
	 1808 : FFD7;
	 1809 : 000D;
	 1810 : FFFB;
	 1811 : 001C;
	 1812 : FFE3;
	 1813 : FFDE;
	 1814 : FFF6;
	 1815 : 002C;
	 1816 : 0016;
	 1817 : FFF8;
	 1818 : 0002;
	 1819 : FFD5;
	 1820 : 0032;
	 1821 : 0011;
	 1822 : FFEA;
	 1823 : 0009;
	 1824 : FFD8;
	 1825 : 0030;
	 1826 : FFDF;
	 1827 : 000F;
	 1828 : FFE6;
	 1829 : 0016;
	 1830 : 001C;
	 1831 : 0012;
	 1832 : 000C;
	 1833 : 0028;
	 1834 : FFD5;
	 1835 : FFEF;
	 1836 : FFE6;
	 1837 : 0032;
	 1838 : FFF5;
	 1839 : 0018;
	 1840 : 0013;
	 1841 : FFE3;
	 1842 : FFE5;
	 1843 : FFEA;
	 1844 : FFF7;
	 1845 : FFE5;
	 1846 : FFCF;
	 1847 : 0027;
	 1848 : 0030;
	 1849 : FFF0;
	 1850 : FFEF;
	 1851 : FFCE;
	 1852 : 0012;
	 1853 : 0021;
	 1854 : FFDC;
	 1855 : FFDD;
	 1856 : 001E;
	 1857 : 000C;
	 1858 : FFD1;
	 1859 : 000D;
	 1860 : FFEC;
	 1861 : FFF3;
	 1862 : 001C;
	 1863 : 0020;
	 1864 : FFF6;
	 1865 : 002E;
	 1866 : FFF6;
	 1867 : 001C;
	 1868 : FFFE;
	 1869 : 0029;
	 1870 : 002A;
	 1871 : FFD6;
	 1872 : 002D;
	 1873 : 0021;
	 1874 : 001E;
	 1875 : FFE1;
	 1876 : 001F;
	 1877 : 0024;
	 1878 : FFEA;
	 1879 : 002E;
	 1880 : FFD2;
	 1881 : FFDC;
	 1882 : 0004;
	 1883 : 0008;
	 1884 : 000F;
	 1885 : FFCF;
	 1886 : 002F;
	 1887 : FFD1;
	 1888 : FFDB;
	 1889 : FFCE;
	 1890 : 0007;
	 1891 : 002C;
	 1892 : 0011;
	 1893 : 0021;
	 1894 : FFCE;
	 1895 : 0004;
	 1896 : FFFC;
	 1897 : 0000;
	 1898 : FFD4;
	 1899 : 0013;
	 1900 : 0000;
	 1901 : 001B;
	 1902 : FFFE;
	 1903 : FFDC;
	 1904 : 000F;
	 1905 : FFDE;
	 1906 : 0026;
	 1907 : 000C;
	 1908 : FFDD;
	 1909 : 002F;
	 1910 : 0002;
	 1911 : FFD4;
	 1912 : 000D;
	 1913 : FFE7;
	 1914 : 001F;
	 1915 : 0021;
	 1916 : 0031;
	 1917 : 0000;
	 1918 : FFFB;
	 1919 : 001A;
	 1920 : FFDA;
	 1921 : 0005;
	 1922 : 0005;
	 1923 : FFD6;
	 1924 : FFF8;
	 1925 : 0024;
	 1926 : 0024;
	 1927 : FFD7;
	 1928 : FFD6;
	 1929 : FFE8;
	 1930 : 0026;
	 1931 : FFDA;
	 1932 : 0017;
	 1933 : FFD7;
	 1934 : 000D;
	 1935 : FFF1;
	 1936 : 001E;
	 1937 : FFE5;
	 1938 : 000E;
	 1939 : FFE5;
	 1940 : 0016;
	 1941 : 0026;
	 1942 : FFDA;
	 1943 : 0026;
	 1944 : 000A;
	 1945 : FFDA;
	 1946 : FFF9;
	 1947 : FFDD;
	 1948 : 0015;
	 1949 : 001B;
	 1950 : FFD8;
	 1951 : 0001;
	 1952 : 0020;
	 1953 : 002D;
	 1954 : 0001;
	 1955 : 002E;
	 1956 : 0004;
	 1957 : FFF5;
	 1958 : 0024;
	 1959 : FFFF;
	 1960 : FFFD;
	 1961 : FFFF;
	 1962 : 0024;
	 1963 : 0022;
	 1964 : FFF6;
	 1965 : FFEF;
	 1966 : FFFF;
	 1967 : 0007;
	 1968 : FFE5;
	 1969 : 001E;
	 1970 : FFFF;
	 1971 : FFEF;
	 1972 : FFD8;
	 1973 : FFE5;
	 1974 : 002E;
	 1975 : FFEC;
	 1976 : FFDE;
	 1977 : FFFC;
	 1978 : FFEC;
	 1979 : FFD0;
	 1980 : FFEE;
	 1981 : 0005;
	 1982 : 0005;
	 1983 : FFF1;
	 1984 : FFFB;
	 1985 : 0030;
	 1986 : FFF3;
	 1987 : FFE7;
	 1988 : FFE6;
	 1989 : FFFC;
	 1990 : 001B;
	 1991 : FFE2;
	 1992 : 0015;
	 1993 : FFCF;
	 1994 : FFF8;
	 1995 : 001C;
	 1996 : FFEF;
	 1997 : 0007;
	 1998 : FFE2;
	 1999 : 0019;
	 2000 : FFD2;
	 2001 : 0024;
	 2002 : FFE1;
	 2003 : 0026;
	 2004 : FFF1;
	 2005 : 0017;
	 2006 : FFED;
	 2007 : 002A;
	 2008 : FFDA;
	 2009 : FFDF;
	 2010 : FFFF;
	 2011 : FFD5;
	 2012 : FFE1;
	 2013 : 002D;
	 2014 : 0031;
	 2015 : FFF3;
	 2016 : 002B;
	 2017 : 0005;
	 2018 : FFE8;
	 2019 : 0015;
	 2020 : 0010;
	 2021 : 0032;
	 2022 : FFE8;
	 2023 : 0012;
	 2024 : FFD2;
	 2025 : FFD8;
	 2026 : FFCD;
	 2027 : 0033;
	 2028 : 001F;
	 2029 : 001D;
	 2030 : 0001;
	 2031 : FFEC;
	 2032 : FFDC;
	 2033 : FFEA;
	 2034 : FFF3;
	 2035 : 001A;
	 2036 : 0004;
	 2037 : FFD5;
	 2038 : FFCF;
	 2039 : FFD7;
	 2040 : FFF7;
	 2041 : 002C;
	 2042 : 000E;
	 2043 : 001F;
	 2044 : FFFD;
	 2045 : FFF2;
	 2046 : FFD8;
	 2047 : 0026;
	 2048 : 001D;
	 2049 : FFDE;
	 2050 : 0001;
	 2051 : FFFF;
	 2052 : 000D;
	 2053 : 002E;
	 2054 : 0008;
	 2055 : 0004;
	 2056 : FFD2;
	 2057 : FFD3;
	 2058 : FFE0;
	 2059 : FFD0;
	 2060 : 0019;
	 2061 : 0017;
	 2062 : FFDB;
	 2063 : 0022;
	 2064 : FFDD;
	 2065 : FFEC;
	 2066 : FFE6;
	 2067 : FFF3;
	 2068 : FFE7;
	 2069 : FFFF;
	 2070 : FFF7;
	 2071 : 0032;
	 2072 : FFD3;
	 2073 : FFDB;
	 2074 : FFD2;
	 2075 : 000D;
	 2076 : FFD2;
	 2077 : 0022;
	 2078 : 0001;
	 2079 : 0003;
	 2080 : 0006;
	 2081 : FFDE;
	 2082 : FFE1;
	 2083 : FFED;
	 2084 : 000A;
	 2085 : FFE2;
	 2086 : FFD9;
	 2087 : 0030;
	 2088 : FFCF;
	 2089 : 001F;
	 2090 : 001D;
	 2091 : FFEB;
	 2092 : FFDB;
	 2093 : FFDC;
	 2094 : 0014;
	 2095 : 000F;
	 2096 : 001D;
	 2097 : 002D;
	 2098 : 0014;
	 2099 : FFDD;
	 2100 : FFE6;
	 2101 : 0023;
	 2102 : FFE2;
	 2103 : FFD4;
	 2104 : 0015;
	 2105 : FFF6;
	 2106 : 002B;
	 2107 : 000F;
	 2108 : FFD6;
	 2109 : 002E;
	 2110 : FFE7;
	 2111 : FFEF;
	 2112 : FFF6;
	 2113 : FFD2;
	 2114 : 0000;
	 2115 : FFD9;
	 2116 : FFF6;
	 2117 : FFF1;
	 2118 : 001C;
	 2119 : 001F;
	 2120 : FFDD;
	 2121 : FFF2;
	 2122 : FFF3;
	 2123 : FFDC;
	 2124 : 001F;
	 2125 : 0015;
	 2126 : FFE0;
	 2127 : FFF2;
	 2128 : FFD8;
	 2129 : 000D;
	 2130 : FFD9;
	 2131 : 0032;
	 2132 : 001D;
	 2133 : FFF5;
	 2134 : 0008;
	 2135 : 002A;
	 2136 : 0006;
	 2137 : FFDF;
	 2138 : FFF4;
	 2139 : 0023;
	 2140 : 000F;
	 2141 : 000F;
	 2142 : 0026;
	 2143 : 0028;
	 2144 : 002B;
	 2145 : FFD7;
	 2146 : 0005;
	 2147 : 0019;
	 2148 : 001A;
	 2149 : 000B;
	 2150 : FFDE;
	 2151 : 001E;
	 2152 : 0017;
	 2153 : FFD6;
	 2154 : FFFC;
	 2155 : FFDF;
	 2156 : FFEF;
	 2157 : FFCF;
	 2158 : FFF6;
	 2159 : 0005;
	 2160 : 000C;
	 2161 : 0011;
	 2162 : 0022;
	 2163 : FFE3;
	 2164 : FFD9;
	 2165 : 0024;
	 2166 : FFDD;
	 2167 : 0031;
	 2168 : 0023;
	 2169 : 0000;
	 2170 : 0031;
	 2171 : FFD7;
	 2172 : FFEC;
	 2173 : 000E;
	 2174 : FFF1;
	 2175 : 002C;
	 2176 : FFD4;
	 2177 : 0005;
	 2178 : 0009;
	 2179 : 0010;
	 2180 : FFE7;
	 2181 : FFF2;
	 2182 : 0023;
	 2183 : FFE1;
	 2184 : 0021;
	 2185 : 0006;
	 2186 : 001B;
	 2187 : 0016;
	 2188 : FFE2;
	 2189 : 0007;
	 2190 : 0026;
	 2191 : FFF9;
	 2192 : 0030;
	 2193 : FFFB;
	 2194 : FFDB;
	 2195 : FFF5;
	 2196 : 002E;
	 2197 : FFEE;
	 2198 : 0026;
	 2199 : 0027;
	 2200 : FFF1;
	 2201 : FFD5;
	 2202 : 0017;
	 2203 : FFED;
	 2204 : 001D;
	 2205 : FFFA;
	 2206 : FFFE;
	 2207 : 001C;
	 2208 : FFF4;
	 2209 : FFFA;
	 2210 : FFF3;
	 2211 : FFF2;
	 2212 : 0003;
	 2213 : 0020;
	 2214 : FFF2;
	 2215 : 0002;
	 2216 : 0011;
	 2217 : FFE8;
	 2218 : FFE9;
	 2219 : 002C;
	 2220 : 0017;
	 2221 : 0008;
	 2222 : 000F;
	 2223 : FFD0;
	 2224 : 000C;
	 2225 : 0001;
	 2226 : 0005;
	 2227 : FFF2;
	 2228 : FFD5;
	 2229 : FFE1;
	 2230 : 002E;
	 2231 : FFF7;
	 2232 : FFFD;
	 2233 : FFD2;
	 2234 : FFD1;
	 2235 : 0016;
	 2236 : 0004;
	 2237 : 0001;
	 2238 : FFE6;
	 2239 : 0019;
	 2240 : FFDE;
	 2241 : FFE0;
	 2242 : FFFC;
	 2243 : FFEA;
	 2244 : FFE6;
	 2245 : 000F;
	 2246 : 000F;
	 2247 : 0021;
	 2248 : FFF8;
	 2249 : FFD4;
	 2250 : FFE9;
	 2251 : 0031;
	 2252 : 000A;
	 2253 : 0015;
	 2254 : FFCE;
	 2255 : 0002;
	 2256 : FFD1;
	 2257 : 0007;
	 2258 : 002B;
	 2259 : 0030;
	 2260 : 0004;
	 2261 : FFFC;
	 2262 : 002E;
	 2263 : 0012;
	 2264 : FFD3;
	 2265 : FFFC;
	 2266 : FFE5;
	 2267 : FFFD;
	 2268 : FFFB;
	 2269 : 0008;
	 2270 : FFF1;
	 2271 : FFDE;
	 2272 : 0000;
	 2273 : 0022;
	 2274 : 0011;
	 2275 : FFEF;
	 2276 : 002D;
	 2277 : 002A;
	 2278 : FFE2;
	 2279 : FFD1;
	 2280 : 0019;
	 2281 : 0022;
	 2282 : 0030;
	 2283 : 0028;
	 2284 : 000A;
	 2285 : 0003;
	 2286 : FFD0;
	 2287 : FFE6;
	 2288 : FFFC;
	 2289 : 000D;
	 2290 : 0006;
	 2291 : 0019;
	 2292 : FFE9;
	 2293 : 0007;
	 2294 : FFD6;
	 2295 : FFF7;
	 2296 : 001A;
	 2297 : 0014;
	 2298 : 0032;
	 2299 : FFE9;
	 2300 : 0000;
	 2301 : FFEF;
	 2302 : FFFA;
	 2303 : 0025;
	 2304 : 0013;
	 2305 : 0027;
	 2306 : FFE2;
	 2307 : 0026;
	 2308 : FFD3;
	 2309 : 0028;
	 2310 : FFEE;
	 2311 : FFED;
	 2312 : 0001;
	 2313 : 002D;
	 2314 : FFD2;
	 2315 : FFF1;
	 2316 : 0025;
	 2317 : FFF5;
	 2318 : FFE1;
	 2319 : FFF8;
	 2320 : FFF4;
	 2321 : 002B;
	 2322 : 001B;
	 2323 : 0001;
	 2324 : 0032;
	 2325 : FFFC;
	 2326 : FFD3;
	 2327 : FFE8;
	 2328 : FFF9;
	 2329 : FFDD;
	 2330 : 002E;
	 2331 : 001B;
	 2332 : FFE8;
	 2333 : 0009;
	 2334 : 0017;
	 2335 : 002D;
	 2336 : 0027;
	 2337 : 0002;
	 2338 : 001C;
	 2339 : 0006;
	 2340 : 0005;
	 2341 : FFD9;
	 2342 : FFDA;
	 2343 : 0003;
	 2344 : FFE8;
	 2345 : FFCF;
	 2346 : 0017;
	 2347 : FFD0;
	 2348 : 000A;
	 2349 : 0004;
	 2350 : 0030;
	 2351 : FFFE;
	 2352 : FFD3;
	 2353 : 0005;
	 2354 : 0023;
	 2355 : 0033;
	 2356 : FFF9;
	 2357 : FFEE;
	 2358 : 002A;
	 2359 : FFE0;
	 2360 : 000C;
	 2361 : FFF6;
	 2362 : FFD1;
	 2363 : FFF0;
	 2364 : FFE8;
	 2365 : 0013;
	 2366 : 002E;
	 2367 : FFE8;
	 2368 : 0020;
	 2369 : FFD2;
	 2370 : 0004;
	 2371 : FFD4;
	 2372 : 002C;
	 2373 : 001B;
	 2374 : 0010;
	 2375 : 0021;
	 2376 : 000F;
	 2377 : 0030;
	 2378 : 0016;
	 2379 : 002B;
	 2380 : 0002;
	 2381 : FFD9;
	 2382 : 0003;
	 2383 : FFDA;
	 2384 : 0009;
	 2385 : FFFE;
	 2386 : 000D;
	 2387 : FFCE;
	 2388 : FFE1;
	 2389 : FFFF;
	 2390 : 002E;
	 2391 : FFF4;
	 2392 : FFF8;
	 2393 : 0016;
	 2394 : 000B;
	 2395 : FFEB;
	 2396 : FFF7;
	 2397 : FFE3;
	 2398 : 0030;
	 2399 : FFDA;
	 2400 : FFF3;
	 2401 : FFCF;
	 2402 : FFE4;
	 2403 : 001D;
	 2404 : FFE1;
	 2405 : FFD5;
	 2406 : FFFD;
	 2407 : FFCE;
	 2408 : FFD5;
	 2409 : 0020;
	 2410 : 001C;
	 2411 : 002B;
	 2412 : 0024;
	 2413 : 0013;
	 2414 : FFD2;
	 2415 : 001D;
	 2416 : 0023;
	 2417 : 001F;
	 2418 : 0001;
	 2419 : FFE5;
	 2420 : 0023;
	 2421 : 0017;
	 2422 : 0031;
	 2423 : FFDD;
	 2424 : FFE4;
	 2425 : FFE2;
	 2426 : 001E;
	 2427 : FFE0;
	 2428 : FFD4;
	 2429 : 0033;
	 2430 : FFCF;
	 2431 : 0022;
	 2432 : FFF2;
	 2433 : 0023;
	 2434 : 0006;
	 2435 : 0029;
	 2436 : 002C;
	 2437 : FFCE;
	 2438 : FFD5;
	 2439 : FFE6;
	 2440 : 0011;
	 2441 : 0028;
	 2442 : FFFC;
	 2443 : 000B;
	 2444 : FFE0;
	 2445 : 001F;
	 2446 : 0030;
	 2447 : FFE8;
	 2448 : FFFF;
	 2449 : FFD6;
	 2450 : 0006;
	 2451 : 0000;
	 2452 : FFDC;
	 2453 : FFFA;
	 2454 : FFEF;
	 2455 : 0002;
	 2456 : 0009;
	 2457 : FFCE;
	 2458 : 001B;
	 2459 : 0016;
	 2460 : FFF2;
	 2461 : FFD2;
	 2462 : 001A;
	 2463 : 002F;
	 2464 : FFE5;
	 2465 : FFEE;
	 2466 : FFE0;
	 2467 : 0008;
	 2468 : FFDD;
	 2469 : FFF1;
	 2470 : 0014;
	 2471 : 0006;
	 2472 : FFF4;
	 2473 : FFF8;
	 2474 : 0006;
	 2475 : FFCD;
	 2476 : FFD5;
	 2477 : 0027;
	 2478 : FFD5;
	 2479 : 0015;
	 2480 : 002B;
	 2481 : FFE9;
	 2482 : FFF3;
	 2483 : 0007;
	 2484 : 0027;
	 2485 : 002D;
	 2486 : 0019;
	 2487 : FFD6;
	 2488 : 0011;
	 2489 : FFF7;
	 2490 : FFFD;
	 2491 : FFD2;
	 2492 : FFE0;
	 2493 : 001E;
	 2494 : FFFB;
	 2495 : FFEC;
	 2496 : FFF4;
	 2497 : 0024;
	 2498 : 0019;
	 2499 : FFE9;
	 2500 : FFD9;
	 2501 : FFE7;
	 2502 : 002B;
	 2503 : 0008;
	 2504 : 0003;
	 2505 : 000A;
	 2506 : FFF2;
	 2507 : 001F;
	 2508 : 0002;
	 2509 : FFD9;
	 2510 : FFDA;
	 2511 : 0004;
	 2512 : 002D;
	 2513 : FFEC;
	 2514 : 0026;
	 2515 : 001B;
	 2516 : FFE6;
	 2517 : FFD1;
	 2518 : FFD7;
	 2519 : 0017;
	 2520 : FFE1;
	 2521 : FFF3;
	 2522 : 0000;
	 2523 : 0017;
	 2524 : FFD8;
	 2525 : FFF6;
	 2526 : FFFE;
	 2527 : 0004;
	 2528 : 0021;
	 2529 : FFDE;
	 2530 : 0020;
	 2531 : 0014;
	 2532 : 0006;
	 2533 : 0014;
	 2534 : FFF7;
	 2535 : FFDB;
	 2536 : 0011;
	 2537 : 0003;
	 2538 : 000E;
	 2539 : FFEF;
	 2540 : 002A;
	 2541 : 0009;
	 2542 : FFD6;
	 2543 : FFFB;
	 2544 : 001A;
	 2545 : 001E;
	 2546 : FFFF;
	 2547 : 0028;
	 2548 : FFE8;
	 2549 : FFF7;
	 2550 : 0029;
	 2551 : 0029;
	 2552 : 0013;
	 2553 : 0025;
	 2554 : FFD6;
	 2555 : 0025;
	 2556 : FFEE;
	 2557 : FFDF;
	 2558 : FFE5;
	 2559 : FFF8;
	 2560 : FFE7;
	 2561 : FFEE;
	 2562 : FFDB;
	 2563 : FFEB;
	 2564 : 0007;
	 2565 : FFFA;
	 2566 : FFF0;
	 2567 : 0019;
	 2568 : 0028;
	 2569 : 001A;
	 2570 : FFEF;
	 2571 : 0019;
	 2572 : FFDC;
	 2573 : FFDA;
	 2574 : FFF0;
	 2575 : 0020;
	 2576 : FFE6;
	 2577 : FFD3;
	 2578 : FFDA;
	 2579 : 0025;
	 2580 : 000E;
	 2581 : FFE7;
	 2582 : 0006;
	 2583 : 0003;
	 2584 : 0010;
	 2585 : FFE5;
	 2586 : 0025;
	 2587 : FFEC;
	 2588 : 0014;
	 2589 : FFCE;
	 2590 : FFF3;
	 2591 : FFF1;
	 2592 : 0004;
	 2593 : FFD4;
	 2594 : 001E;
	 2595 : FFE3;
	 2596 : 0012;
	 2597 : 001F;
	 2598 : 0006;
	 2599 : 0019;
	 2600 : 0011;
	 2601 : FFF1;
	 2602 : 0020;
	 2603 : FFEB;
	 2604 : 0007;
	 2605 : 0019;
	 2606 : FFF4;
	 2607 : FFEC;
	 2608 : FFFC;
	 2609 : 0021;
	 2610 : 002C;
	 2611 : 0005;
	 2612 : 0011;
	 2613 : 0029;
	 2614 : FFD7;
	 2615 : FFE5;
	 2616 : 0015;
	 2617 : 0021;
	 2618 : 0025;
	 2619 : FFF7;
	 2620 : FFD6;
	 2621 : FFFA;
	 2622 : FFE4;
	 2623 : FFEB;
	 2624 : 001C;
	 2625 : FFD5;
	 2626 : 0022;
	 2627 : FFF9;
	 2628 : 000A;
	 2629 : FFD6;
	 2630 : FFEF;
	 2631 : FFD6;
	 2632 : 002F;
	 2633 : 001F;
	 2634 : FFFC;
	 2635 : FFE4;
	 2636 : 002C;
	 2637 : FFF0;
	 2638 : FFDD;
	 2639 : 0006;
	 2640 : 002D;
	 2641 : FFCD;
	 2642 : FFE5;
	 2643 : 002D;
	 2644 : FFDE;
	 2645 : FFD8;
	 2646 : 0007;
	 2647 : 0025;
	 2648 : FFFE;
	 2649 : 0033;
	 2650 : 0012;
	 2651 : FFD4;
	 2652 : 0032;
	 2653 : FFF7;
	 2654 : FFEA;
	 2655 : 0006;
	 2656 : FFEC;
	 2657 : FFD6;
	 2658 : FFCD;
	 2659 : FFFB;
	 2660 : 0022;
	 2661 : 0007;
	 2662 : 0033;
	 2663 : FFEA;
	 2664 : FFEA;
	 2665 : FFDD;
	 2666 : FFDE;
	 2667 : FFEA;
	 2668 : 001E;
	 2669 : 002A;
	 2670 : 0031;
	 2671 : FFE5;
	 2672 : 0027;
	 2673 : FFEE;
	 2674 : FFD8;
	 2675 : 0026;
	 2676 : 000E;
	 2677 : FFDE;
	 2678 : FFF9;
	 2679 : FFEA;
	 2680 : 0018;
	 2681 : FFFB;
	 2682 : 0032;
	 2683 : FFD2;
	 2684 : FFF1;
	 2685 : FFFE;
	 2686 : 0000;
	 2687 : FFED;
	 2688 : 0017;
	 2689 : 0026;
	 2690 : 002D;
	 2691 : 001F;
	 2692 : 0024;
	 2693 : 0005;
	 2694 : 0021;
	 2695 : FFEC;
	 2696 : FFF6;
	 2697 : FFED;
	 2698 : FFFD;
	 2699 : FFEA;
	 2700 : 002F;
	 2701 : FFED;
	 2702 : FFD7;
	 2703 : 0003;
	 2704 : FFD3;
	 2705 : FFD8;
	 2706 : FFE3;
	 2707 : FFFC;
	 2708 : FFF9;
	 2709 : 001F;
	 2710 : 0019;
	 2711 : FFF8;
	 2712 : FFEF;
	 2713 : FFED;
	 2714 : 001C;
	 2715 : FFD2;
	 2716 : FFCE;
	 2717 : 001E;
	 2718 : FFFE;
	 2719 : FFDA;
	 2720 : FFE5;
	 2721 : 002C;
	 2722 : 0025;
	 2723 : 0015;
	 2724 : FFFE;
	 2725 : 0002;
	 2726 : 0031;
	 2727 : 0030;
	 2728 : FFE3;
	 2729 : 0020;
	 2730 : FFE1;
	 2731 : FFE3;
	 2732 : 0012;
	 2733 : FFF6;
	 2734 : 002C;
	 2735 : FFD6;
	 2736 : 0001;
	 2737 : 002B;
	 2738 : 0029;
	 2739 : FFDD;
	 2740 : FFF2;
	 2741 : 000C;
	 2742 : FFDD;
	 2743 : 0030;
	 2744 : 002A;
	 2745 : FFDE;
	 2746 : FFD9;
	 2747 : FFD6;
	 2748 : 002A;
	 2749 : FFE1;
	 2750 : FFF7;
	 2751 : FFFB;
	 2752 : 000A;
	 2753 : FFD4;
	 2754 : FFE4;
	 2755 : 002C;
	 2756 : 002A;
	 2757 : 001D;
	 2758 : FFCF;
	 2759 : FFEE;
	 2760 : 000D;
	 2761 : FFE9;
	 2762 : 002A;
	 2763 : 000E;
	 2764 : FFD4;
	 2765 : 002A;
	 2766 : 002F;
	 2767 : FFD5;
	 2768 : 0003;
	 2769 : FFEC;
	 2770 : FFF5;
	 2771 : FFDF;
	 2772 : 0008;
	 2773 : 002F;
	 2774 : 0000;
	 2775 : FFD5;
	 2776 : 000C;
	 2777 : FFF0;
	 2778 : 0024;
	 2779 : FFF9;
	 2780 : FFE1;
	 2781 : FFE0;
	 2782 : 001C;
	 2783 : FFE8;
	 2784 : 001B;
	 2785 : FFE2;
	 2786 : FFEE;
	 2787 : FFFC;
	 2788 : 002D;
	 2789 : 002C;
	 2790 : FFE2;
	 2791 : FFF1;
	 2792 : FFDC;
	 2793 : 0001;
	 2794 : FFFC;
	 2795 : 0029;
	 2796 : 002C;
	 2797 : FFF4;
	 2798 : FFFF;
	 2799 : 0029;
	 2800 : 001F;
	 2801 : FFCD;
	 2802 : FFEE;
	 2803 : FFF8;
	 2804 : FFE4;
	 2805 : FFE1;
	 2806 : FFD1;
	 2807 : 000F;
	 2808 : FFE8;
	 2809 : FFD2;
	 2810 : FFE4;
	 2811 : 001F;
	 2812 : 0024;
	 2813 : FFFE;
	 2814 : FFF7;
	 2815 : 0031;
	 2816 : FFE1;
	 2817 : FFE3;
	 2818 : FFEB;
	 2819 : FFDE;
	 2820 : FFF4;
	 2821 : 002A;
	 2822 : 000C;
	 2823 : FFF7;
	 2824 : 002C;
	 2825 : FFD2;
	 2826 : FFE2;
	 2827 : 0007;
	 2828 : 000C;
	 2829 : FFD1;
	 2830 : FFF6;
	 2831 : 000F;
	 2832 : 0014;
	 2833 : 000E;
	 2834 : FFEE;
	 2835 : FFD6;
	 2836 : FFF9;
	 2837 : FFDA;
	 2838 : 002E;
	 2839 : FFFD;
	 2840 : FFED;
	 2841 : 001B;
	 2842 : 0000;
	 2843 : FFED;
	 2844 : 0020;
	 2845 : 0026;
	 2846 : 0012;
	 2847 : FFD2;
	 2848 : 0007;
	 2849 : 001B;
	 2850 : FFDB;
	 2851 : FFE4;
	 2852 : 0027;
	 2853 : FFCF;
	 2854 : 001A;
	 2855 : FFFD;
	 2856 : FFFB;
	 2857 : FFCE;
	 2858 : 0021;
	 2859 : FFF2;
	 2860 : 0004;
	 2861 : 0012;
	 2862 : 0015;
	 2863 : 002F;
	 2864 : 0003;
	 2865 : FFF6;
	 2866 : 002E;
	 2867 : 000F;
	 2868 : FFEB;
	 2869 : FFDA;
	 2870 : 0023;
	 2871 : FFF2;
	 2872 : 0010;
	 2873 : FFFD;
	 2874 : FFE1;
	 2875 : 000A;
	 2876 : FFD3;
	 2877 : FFF7;
	 2878 : 0005;
	 2879 : FFF9;
	 2880 : 0019;
	 2881 : 0022;
	 2882 : 001C;
	 2883 : FFD1;
	 2884 : FFE1;
	 2885 : 0004;
	 2886 : 002D;
	 2887 : 0022;
	 2888 : 0023;
	 2889 : FFEC;
	 2890 : FFF9;
	 2891 : FFFD;
	 2892 : FFDD;
	 2893 : FFD0;
	 2894 : 002E;
	 2895 : FFE5;
	 2896 : FFE5;
	 2897 : FFD5;
	 2898 : 002C;
	 2899 : 0008;
	 2900 : 0011;
	 2901 : 002A;
	 2902 : FFF0;
	 2903 : 000C;
	 2904 : FFD1;
	 2905 : FFE0;
	 2906 : 0022;
	 2907 : 001B;
	 2908 : FFF1;
	 2909 : FFF3;
	 2910 : 0003;
	 2911 : FFCD;
	 2912 : FFE6;
	 2913 : FFE2;
	 2914 : FFE6;
	 2915 : 001F;
	 2916 : FFE9;
	 2917 : FFE0;
	 2918 : 0000;
	 2919 : 0025;
	 2920 : FFE6;
	 2921 : FFD5;
	 2922 : FFF1;
	 2923 : 0019;
	 2924 : 0005;
	 2925 : 0020;
	 2926 : 002F;
	 2927 : 001E;
	 2928 : 000B;
	 2929 : FFFF;
	 2930 : FFD1;
	 2931 : 0032;
	 2932 : FFF4;
	 2933 : FFDC;
	 2934 : 0011;
	 2935 : FFEA;
	 2936 : 0009;
	 2937 : 0009;
	 2938 : FFFA;
	 2939 : 0022;
	 2940 : FFE8;
	 2941 : FFFB;
	 2942 : 0004;
	 2943 : 0011;
	 2944 : 001D;
	 2945 : FFF5;
	 2946 : 000F;
	 2947 : FFDC;
	 2948 : 002C;
	 2949 : FFF4;
	 2950 : 0018;
	 2951 : FFCF;
	 2952 : FFE2;
	 2953 : FFFF;
	 2954 : 0027;
	 2955 : 0003;
	 2956 : 002C;
	 2957 : FFFE;
	 2958 : FFFF;
	 2959 : FFD9;
	 2960 : 001F;
	 2961 : FFE6;
	 2962 : 0029;
	 2963 : 002A;
	 2964 : 002D;
	 2965 : 0002;
	 2966 : 0012;
	 2967 : 001D;
	 2968 : FFDA;
	 2969 : 000A;
	 2970 : FFD0;
	 2971 : 0000;
	 2972 : FFDD;
	 2973 : FFE0;
	 2974 : FFF2;
	 2975 : FFF9;
	 2976 : 000D;
	 2977 : FFD4;
	 2978 : 0000;
	 2979 : FFE0;
	 2980 : 0008;
	 2981 : 000E;
	 2982 : 0006;
	 2983 : 0018;
	 2984 : FFEF;
	 2985 : 001B;
	 2986 : FFF9;
	 2987 : FFFE;
	 2988 : 000F;
	 2989 : FFCF;
	 2990 : 0010;
	 2991 : 000C;
	 2992 : FFED;
	 2993 : FFD6;
	 2994 : FFD6;
	 2995 : 002B;
	 2996 : 0013;
	 2997 : FFDA;
	 2998 : FFF1;
	 2999 : 0009;
	 3000 : 0022;
	 3001 : FFD1;
	 3002 : FFE5;
	 3003 : 0028;
	 3004 : FFCE;
	 3005 : FFE1;
	 3006 : 002F;
	 3007 : 000C;
	 3008 : FFE8;
	 3009 : FFD4;
	 3010 : FFD0;
	 3011 : FFE6;
	 3012 : 0027;
	 3013 : FFF7;
	 3014 : 0017;
	 3015 : 002B;
	 3016 : FFF7;
	 3017 : FFE0;
	 3018 : 0002;
	 3019 : 002A;
	 3020 : 001F;
	 3021 : FFD4;
	 3022 : 0014;
	 3023 : 0007;
	 3024 : 002A;
	 3025 : FFD9;
	 3026 : 0003;
	 3027 : 0027;
	 3028 : FFF7;
	 3029 : FFFE;
	 3030 : FFD4;
	 3031 : FFE9;
	 3032 : FFEE;
	 3033 : 002E;
	 3034 : FFEA;
	 3035 : FFFC;
	 3036 : 0012;
	 3037 : FFDD;
	 3038 : FFFF;
	 3039 : 0018;
	 3040 : 0026;
	 3041 : 000D;
	 3042 : 0011;
	 3043 : FFDA;
	 3044 : 002E;
	 3045 : FFDA;
	 3046 : 001C;
	 3047 : FFE8;
	 3048 : 002C;
	 3049 : 0017;
	 3050 : 001A;
	 3051 : FFE3;
	 3052 : FFFA;
	 3053 : 000C;
	 3054 : 001C;
	 3055 : FFD7;
	 3056 : 002F;
	 3057 : 0028;
	 3058 : FFE8;
	 3059 : 0021;
	 3060 : 0002;
	 3061 : FFFC;
	 3062 : FFED;
	 3063 : 0008;
	 3064 : 0018;
	 3065 : FFF7;
	 3066 : 000D;
	 3067 : 0014;
	 3068 : 0016;
	 3069 : FFD2;
	 3070 : 0025;
	 3071 : FFFC;
	 3072 : FFE8;
	 3073 : FFE6;
	 3074 : FFFE;
	 3075 : 0028;
	 3076 : FFF4;
	 3077 : 001A;
	 3078 : FFD7;
	 3079 : FFFE;
	 3080 : 0032;
	 3081 : 001C;
	 3082 : FFE2;
	 3083 : 0000;
	 3084 : FFE5;
	 3085 : FFF7;
	 3086 : 001D;
	 3087 : 001C;
	 3088 : FFE4;
	 3089 : 002B;
	 3090 : 0009;
	 3091 : FFF4;
	 3092 : 0000;
	 3093 : 000B;
	 3094 : 0006;
	 3095 : FFFF;
	 3096 : 0001;
	 3097 : FFDF;
	 3098 : 0020;
	 3099 : 0004;
	 3100 : FFDA;
	 3101 : 001B;
	 3102 : 002C;
	 3103 : 002E;
	 3104 : FFF3;
	 3105 : FFDB;
	 3106 : 0002;
	 3107 : FFD8;
	 3108 : 002C;
	 3109 : FFE0;
	 3110 : FFE7;
	 3111 : FFF6;
	 3112 : FFF4;
	 3113 : 001E;
	 3114 : FFFC;
	 3115 : FFDE;
	 3116 : FFE8;
	 3117 : 0001;
	 3118 : FFDC;
	 3119 : 000B;
	 3120 : 0007;
	 3121 : 0016;
	 3122 : 002D;
	 3123 : 002A;
	 3124 : 002E;
	 3125 : FFE6;
	 3126 : FFDA;
	 3127 : FFEC;
	 3128 : 0028;
	 3129 : 0030;
	 3130 : 0025;
	 3131 : FFD8;
	 3132 : 002E;
	 3133 : FFF8;
	 3134 : FFCE;
	 3135 : FFFA;
	 3136 : FFD2;
	 3137 : 0004;
	 3138 : FFEF;
	 3139 : FFFD;
	 3140 : 000C;
	 3141 : 0026;
	 3142 : 0011;
	 3143 : FFF9;
	 3144 : 0021;
	 3145 : 002A;
	 3146 : FFD9;
	 3147 : 0003;
	 3148 : FFEA;
	 3149 : FFD2;
	 3150 : 0011;
	 3151 : 0025;
	 3152 : FFDD;
	 3153 : 0020;
	 3154 : 0024;
	 3155 : 002A;
	 3156 : FFE8;
	 3157 : 0029;
	 3158 : FFEE;
	 3159 : 0005;
	 3160 : FFD2;
	 3161 : FFD1;
	 3162 : 0017;
	 3163 : FFFA;
	 3164 : FFE7;
	 3165 : FFE0;
	 3166 : 0011;
	 3167 : FFCD;
	 3168 : 001F;
	 3169 : FFD5;
	 3170 : FFE0;
	 3171 : FFF4;
	 3172 : FFFE;
	 3173 : FFF1;
	 3174 : FFEE;
	 3175 : 0030;
	 3176 : 000E;
	 3177 : FFCF;
	 3178 : FFF9;
	 3179 : 0026;
	 3180 : FFEC;
	 3181 : FFD6;
	 3182 : 001A;
	 3183 : 000B;
	 3184 : 0007;
	 3185 : FFD2;
	 3186 : FFDB;
	 3187 : 000D;
	 3188 : FFE2;
	 3189 : 0000;
	 3190 : 0005;
	 3191 : FFEA;
	 3192 : 002E;
	 3193 : 0023;
	 3194 : 0017;
	 3195 : FFD5;
	 3196 : FFD8;
	 3197 : FFFF;
	 3198 : FFDD;
	 3199 : 0031;
	 3200 : FFDD;
	 3201 : FFFF;
	 3202 : FFF2;
	 3203 : 000E;
	 3204 : FFDA;
	 3205 : FFF9;
	 3206 : FFE9;
	 3207 : 0028;
	 3208 : FFD1;
	 3209 : 002A;
	 3210 : 0022;
	 3211 : FFEB;
	 3212 : 001E;
	 3213 : FFD0;
	 3214 : 0030;
	 3215 : 0003;
	 3216 : FFEC;
	 3217 : FFF2;
	 3218 : FFD4;
	 3219 : 0032;
	 3220 : FFD1;
	 3221 : 0010;
	 3222 : FFFA;
	 3223 : 002E;
	 3224 : FFE6;
	 3225 : 0003;
	 3226 : FFFE;
	 3227 : 0015;
	 3228 : FFD4;
	 3229 : FFE1;
	 3230 : FFE3;
	 3231 : 0018;
	 3232 : FFE0;
	 3233 : 0008;
	 3234 : FFE3;
	 3235 : 0025;
	 3236 : 002D;
	 3237 : 0002;
	 3238 : FFF1;
	 3239 : FFE5;
	 3240 : FFD2;
	 3241 : FFE8;
	 3242 : 0010;
	 3243 : 0003;
	 3244 : 002D;
	 3245 : FFF5;
	 3246 : 0014;
	 3247 : FFFF;
	 3248 : 0001;
	 3249 : FFE8;
	 3250 : FFFB;
	 3251 : FFFD;
	 3252 : 0015;
	 3253 : 002D;
	 3254 : FFEF;
	 3255 : FFD1;
	 3256 : 0000;
	 3257 : 0005;
	 3258 : FFDE;
	 3259 : 001B;
	 3260 : 0032;
	 3261 : 002E;
	 3262 : FFE1;
	 3263 : 0026;
	 3264 : 0015;
	 3265 : FFFB;
	 3266 : 0004;
	 3267 : 0024;
	 3268 : FFFE;
	 3269 : FFF3;
	 3270 : FFFF;
	 3271 : 0008;
	 3272 : FFE0;
	 3273 : 0029;
	 3274 : 0012;
	 3275 : 000E;
	 3276 : FFD7;
	 3277 : 000B;
	 3278 : FFD9;
	 3279 : FFD5;
	 3280 : 0003;
	 3281 : FFF6;
	 3282 : 0009;
	 3283 : FFD6;
	 3284 : FFF9;
	 3285 : FFDF;
	 3286 : 0032;
	 3287 : 0006;
	 3288 : 0013;
	 3289 : FFEE;
	 3290 : FFD7;
	 3291 : 0031;
	 3292 : FFEA;
	 3293 : FFF8;
	 3294 : 000F;
	 3295 : FFCF;
	 3296 : 0020;
	 3297 : 0004;
	 3298 : FFE9;
	 3299 : FFD3;
	 3300 : FFDD;
	 3301 : 0028;
	 3302 : 0013;
	 3303 : FFE6;
	 3304 : FFD4;
	 3305 : 0014;
	 3306 : 0007;
	 3307 : FFF6;
	 3308 : FFF2;
	 3309 : FFE3;
	 3310 : 0011;
	 3311 : 0030;
	 3312 : FFDF;
	 3313 : 000A;
	 3314 : FFF8;
	 3315 : FFFB;
	 3316 : FFE7;
	 3317 : 0021;
	 3318 : FFFE;
	 3319 : 0004;
	 3320 : FFEC;
	 3321 : FFDF;
	 3322 : FFD6;
	 3323 : 0016;
	 3324 : FFE1;
	 3325 : 0013;
	 3326 : FFF5;
	 3327 : FFF7;
	 3328 : FFFD;
	 3329 : FFF2;
	 3330 : FFD7;
	 3331 : FFED;
	 3332 : 0011;
	 3333 : 0011;
	 3334 : FFEA;
	 3335 : FFFC;
	 3336 : FFE1;
	 3337 : FFE2;
	 3338 : FFCF;
	 3339 : 0029;
	 3340 : FFE2;
	 3341 : FFE4;
	 3342 : FFE9;
	 3343 : FFDA;
	 3344 : 000E;
	 3345 : FFD4;
	 3346 : FFDB;
	 3347 : 000F;
	 3348 : FFF0;
	 3349 : 0015;
	 3350 : 0006;
	 3351 : FFE7;
	 3352 : 000F;
	 3353 : FFD9;
	 3354 : 0004;
	 3355 : FFFA;
	 3356 : FFE8;
	 3357 : 000B;
	 3358 : 0026;
	 3359 : 0033;
	 3360 : 000B;
	 3361 : FFF6;
	 3362 : FFE4;
	 3363 : FFE7;
	 3364 : FFFE;
	 3365 : FFF2;
	 3366 : 002A;
	 3367 : FFF3;
	 3368 : FFF3;
	 3369 : FFF4;
	 3370 : 0022;
	 3371 : 000F;
	 3372 : 000C;
	 3373 : FFEF;
	 3374 : 0021;
	 3375 : FFD1;
	 3376 : 0026;
	 3377 : 0001;
	 3378 : FFF6;
	 3379 : 0000;
	 3380 : 0011;
	 3381 : FFCE;
	 3382 : 0026;
	 3383 : FFFB;
	 3384 : FFF0;
	 3385 : FFDB;
	 3386 : FFFA;
	 3387 : 0000;
	 3388 : FFF6;
	 3389 : 0012;
	 3390 : FFF8;
	 3391 : 002F;
	 3392 : 000A;
	 3393 : 001F;
	 3394 : FFD8;
	 3395 : FFF5;
	 3396 : FFEF;
	 3397 : 0007;
	 3398 : 0025;
	 3399 : FFD5;
	 3400 : FFD4;
	 3401 : 0024;
	 3402 : FFE3;
	 3403 : 0011;
	 3404 : 0004;
	 3405 : 0022;
	 3406 : FFDA;
	 3407 : FFDA;
	 3408 : 0006;
	 3409 : 002E;
	 3410 : FFF7;
	 3411 : FFEE;
	 3412 : 000B;
	 3413 : 002C;
	 3414 : 0023;
	 3415 : 0033;
	 3416 : FFCF;
	 3417 : FFD8;
	 3418 : 000B;
	 3419 : 0021;
	 3420 : FFEA;
	 3421 : FFE5;
	 3422 : 001D;
	 3423 : FFD3;
	 3424 : FFF3;
	 3425 : 0001;
	 3426 : 0006;
	 3427 : 0017;
	 3428 : FFF1;
	 3429 : 000C;
	 3430 : 0009;
	 3431 : 0005;
	 3432 : 000E;
	 3433 : FFE7;
	 3434 : FFD5;
	 3435 : FFD9;
	 3436 : FFE4;
	 3437 : 0000;
	 3438 : 0023;
	 3439 : 0015;
	 3440 : 001E;
	 3441 : FFF1;
	 3442 : FFF6;
	 3443 : FFF5;
	 3444 : FFE0;
	 3445 : FFD3;
	 3446 : 0009;
	 3447 : 0032;
	 3448 : FFDE;
	 3449 : FFD2;
	 3450 : 001D;
	 3451 : FFE7;
	 3452 : 0022;
	 3453 : 0015;
	 3454 : 002E;
	 3455 : FFF7;
	 3456 : 0011;
	 3457 : FFFC;
	 3458 : 000D;
	 3459 : FFFB;
	 3460 : FFE0;
	 3461 : 0001;
	 3462 : 0003;
	 3463 : 0020;
	 3464 : 0018;
	 3465 : 0011;
	 3466 : FFD8;
	 3467 : 0017;
	 3468 : 0000;
	 3469 : 0028;
	 3470 : 002B;
	 3471 : FFD2;
	 3472 : 0021;
	 3473 : FFD1;
	 3474 : FFF2;
	 3475 : 0004;
	 3476 : FFDC;
	 3477 : 0019;
	 3478 : FFCE;
	 3479 : FFDE;
	 3480 : 0008;
	 3481 : 0016;
	 3482 : 002B;
	 3483 : 0015;
	 3484 : 0012;
	 3485 : FFF5;
	 3486 : FFCD;
	 3487 : FFD9;
	 3488 : 0004;
	 3489 : 0012;
	 3490 : FFF8;
	 3491 : 0018;
	 3492 : 0002;
	 3493 : FFD4;
	 3494 : FFE0;
	 3495 : 0023;
	 3496 : 0017;
	 3497 : 0028;
	 3498 : FFD9;
	 3499 : 0032;
	 3500 : FFE2;
	 3501 : FFCE;
	 3502 : 0033;
	 3503 : FFEA;
	 3504 : 0011;
	 3505 : FFDF;
	 3506 : 0008;
	 3507 : 0029;
	 3508 : FFEE;
	 3509 : 0011;
	 3510 : FFE0;
	 3511 : 000D;
	 3512 : FFEF;
	 3513 : FFE2;
	 3514 : FFED;
	 3515 : FFDF;
	 3516 : 0029;
	 3517 : FFF5;
	 3518 : FFE6;
	 3519 : FFFB;
	 3520 : FFEE;
	 3521 : 0019;
	 3522 : 0030;
	 3523 : FFFA;
	 3524 : 0025;
	 3525 : 0007;
	 3526 : FFDD;
	 3527 : 0014;
	 3528 : 0001;
	 3529 : 000F;
	 3530 : 0028;
	 3531 : FFFA;
	 3532 : 0029;
	 3533 : 001A;
	 3534 : FFFF;
	 3535 : 000B;
	 3536 : FFEE;
	 3537 : 0032;
	 3538 : 0011;
	 3539 : FFD1;
	 3540 : FFEE;
	 3541 : 000D;
	 3542 : FFD3;
	 3543 : FFCF;
	 3544 : FFFB;
	 3545 : FFEF;
	 3546 : FFFA;
	 3547 : FFE8;
	 3548 : FFDE;
	 3549 : 0013;
	 3550 : 0001;
	 3551 : FFE1;
	 3552 : FFEE;
	 3553 : 0009;
	 3554 : FFD4;
	 3555 : FFDC;
	 3556 : FFD4;
	 3557 : 0020;
	 3558 : 001A;
	 3559 : 001A;
	 3560 : 0016;
	 3561 : 0011;
	 3562 : FFFE;
	 3563 : 000F;
	 3564 : FFD1;
	 3565 : 000C;
	 3566 : 001C;
	 3567 : 0000;
	 3568 : FFF1;
	 3569 : FFE9;
	 3570 : 000F;
	 3571 : 0014;
	 3572 : 0026;
	 3573 : FFF0;
	 3574 : 001C;
	 3575 : 0006;
	 3576 : 0027;
	 3577 : 0003;
	 3578 : 0002;
	 3579 : 0008;
	 3580 : 001A;
	 3581 : 0030;
	 3582 : FFD4;
	 3583 : FFD2;
	 3584 : 002D;
	 3585 : 0003;
	 3586 : 000C;
	 3587 : FFFE;
	 3588 : FFD6;
	 3589 : 001B;
	 3590 : 0019;
	 3591 : FFED;
	 3592 : FFEC;
	 3593 : 0023;
	 3594 : FFD4;
	 3595 : 0027;
	 3596 : FFE7;
	 3597 : 000A;
	 3598 : 002D;
	 3599 : 0012;
	 3600 : FFF7;
	 3601 : 0013;
	 3602 : FFF0;
	 3603 : FFE9;
	 3604 : 0033;
	 3605 : 001A;
	 3606 : 000F;
	 3607 : FFF1;
	 3608 : FFD2;
	 3609 : FFD0;
	 3610 : 0006;
	 3611 : 001B;
	 3612 : 0004;
	 3613 : 0023;
	 3614 : FFD0;
	 3615 : FFF2;
	 3616 : FFE5;
	 3617 : FFFB;
	 3618 : FFD4;
	 3619 : 002F;
	 3620 : FFE4;
	 3621 : 002B;
	 3622 : FFF8;
	 3623 : 0032;
	 3624 : 0006;
	 3625 : 002C;
	 3626 : FFCD;
	 3627 : 0019;
	 3628 : 0029;
	 3629 : FFDB;
	 3630 : FFD7;
	 3631 : FFF8;
	 3632 : 002C;
	 3633 : 0004;
	 3634 : 0003;
	 3635 : FFDB;
	 3636 : FFCD;
	 3637 : 0020;
	 3638 : FFD6;
	 3639 : 000E;
	 3640 : 002A;
	 3641 : FFE2;
	 3642 : 0011;
	 3643 : FFD5;
	 3644 : 000B;
	 3645 : FFDE;
	 3646 : 0018;
	 3647 : FFEC;
	 3648 : FFFC;
	 3649 : 000A;
	 3650 : FFDE;
	 3651 : 0019;
	 3652 : FFEC;
	 3653 : 0011;
	 3654 : FFDD;
	 3655 : 0013;
	 3656 : FFDA;
	 3657 : FFF8;
	 3658 : FFE6;
	 3659 : 0019;
	 3660 : FFE8;
	 3661 : 0027;
	 3662 : 0028;
	 3663 : FFE1;
	 3664 : 000C;
	 3665 : FFD6;
	 3666 : FFF5;
	 3667 : 0016;
	 3668 : 0010;
	 3669 : 000D;
	 3670 : FFEA;
	 3671 : FFF4;
	 3672 : FFD7;
	 3673 : 0016;
	 3674 : 0000;
	 3675 : 0015;
	 3676 : FFE6;
	 3677 : FFEE;
	 3678 : FFEF;
	 3679 : FFCF;
	 3680 : FFF0;
	 3681 : 001F;
	 3682 : 0029;
	 3683 : 0002;
	 3684 : FFFB;
	 3685 : FFD0;
	 3686 : 0027;
	 3687 : FFCE;
	 3688 : 002E;
	 3689 : FFFF;
	 3690 : FFF0;
	 3691 : 002B;
	 3692 : FFCF;
	 3693 : 0008;
	 3694 : 0005;
	 3695 : FFE3;
	 3696 : FFF9;
	 3697 : 0010;
	 3698 : 0017;
	 3699 : FFCD;
	 3700 : 002D;
	 3701 : FFDE;
	 3702 : FFE5;
	 3703 : FFE8;
	 3704 : FFD1;
	 3705 : FFD9;
	 3706 : 0032;
	 3707 : FFED;
	 3708 : FFD9;
	 3709 : FFD8;
	 3710 : 0016;
	 3711 : 0024;
	 3712 : FFE7;
	 3713 : FFCF;
	 3714 : FFE4;
	 3715 : FFD3;
	 3716 : FFD7;
	 3717 : FFF9;
	 3718 : FFE4;
	 3719 : 0002;
	 3720 : FFE7;
	 3721 : 002D;
	 3722 : 002A;
	 3723 : 0007;
	 3724 : FFF1;
	 3725 : FFF4;
	 3726 : FFF7;
	 3727 : 0017;
	 3728 : FFFB;
	 3729 : 0025;
	 3730 : 002D;
	 3731 : FFEF;
	 3732 : 0006;
	 3733 : FFD7;
	 3734 : FFE1;
	 3735 : FFF7;
	 3736 : FFE2;
	 3737 : 0027;
	 3738 : FFDD;
	 3739 : FFFB;
	 3740 : 000B;
	 3741 : 0014;
	 3742 : FFF4;
	 3743 : 0026;
	 3744 : 0007;
	 3745 : FFFA;
	 3746 : FFD4;
	 3747 : FFFC;
	 3748 : 0021;
	 3749 : 000C;
	 3750 : 0022;
	 3751 : FFFF;
	 3752 : FFD9;
	 3753 : FFCE;
	 3754 : FFEC;
	 3755 : 0014;
	 3756 : 001E;
	 3757 : FFEB;
	 3758 : 0000;
	 3759 : FFF8;
	 3760 : FFF7;
	 3761 : FFE4;
	 3762 : FFDB;
	 3763 : FFE1;
	 3764 : FFD2;
	 3765 : FFE1;
	 3766 : FFCE;
	 3767 : 000D;
	 3768 : FFED;
	 3769 : 0030;
	 3770 : FFE1;
	 3771 : FFF0;
	 3772 : FFF1;
	 3773 : FFCE;
	 3774 : 0023;
	 3775 : FFD0;
	 3776 : 002D;
	 3777 : 0028;
	 3778 : 0004;
	 3779 : 0004;
	 3780 : 0010;
	 3781 : FFF4;
	 3782 : 000F;
	 3783 : FFD1;
	 3784 : FFD2;
	 3785 : FFFC;
	 3786 : 0005;
	 3787 : 0028;
	 3788 : FFD8;
	 3789 : 0021;
	 3790 : FFE2;
	 3791 : FFF5;
	 3792 : FFED;
	 3793 : FFF6;
	 3794 : FFDC;
	 3795 : 0000;
	 3796 : 001F;
	 3797 : FFFA;
	 3798 : FFFF;
	 3799 : 0024;
	 3800 : 0015;
	 3801 : FFFF;
	 3802 : FFE7;
	 3803 : 0027;
	 3804 : 0008;
	 3805 : FFE3;
	 3806 : FFE8;
	 3807 : 001F;
	 3808 : FFD1;
	 3809 : 0032;
	 3810 : FFDA;
	 3811 : 001E;
	 3812 : FFF5;
	 3813 : FFFF;
	 3814 : 0027;
	 3815 : FFF7;
	 3816 : 0004;
	 3817 : FFD2;
	 3818 : FFCD;
	 3819 : FFE6;
	 3820 : 0012;
	 3821 : FFD9;
	 3822 : FFD8;
	 3823 : FFF7;
	 3824 : 000F;
	 3825 : 0016;
	 3826 : FFDF;
	 3827 : FFD5;
	 3828 : 002D;
	 3829 : FFE7;
	 3830 : 0024;
	 3831 : 0025;
	 3832 : 001C;
	 3833 : FFDE;
	 3834 : 0021;
	 3835 : 001C;
	 3836 : 000A;
	 3837 : FFEF;
	 3838 : FFE8;
	 3839 : FFD9;
	 3840 : 0001;
	 3841 : 0009;
	 3842 : FFF2;
	 3843 : FFFD;
	 3844 : FFF2;
	 3845 : 000E;
	 3846 : 0029;
	 3847 : FFDE;
	 3848 : FFF4;
	 3849 : FFDB;
	 3850 : 000D;
	 3851 : 0017;
	 3852 : 002C;
	 3853 : FFE9;
	 3854 : 002E;
	 3855 : FFD3;
	 3856 : 000B;
	 3857 : FFD3;
	 3858 : 0028;
	 3859 : 0003;
	 3860 : 0011;
	 3861 : 0022;
	 3862 : FFDC;
	 3863 : FFD1;
	 3864 : 0027;
	 3865 : FFED;
	 3866 : FFDA;
	 3867 : FFFD;
	 3868 : 000A;
	 3869 : FFD0;
	 3870 : FFE9;
	 3871 : FFD0;
	 3872 : FFF8;
	 3873 : 0028;
	 3874 : 0031;
	 3875 : 000E;
	 3876 : FFDD;
	 3877 : 002A;
	 3878 : 0002;
	 3879 : FFDD;
	 3880 : 002B;
	 3881 : 001A;
	 3882 : 0018;
	 3883 : 0015;
	 3884 : FFE1;
	 3885 : FFE2;
	 3886 : 0013;
	 3887 : FFE3;
	 3888 : FFFA;
	 3889 : 001D;
	 3890 : 001D;
	 3891 : FFFB;
	 3892 : 001E;
	 3893 : 0023;
	 3894 : 0010;
	 3895 : FFE4;
	 3896 : FFE9;
	 3897 : FFED;
	 3898 : FFD9;
	 3899 : FFE9;
	 3900 : FFE2;
	 3901 : FFFB;
	 3902 : 002A;
	 3903 : FFD7;
	 3904 : 0017;
	 3905 : 0013;
	 3906 : FFD7;
	 3907 : 002B;
	 3908 : 0007;
	 3909 : FFF2;
	 3910 : 001A;
	 3911 : FFE7;
	 3912 : 0014;
	 3913 : FFD1;
	 3914 : 0023;
	 3915 : FFFB;
	 3916 : 000E;
	 3917 : FFE3;
	 3918 : 0012;
	 3919 : 001C;
	 3920 : FFFD;
	 3921 : 000C;
	 3922 : FFFC;
	 3923 : 0028;
	 3924 : 0000;
	 3925 : 0023;
	 3926 : 001F;
	 3927 : FFF7;
	 3928 : FFE4;
	 3929 : FFF6;
	 3930 : 0021;
	 3931 : FFE4;
	 3932 : 0003;
	 3933 : 001F;
	 3934 : FFF1;
	 3935 : 000F;
	 3936 : FFE6;
	 3937 : FFD8;
	 3938 : 001E;
	 3939 : FFD7;
	 3940 : FFE9;
	 3941 : 0024;
	 3942 : FFF0;
	 3943 : 0030;
	 3944 : 0031;
	 3945 : FFE8;
	 3946 : FFD1;
	 3947 : 0015;
	 3948 : FFFB;
	 3949 : FFD7;
	 3950 : 0015;
	 3951 : FFD0;
	 3952 : 0026;
	 3953 : FFDB;
	 3954 : FFDA;
	 3955 : FFDF;
	 3956 : 002F;
	 3957 : 0014;
	 3958 : 001F;
	 3959 : FFF6;
	 3960 : FFEF;
	 3961 : FFE5;
	 3962 : FFFE;
	 3963 : 0005;
	 3964 : 000D;
	 3965 : FFE7;
	 3966 : 002E;
	 3967 : FFDE;
	 3968 : 0030;
	 3969 : FFCE;
	 3970 : FFFE;
	 3971 : FFEF;
	 3972 : FFFB;
	 3973 : 0007;
	 3974 : FFF9;
	 3975 : FFF7;
	 3976 : 0018;
	 3977 : 0013;
	 3978 : 0022;
	 3979 : FFE6;
	 3980 : 000B;
	 3981 : 0009;
	 3982 : FFF3;
	 3983 : FFFF;
	 3984 : FFED;
	 3985 : FFDB;
	 3986 : FFE3;
	 3987 : FFD8;
	 3988 : 0013;
	 3989 : 0010;
	 3990 : 002E;
	 3991 : 0018;
	 3992 : FFD2;
	 3993 : 0027;
	 3994 : 0025;
	 3995 : FFFA;
	 3996 : 0009;
	 3997 : 0031;
	 3998 : 0003;
	 3999 : 002A;
	 4000 : FFD5;
	 4001 : FFE0;
	 4002 : FFFA;
	 4003 : 0009;
	 4004 : 0020;
	 4005 : 0032;
	 4006 : FFF5;
	 4007 : FFD2;
	 4008 : 001F;
	 4009 : 000B;
	 4010 : FFE1;
	 4011 : FFFF;
	 4012 : 0019;
	 4013 : 001C;
	 4014 : 0000;
	 4015 : FFEC;
	 4016 : 0031;
	 4017 : 0011;
	 4018 : FFF7;
	 4019 : FFEA;
	 4020 : 0018;
	 4021 : FFE6;
	 4022 : FFDE;
	 4023 : 0003;
	 4024 : FFEA;
	 4025 : 000D;
	 4026 : FFD9;
	 4027 : 0010;
	 4028 : FFEA;
	 4029 : FFCD;
	 4030 : FFDA;
	 4031 : 002C;
	 4032 : 0026;
	 4033 : FFE5;
	 4034 : 001D;
	 4035 : 000B;
	 4036 : 0030;
	 4037 : FFF3;
	 4038 : 0013;
	 4039 : FFD3;
	 4040 : FFF5;
	 4041 : 002F;
	 4042 : 0004;
	 4043 : FFEA;
	 4044 : FFD9;
	 4045 : 0015;
	 4046 : 000F;
	 4047 : FFF3;
	 4048 : 002E;
	 4049 : FFCF;
	 4050 : FFEC;
	 4051 : 002B;
	 4052 : FFEE;
	 4053 : FFE7;
	 4054 : 0004;
	 4055 : 0021;
	 4056 : FFD7;
	 4057 : 002D;
	 4058 : 001E;
	 4059 : FFDF;
	 4060 : 0016;
	 4061 : FFF4;
	 4062 : FFF6;
	 4063 : 001D;
	 4064 : 002F;
	 4065 : FFDA;
	 4066 : FFF8;
	 4067 : FFFE;
	 4068 : FFF3;
	 4069 : FFF2;
	 4070 : FFD2;
	 4071 : 0013;
	 4072 : FFF9;
	 4073 : FFE1;
	 4074 : 0020;
	 4075 : 001F;
	 4076 : FFFF;
	 4077 : FFEB;
	 4078 : 000E;
	 4079 : FFEA;
	 4080 : FFE5;
	 4081 : 0018;
	 4082 : FFD1;
	 4083 : FFD7;
	 4084 : FFCD;
	 4085 : FFDC;
	 4086 : FFD4;
	 4087 : 0033;
	 4088 : FFEA;
	 4089 : FFDC;
	 4090 : FFE5;
	 4091 : 002D;
	 4092 : 0002;
	 4093 : FFF2;
	 4094 : 0026;
	 4095 : FFF5;
END;
