0026
FFE2
FFD1
0012
FFF0
FFCF
FFE7
FFEC
000C
FFDE
FFF7
FFFE
FFFC
0031
FFD1
002E
0008
001E
FFF9
FFFB
0027
0029
FFE5
FFE1
0000
0029
FFEE
0010
0015
001D
0007
FFF6
0030
000B
0017
FFF0
0011
FFE7
FFE6
0016
0002
0013
FFE8
000A
FFFA
000A
FFEB
0016
001F
FFE7
FFEC
0011
0014
0015
0013
FFF5
FFF5
FFE7
FFDD
0014
FFD6
002D
0021
0025
002A
FFF7
0024
FFDD
FFCF
001D
FFD4
0032
0012
001A
FFE6
0012
FFD1
0023
FFDE
0014
FFE4
FFD4
FFFE
FFDE
0017
FFE5
FFF0
0007
FFEA
FFF4
0020
FFDF
FFD5
FFEE
FFF8
0004
FFF3
001E
FFD1
FFF9
FFF4
000F
0030
0001
0032
FFEC
FFD0
FFDE
FFF5
FFED
FFD7
FFF9
FFEF
FFD9
FFEB
0028
FFEC
0016
000B
FFF9
FFE5
FFF3
0009
FFF1
FFE3
FFD9
0027
FFFA
000D
FFFF
0026
0005
FFFE
002B
0016
FFD8
FFDF
001D
0022
0005
0006
000E
FFFA
0012
FFD8
002F
001A
000D
FFED
FFDD
FFF7
0011
000E
FFF4
000C
0020
FFCF
FFFB
001A
0005
0010
0002
0032
FFD2
FFFF
FFD6
FFDD
FFF4
FFDD
002F
002E
FFEF
000E
0003
0020
000D
FFCD
001B
0019
0001
0029
002A
0002
000B
0033
FFEB
FFEE
FFE0
0029
0019
FFD8
0031
0018
0024
FFD2
0001
0014
0004
0011
0021
FFF3
0024
FFDD
FFE9
FFD1
FFF2
FFF4
001F
0010
FFFA
0010
FFD2
FFDF
000D
000E
001C
FFF6
0017
0013
002F
FFE3
0005
000A
0033
FFE1
0002
FFF0
0003
FFE5
FFD2
0007
FFEF
FFDF
FFEE
FFD2
002E
0008
0020
FFF8
0029
FFFE
0008
FFFF
0018
0007
FFE9
FFDC
000B
FFFF
FFD7
FFF5
0002
0021
FFD5
FFF0
0021
000F
FFEA
0023
FFFF
0000
0031
002E
FFF2
FFDB
FFEE
FFD0
FFCF
FFF5
002D
0026
0001
0007
FFCD
FFE3
FFCF
001A
FFDC
0026
000F
FFE4
FFDD
000D
0029
0016
FFF0
0009
FFED
0033
0019
000C
FFF8
000C
FFF0
FFD0
FFF5
002C
000D
FFD5
0027
FFE8
FFE6
FFEB
0008
0005
FFFF
0016
FFED
001D
FFDF
001D
0011
0013
FFFE
0011
FFD5
0024
FFD2
FFDC
0008
0019
FFD5
002B
0030
000B
FFFE
0019
FFEE
FFFF
002B
002F
002C
FFE8
FFE5
FFEB
FFFA
FFED
FFF3
000C
001B
0018
0020
FFD0
FFD2
001E
0003
0008
FFD2
FFE7
000E
0025
002B
0000
0005
0022
0004
0002
0029
001E
002A
FFE3
0002
0023
FFD8
001E
FFE0
0020
000B
FFE1
FFFD
0013
000E
FFF9
0029
0002
0001
FFD3
002B
FFDF
0003
001F
FFE3
0003
FFE5
001B
0007
0024
0028
000F
0017
0005
FFF4
000F
002A
FFF7
FFED
FFF5
FFF9
FFD4
0000
FFFF
0009
FFF2
000C
0027
002F
0009
FFD1
0030
0015
FFEF
FFDC
FFDB
FFDE
FFD1
0029
0004
0014
0022
001E
0027
0030
FFFA
002E
0017
FFD4
0013
0013
002A
FFF3
0009
FFCE
FFEF
FFD3
0002
0021
FFE2
0003
FFE2
FFD9
0001
FFD5
0009
FFD0
FFD8
0005
0009
FFD0
0008
0023
0017
FFDA
0009
0012
FFD1
0024
002A
0024
0021
0019
000E
0012
001F
0011
FFEE
FFF3
0029
FFCF
0014
002F
0015
0033
0013
FFD0
0021
FFEA
FFFA
FFED
FFE8
FFF9
FFF4
000E
0020
FFEB
FFE3
0011
0011
0029
FFCE
0024
0002
000C
FFD6
FFF9
FFE4
FFE7
0000
0020
0019
0009
0004
FFF9
0030
0006
FFE7
FFE4
000B
0002
FFCE
0022
0015
0011
FFD4
FFF2
002D
0025
FFEA
FFDD
FFFB
FFF1
0013
0030
FFF2
FFD3
0029
FFD1
002E
0011
002D
FFE1
FFD1
FFFF
FFFB
FFEF
002F
0021
0011
FFDD
0018
0017
FFF8
002B
FFDE
FFE8
FFD3
001E
000C
FFED
FFDE
FFD1
FFDE
FFFB
FFE6
FFE7
0026
0002
0017
FFD0
FFF2
FFFE
FFE0
FFD9
0026
002D
FFD5
FFF1
002F
FFD5
000F
0030
0031
FFFD
FFDD
FFE1
0028
002A
000B
001B
0019
0011
0022
0013
0003
FFE5
0019
FFFD
FFEB
001F
0014
002D
FFDE
000F
FFE6
0029
FFD7
0010
001E
FFF1
002F
0024
FFEB
FFCE
FFEB
FFEA
0028
0030
FFD4
FFFD
0005
FFD6
FFF3
FFED
0004
0011
0015
FFDB
0020
0012
0028
FFFB
0028
0025
FFFA
FFF4
002C
0016
002C
001E
000B
FFD9
FFEB
0030
FFEE
FFD6
0015
0018
FFEA
FFEB
FFFD
FFCF
001E
FFED
0024
001F
0011
FFEE
0002
FFFA
FFF0
0024
FFFE
0022
FFD8
FFDB
0031
0009
0001
0002
FFE3
0016
FFD5
0008
0007
002A
0003
FFDB
0007
FFD6
FFE2
FFD0
0001
FFD5
FFFD
002C
0017
FFD5
FFE4
0012
0028
FFD0
0020
0006
0005
002F
0019
0024
FFF1
0006
000C
FFEE
0007
FFE5
FFDB
FFF3
0019
002B
FFFC
000F
FFD7
0029
0007
001D
001E
FFE7
0003
002F
FFD6
0013
002F
FFEC
0025
002C
0019
FFE4
FFEF
FFD0
0022
0024
000E
FFF1
FFD5
001A
0017
002A
0018
0022
0019
000D
FFF9
0029
000F
FFF6
FFD5
FFEB
0004
FFE9
FFE3
0003
FFDE
001F
FFFE
0008
FFDC
FFEE
FFF7
0020
001C
FFE4
000C
FFE6
0032
002E
0006
0014
001F
0017
0014
002F
000A
000E
0024
0011
0018
FFE5
FFF3
FFDC
0001
FFFB
0033
000B
001D
FFEF
0022
000C
0014
FFEB
0005
000E
0009
002B
0029
0030
0011
0030
0022
FFE9
FFF9
FFE5
FFCD
FFE0
FFCD
0017
FFF8
FFED
001B
0022
0031
000F
FFFC
FFEC
FFE4
FFE3
FFF7
0032
FFCD
FFE1
FFE0
0016
FFF1
FFFC
FFDC
FFF6
FFD7
0003
FFD7
001E
0007
0017
FFF8
FFF4
FFD7
0002
0001
FFFD
0019
0022
001A
FFDC
000C
FFD5
0014
FFF4
FFDA
0025
000C
FFF1
FFD0
0004
002B
000A
0030
FFDB
0007
001F
0003
FFD6
0008
000B
0017
001B
001C
0011
FFE3
FFF6
001C
002E
FFD5
0004
FFED
FFE4
0001
000B
FFCE
001D
0021
0030
FFDF
000A
FFF8
FFEF
0007
001D
FFCF
0030
0020
001A
001B
FFF5
001A
FFF4
0029
FFDF
FFEB
0005
FFED
FFF8
FFFF
0024
0002
FFF2
FFE6
FFF7
0002
0019
FFD9
FFE3
FFF4
FFF2
FFF5
001E
FFEE
0000
000D
FFE5
0016
0005
FFFB
0020
FFE6
0027
0006
000B
0026
0021
000A
001A
FFF9
0005
FFD3
FFD6
0022
FFD3
FFDE
001E
FFCD
FFEA
0009
000A
001C
0001
0001
0017
0000
000B
0029
FFF6
FFF4
FFCD
000C
FFD0
0000
001F
0005
FFE8
001D
FFE8
0018
000B
FFDE
0029
FFE1
0032
FFCE
FFE8
FFE1
FFCE
0018
0014
001E
FFE7
FFFA
0010
FFFA
0014
000E
FFD9
001D
0017
0010
FFDD
FFE8
FFF5
FFE9
FFE4
001F
000E
0007
FFE4
002B
FFE0
001E
0030
0017
0032
000F
FFE3
FFE2
FFEE
FFCE
0013
FFE8
0020
FFF2
FFFE
0030
FFE6
0017
001A
FFE3
0000
FFF1
001C
000D
FFFE
001D
FFE5
001A
0025
0027
001D
FFF7
0031
FFF4
000E
FFDD
0031
0015
001A
FFD4
001B
001C
0012
FFEB
FFFF
FFD8
FFFD
FFE6
FFF1
FFDD
FFE4
FFD5
002B
0003
FFF5
0004
000D
002B
FFDF
FFEB
0031
FFF3
FFCF
FFDC
FFCF
0032
FFE9
002B
0033
000A
FFD0
FFD5
FFFE
FFF6
000B
FFFA
002C
0004
0014
0029
FFDC
FFE4
FFD8
FFDB
0001
FFEE
FFF8
0031
FFDD
0004
FFD7
FFED
0003
002E
FFF5
FFD3
FFF5
FFDC
FFE4
000C
FFD4
FFFC
000B
FFF8
FFCF
0032
FFF2
001D
FFEE
FFFD
FFF5
FFF0
FFCF
FFF2
0028
0013
FFDC
0009
0028
0014
FFDC
0026
FFEC
FFFB
0003
0024
002C
002C
FFCE
002B
FFD2
FFE8
0002
FFFE
000B
FFFE
002C
FFE5
FFE9
002B
FFD5
000B
0013
0001
0014
FFDE
0024
FFDB
FFF6
FFD5
0005
0011
002D
0019
0004
002C
FFFE
0006
000A
FFF7
0023
FFE0
0006
0017
0029
0027
0001
000F
FFF5
FFFD
002A
002C
0028
FFDB
0024
002E
FFF2
0002
001D
0006
0033
FFFB
0016
001E
FFFF
0025
0005
FFF7
FFD8
FFF5
0018
002B
FFE7
FFF1
FFDD
0014
002F
000E
000C
0005
FFD6
0018
000A
0011
0029
001D
001D
002C
0032
0008
FFD8
FFFC
001D
FFD0
FFD3
FFD4
0018
0000
FFF3
FFD8
0018
FFEE
FFE8
0010
0006
FFF2
000E
FFE9
001E
FFE4
FFDD
001D
0015
FFE0
FFD9
0023
001C
FFEE
0010
FFDA
0001
FFCF
FFF5
FFD4
FFFD
FFF8
FFFA
FFD1
FFF2
001A
FFF3
0016
FFF3
FFF8
0007
002E
FFD8
FFD0
000B
002E
0032
FFFE
FFFD
000F
0006
000E
0026
0019
0000
FFFC
000E
FFFB
FFFC
FFCE
FFDF
FFFF
0021
FFE9
0002
FFF0
FFD8
002F
0024
FFD5
0017
FFF0
0033
FFEC
FFE5
0007
0022
FFE1
0015
FFD3
002B
FFD5
002A
FFFF
FFFB
0030
0032
000F
FFDA
0001
0003
0001
0007
FFCF
0016
0016
FFD9
0007
0007
0013
FFD6
000D
FFEA
0001
001C
0015
FFD9
0009
0030
FFDD
0024
0015
001C
FFEA
FFEA
002A
FFF2
FFD3
000A
FFDA
001E
000F
0026
001D
FFD8
FFF4
001C
FFF8
0030
0018
FFCE
0027
FFD7
FFDB
0018
0025
0004
FFEA
FFF1
FFF0
FFEE
FFE6
000B
0029
FFEC
FFE0
0023
0019
002C
FFDE
FFDC
0004
000C
FFFE
000A
FFDF
FFFE
0010
FFF9
0012
FFFB
FFEF
FFEC
FFF7
FFCF
0011
0023
FFF1
FFD2
0032
FFE8
FFDA
FFF3
0018
FFEB
0008
FFF7
FFD9
FFEF
0017
000B
FFD9
FFDE
000E
0020
FFF1
000A
FFDE
FFED
FFCF
001B
FFF6
0020
0015
0022
FFEA
FFE0
0030
0016
0022
FFCE
FFF1
0019
FFD5
0007
FFF9
FFCF
FFE5
FFEA
FFD8
000D
FFE6
FFE9
0029
FFFD
FFF5
0017
002A
FFCF
FFFB
000B
FFED
001C
0030
002D
FFE8
FFE4
002F
FFFC
FFE2
0015
FFEA
FFE8
0027
FFDD
FFD3
FFE8
000B
FFD9
FFFD
000D
0024
FFE4
0020
FFE5
0012
FFF9
FFD9
0016
FFE3
FFDF
FFF1
0010
FFE5
FFE0
FFCE
FFFD
FFF9
FFE5
FFD2
FFF9
001E
0016
0025
FFCE
0030
FFF0
0032
FFE7
FFFD
FFF1
FFF1
0023
0019
0032
000C
FFFC
FFD6
0033
0005
0015
FFF6
0005
002D
FFDE
FFEB
FFDC
001E
FFD3
FFD5
FFEB
0001
FFF6
FFD1
002F
002E
FFE9
0018
0008
FFE5
FFE8
FFFF
FFF8
FFEB
001F
FFFE
0010
FFE0
0003
FFED
0003
001D
001C
FFF1
0014
002D
000D
FFDC
0012
FFD8
0026
0002
FFF4
FFD3
FFF4
0029
FFCF
FFFD
002C
FFF5
FFF9
0008
FFFC
FFDE
FFCF
000B
002B
FFD8
FFE2
FFF3
0020
FFE8
0027
FFD2
002D
0006
0010
FFF2
001D
FFDE
FFD2
FFF5
0024
001A
0002
0007
FFDA
0023
001D
0010
FFFD
0030
0027
000F
FFF3
000C
0008
FFF5
FFEC
FFF6
0008
FFF9
FFE8
001B
0003
FFD4
FFF3
0027
001A
FFEE
002D
FFD5
002F
FFE6
FFCE
FFF9
FFF2
0004
001E
0023
FFF6
FFF9
FFDC
FFD2
000E
FFD3
0018
0004
FFE1
0004
FFE0
FFFA
001F
FFFC
FFDC
0017
FFE0
0018
FFFE
FFFB
0024
0015
FFD0
FFEB
0026
FFCF
0005
0017
000C
001B
0017
0014
0021
000F
FFF6
FFFD
0016
0027
FFE9
FFF0
002C
0008
FFDF
0011
0032
0021
0019
FFE2
0027
0003
0028
FFEF
FFD3
FFFE
FFE8
0016
002F
0014
0028
FFFB
001C
0023
0016
0001
000D
0015
FFE7
0020
002E
FFFC
0015
0018
0011
0005
0027
FFFB
FFD3
0023
0012
0024
FFDB
FFD0
002C
FFDC
0020
0021
0015
FFDA
0011
0028
FFF8
FFF7
FFFA
FFD5
0028
0026
0033
0009
001A
FFE2
0011
000F
0029
0022
002D
0026
0026
FFD3
0023
000B
FFF4
FFD3
0012
FFEE
FFFD
0013
002A
0021
FFFB
FFF5
FFE5
FFF3
FFD8
0030
0008
FFDA
FFF1
0005
0003
FFD0
002E
FFE9
FFCE
FFD5
0008
FFDB
FFD1
FFF4
000D
FFD8
FFED
FFF8
FFDD
0001
FFD6
FFD2
0002
FFE6
FFD7
FFF8
002B
0017
0020
0026
0030
001B
000B
FFF2
FFDF
0013
0033
FFFD
0017
FFFF
FFF9
FFF7
0000
FFF2
0019
0026
0027
FFE4
0029
FFF0
FFEC
0017
FFEC
FFD2
FFF3
0017
FFEE
000D
0010
0018
0029
FFF9
FFDE
FFED
FFF9
0016
FFCE
FFED
001D
0011
0018
0020
001D
0013
FFFA
0032
0007
FFE2
FFEB
0014
002B
FFDF
FFD5
0027
002B
FFE9
FFF3
0010
FFEF
0027
FFD8
FFD1
FFE2
FFEA
FFD8
FFD4
001A
FFDE
002A
FFF2
0011
FFE4
FFE5
0008
0006
001C
001A
0011
FFFB
0028
000D
0032
0021
FFD1
FFEE
0007
0017
0005
001D
FFEA
FFE0
FFD2
0008
0013
FFEE
000C
FFD2
FFD7
0015
FFF2
0012
0022
0024
FFDE
FFFF
0018
001C
001D
FFE4
FFE1
0009
0019
FFED
FFD8
0016
FFEB
FFDE
FFDC
FFED
0009
FFF2
FFCF
FFD7
FFEB
0010
FFD7
0006
FFD9
FFE2
FFDE
FFD4
0012
FFFC
0022
FFD7
FFDC
FFEC
001B
FFEC
FFF7
FFEC
FFD5
002D
0005
001D
0010
0001
FFD6
000F
FFDD
FFF7
000D
001D
0013
0012
FFDC
FFF0
FFD1
0016
002E
FFE8
FFD6
FFFD
0025
0005
FFD2
0031
0022
FFDA
002B
FFFB
FFF3
FFFC
0022
0010
FFD3
002F
FFDC
0019
000E
FFE0
FFDE
0026
FFF8
0010
0000
0017
FFFE
FFEA
FFF2
0025
FFFD
FFE3
002D
001E
FFD3
0033
0014
FFDD
FFE5
0014
001D
FFE5
FFE7
FFEC
000A
FFDE
FFD7
0012
001D
0000
FFF2
FFF9
FFF5
002F
001B
FFE2
FFF4
0005
000C
FFFD
0020
001B
0001
0024
001A
001D
002F
FFE8
FFE8
0028
001C
002C
FFD3
000D
FFDC
0000
FFDD
FFDA
FFCE
000D
FFF2
FFD8
FFEE
FFDE
002D
FFEE
FFEF
0023
000F
0016
000E
002E
FFE2
0032
0022
0009
0011
000F
FFD3
FFE3
002F
0004
FFF4
001B
0003
FFCE
0018
0018
FFDE
002F
FFE4
FFFC
FFD9
000B
FFF3
FFF1
0021
FFCE
001F
0007
0032
0009
FFD2
FFD2
0027
0023
FFF0
000C
FFFF
0030
002E
0032
0026
002A
FFE3
0022
0015
002F
0007
FFD6
000A
0013
FFE3
FFF5
000A
FFF3
FFF3
FFDA
002D
001A
FFCD
001B
0019
FFCE
FFF3
000B
FFFB
001C
FFF8
FFDD
0031
FFE6
0016
FFDB
FFEE
FFFA
FFE0
FFFB
FFDD
0006
0011
FFD3
0026
FFE0
FFE4
0011
FFFD
0000
FFDA
001F
000C
FFDB
FFF3
0020
0007
FFD8
FFF3
FFE6
0002
0023
FFF9
FFF9
002A
0008
0007
FFE8
000B
0008
FFF5
0032
0027
001A
0004
FFFC
FFE0
FFEC
001C
FFFB
0027
FFDC
0001
000F
0002
0028
0032
FFD9
FFDA
FFDA
0013
FFF3
0018
FFF6
000D
001C
0005
0004
FFD6
FFF7
0005
FFFC
0029
002A
0021
FFF3
0016
FFF5
FFE5
FFF0
FFD4
FFEF
FFFC
002F
FFED
0029
FFE4
FFE0
0002
0012
FFD1
FFE3
FFFB
FFEF
0016
0001
FFDD
0028
FFEB
0018
001D
002F
0000
000C
FFEF
0012
FFFC
FFFA
0024
FFD2
0027
0024
0001
FFFF
FFF2
0033
FFD8
0009
0013
002C
001D
000F
FFD9
FFF3
FFDB
0027
001A
001A
0010
0001
FFDC
FFEF
FFDB
0017
FFDD
0015
0014
FFFC
FFDB
FFED
FFEE
0015
FFD8
0022
001B
FFE0
0016
0011
0019
FFE0
FFDD
FFE5
FFF2
001E
0018
002C
FFD3
FFCE
0014
FFE9
FFEF
0005
FFD7
000F
FFEE
000E
0022
FFDE
002C
0003
002B
FFE2
000B
FFF6
001C
000B
FFFF
002A
FFF3
FFE3
000B
000D
FFFA
FFFF
002F
0018
FFD8
FFE3
0031
0017
002B
FFEC
0019
0016
FFEB
0005
000D
FFFE
0022
0022
0024
001F
FFFF
FFF4
0022
FFFF
FFE6
0001
FFDB
0014
FFEF
FFE7
002F
001C
001D
000D
0023
001B
000A
002F
FFE0
002D
FFF6
0003
FFD9
0004
000B
0033
0031
0030
FFF0
0032
FFFB
0024
FFE3
0001
0030
002E
0013
001E
FFDF
0017
000C
FFD6
FFD8
FFD8
0017
FFDB
FFFD
FFF1
0005
0015
0013
0002
FFFC
FFF6
0025
FFEF
FFE7
0019
FFF2
0024
FFEE
0015
FFD1
FFF4
FFF0
0020
0030
FFFC
0021
0014
0030
0020
FFD5
0016
0004
FFCE
FFE7
002B
002C
001F
0031
001F
FFCE
FFEA
FFD0
FFD6
FFE3
0000
0024
0025
000C
002C
0000
0028
FFFB
FFE9
002B
FFF5
0000
FFEE
0011
0033
FFCF
0029
FFCD
FFF2
FFDE
001A
FFD2
0005
FFEB
FFDA
001C
FFE3
FFE4
FFE9
0009
0010
FFCF
FFE6
FFF9
FFEF
0027
001D
000D
FFEF
0015
0023
000A
001D
001A
0007
FFED
0019
FFE2
001D
001F
0021
FFFD
FFE1
FFD7
0019
0028
000F
FFDC
002D
0032
FFF9
000A
001C
0018
0030
FFD9
0008
0014
0028
0026
0031
0001
0022
FFF9
FFF8
FFE7
0021
0032
FFE7
FFD3
0020
000C
002F
FFE7
FFD4
FFFF
FFD6
FFE8
FFDA
FFE4
FFD8
002E
FFE9
FFFA
0029
0012
000C
0015
0022
0027
000F
0028
0004
FFE9
0027
0004
002A
FFD1
FFF6
002E
FFE6
002D
002E
0027
0007
000F
0026
001C
000D
0031
0013
0031
FFD3
FFDB
FFFB
FFF4
001D
FFDD
0031
FFED
FFF9
FFE9
0008
FFD3
FFDC
0019
FFE0
FFE5
001E
FFD6
FFFA
FFCF
FFF0
0014
FFD6
0028
002A
FFD8
0032
FFEB
FFD5
FFCD
FFF7
000D
FFEF
0022
0016
FFF1
0018
002D
FFD6
FFEC
FFFC
0000
0004
FFEC
0011
000F
0008
FFD8
FFFE
FFF1
FFFF
002B
FFFE
FFCE
FFFA
0021
001D
0001
FFE6
FFFC
0007
0033
000F
0014
FFFF
FFF1
0020
FFFF
0033
FFFC
FFD4
0013
FFD2
FFE6
FFF1
0019
FFFF
FFD0
000C
FFF7
002B
0000
0015
FFE3
001B
0017
0029
FFD0
FFFB
0012
FFD7
FFF7
002D
FFF9
0032
FFD3
0016
0008
0000
0030
FFDA
0029
0014
FFE7
0029
FFF9
0020
FFF5
0024
000E
FFDB
000F
FFE0
FFF7
FFDE
FFCF
FFE2
0004
FFFE
0000
FFE6
0013
0015
FFF1
0027
000F
0016
FFE9
FFCD
0025
0021
FFD9
FFF3
0011
0010
0025
FFDB
FFF9
FFD7
FFF5
FFCE
0029
0003
0024
FFD3
FFE4
FFE7
FFF4
001F
FFF4
FFE2
FFD3
FFD5
001B
FFFA
0017
0013
FFDB
FFDB
001A
0017
FFF4
FFD5
FFCE
FFEA
FFCE
FFE4
FFF8
FFD9
FFD7
0029
0009
002C
FFF0
0012
FFE2
000C
FFDA
FFCD
002C
0006
002C
FFEF
FFEE
FFF6
0015
0007
002C
FFCF
0015
FFEF
FFDF
0001
0001
FFDB
FFE1
FFF7
FFF7
FFED
FFDC
FFCD
0030
002D
FFFE
0033
0012
FFD4
FFD9
002B
000D
0023
0029
FFFB
FFD2
FFE0
FFD4
FFE0
FFF7
FFD9
FFDE
FFFA
FFF0
FFFD
FFF9
000F
002D
FFD8
FFD7
0024
0001
001B
FFE3
0022
002B
000E
FFD8
0028
001E
001A
FFD1
001F
FFDB
FFE4
0008
FFE8
0011
000B
FFD8
0010
002B
FFDD
000A
FFF0
FFFC
FFEA
FFF1
FFD0
0031
000D
0000
FFF4
0004
FFF4
FFF2
FFFC
FFE9
FFDF
0006
0023
FFDC
FFD0
FFE6
0031
0022
000A
002C
FFFA
0031
FFEB
FFE5
000E
FFF4
000D
FFEC
000C
FFE9
FFD2
002A
0027
0030
0016
0013
0006
FFDA
FFE0
FFEA
0028
FFDF
002B
0002
0016
FFD8
FFE8
002F
FFE8
FFEB
FFE1
FFDA
FFE5
000F
FFFB
0006
FFD9
001F
001D
FFCF
FFF4
FFD4
001E
0018
0029
FFE5
FFFC
FFE0
FFF3
0002
FFD2
0016
0004
0022
FFE9
0029
0033
002B
001C
0020
0008
FFE0
0012
0016
0032
0004
FFE9
0013
0031
FFDF
FFEE
0004
FFDE
FFCF
FFEF
0025
FFD1
FFF9
001B
002E
0032
FFF8
002E
FFD0
0019
000F
FFE6
0001
FFDA
0026
FFF1
000D
FFDD
FFE2
0032
001A
002F
FFEB
FFDE
0000
FFFF
FFDF
0018
FFF2
FFE0
FFEF
0007
0017
FFFE
0003
FFDB
002A
002C
0013
FFCF
0004
000D
0033
0033
0025
FFD3
002E
000C
001F
FFF6
FFEE
FFFC
FFDC
FFF1
0025
FFD1
FFDC
FFDA
FFF6
0033
FFDF
FFDC
002B
0027
FFD0
001A
0010
001B
FFFF
0032
FFD1
FFE5
FFF5
FFFB
002B
0006
FFD1
FFF7
FFF7
0030
000A
000E
0016
001C
000E
FFE5
0026
0018
0019
0033
001F
0022
002E
FFDC
0000
0008
FFEF
0023
001B
0017
0033
FFE7
0018
0005
FFED
FFDD
0029
000A
0021
0005
FFE3
FFEF
FFF4
0030
FFCD
0032
0031
0033
FFFE
002F
FFF5
FFCF
FFE4
002E
FFCE
0005
FFD5
FFEA
FFD6
0025
0009
0029
0013
0030
0001
000E
0008
FFFE
0023
000F
001F
001D
FFE0
000F
FFE1
0009
0012
0033
FFD0
FFD6
FFD5
FFF6
0021
0023
0018
0029
FFEE
FFD6
FFD3
0024
0018
0014
FFF0
FFF4
002F
FFD3
001C
FFED
FFD1
0019
FFEF
0017
0015
0004
001C
0008
FFEA
0018
0009
FFCE
0029
0005
0026
0027
FFFA
0001
FFF7
FFFB
0028
001E
FFDA
000B
0033
000A
001D
001C
FFF1
FFF3
0017
0000
0007
0016
001C
FFE9
FFDC
FFEB
0001
FFF0
0007
FFD2
0001
FFF2
0004
FFF8
FFEA
0029
FFE0
0013
002B
0004
0027
FFDA
FFFF
FFFC
FFCE
FFFA
FFF3
0011
002D
FFD6
FFEE
FFFA
FFFB
001C
FFFA
FFD0
0016
0027
0001
0008
FFDD
FFE3
FFE5
FFF9
002C
0002
FFE0
FFE8
FFF4
000D
FFFA
FFF5
0007
FFE6
FFD5
FFCF
FFE7
FFD6
FFEF
001C
0016
000B
0024
FFEA
0027
FFF6
FFF6
FFF6
FFD7
0031
FFDB
FFF0
FFED
FFD4
FFDC
FFD1
FFEB
0026
FFF0
FFD9
000F
0033
FFE5
FFE9
0030
FFDF
0001
FFE5
002C
0031
0020
FFED
FFF6
FFE6
0028
002A
FFF8
0010
FFDE
FFF9
000D
FFF4
FFF1
FFCD
001F
0028
0030
0016
0005
FFE8
0033
0009
0013
0013
0023
FFCE
FFE3
0011
0028
0013
FFF7
FFF2
0018
0019
000B
FFEB
002C
0005
001E
FFE3
FFF0
0026
FFD2
0001
FFFE
001A
FFEA
FFE3
002C
0007
FFD8
FFE1
0033
FFE1
000B
FFF8
0027
001A
000A
FFCE
0027
FFFA
002C
0000
0014
FFD4
0019
FFEF
FFF1
FFD9
FFDC
FFE0
FFEE
0028
FFF3
0017
FFD5
0009
FFFE
0031
0023
FFFB
001C
FFE1
0006
FFD4
FFF0
FFE4
0016
FFFF
001A
0002
FFD6
0018
0022
0029
0007
001A
001A
FFDD
FFDE
FFD4
FFEE
FFFD
0033
FFF9
0017
0014
FFE2
FFD3
0005
0015
0033
FFF2
0029
FFF4
0013
000A
FFD2
FFD5
FFCF
FFF3
0019
FFDE
000B
FFEA
001E
001F
001C
0003
FFEA
0020
FFE0
FFEA
FFE0
0012
0013
0010
FFF7
FFD7
002A
0001
FFF6
0009
FFE1
FFDA
FFF6
FFE4
FFE6
0028
0003
FFFE
0013
002E
FFD8
0022
0009
FFDC
FFEB
FFFE
0014
FFE6
0004
0013
FFFB
0025
0026
FFFD
0030
FFD5
FFCD
FFF4
000A
000D
FFFE
FFDA
FFDE
0024
0026
0012
0011
000A
FFE2
FFF9
0014
0004
FFCF
002E
0023
FFE7
000C
002B
FFD7
0000
FFFC
FFF7
0022
FFF4
FFD3
FFD4
FFD1
FFF7
0016
FFE2
000F
0013
FFE7
000A
0013
FFFD
FFEF
000C
0031
FFF9
FFF5
FFFC
FFD5
0005
FFEE
FFD9
FFFD
FFCD
FFF6
FFD8
FFCF
0021
002B
FFE2
0004
FFE9
FFFF
FFFA
FFE8
0015
FFDA
FFD2
001B
0011
0000
FFFD
0000
FFFA
FFF5
0000
0003
0014
0016
FFF3
FFF7
FFF3
0004
FFFB
0028
0014
0029
0015
0030
000E
002F
FFDD
FFD2
0008
0032
FFF8
FFE3
0002
000F
FFED
0016
0031
0029
FFEB
FFEE
FFF3
FFF5
FFD7
001B
FFF2
0027
002C
FFCF
0032
0016
0002
FFF5
0002
FFEE
000D
FFD6
000C
FFE9
FFCF
0005
0008
FFF8
FFD4
0028
000B
FFD9
0001
0000
FFD3
000B
0020
0019
FFE2
0025
FFF0
002E
FFD4
FFFF
000A
FFE6
001C
000D
FFCF
000B
FFFF
FFE1
0033
0029
FFEB
0004
FFED
001C
002C
FFF2
001F
0000
FFF5
002D
0001
FFFD
0012
FFE8
FFEE
002C
0012
0021
FFE9
0004
0030
FFED
FFDD
0001
FFF5
FFDD
0028
0032
0007
001C
0025
0015
FFD1
FFDD
FFD4
FFCE
FFEC
FFF5
FFE5
FFD3
0003
FFE9
001E
FFCE
0023
002F
0016
0018
002C
FFE2
0033
001C
0017
FFF2
0005
0010
000C
0015
FFD5
FFF1
FFF9
FFE7
FFDE
FFDB
FFF2
FFFF
FFD3
002E
001B
0018
FFDF
000B
0003
0031
0019
0008
0024
FFDD
FFCE
0013
FFD7
FFD9
0019
FFE9
000D
002B
FFED
FFE3
FFD8
FFDA
FFD3
FFD6
FFF9
FFEE
0015
0026
001D
0003
FFD7
0015
FFF2
FFD6
0023
FFEF
FFE3
0026
0029
FFF0
FFF1
0008
0018
FFD3
000A
002E
FFE8
002A
002E
FFE8
001A
FFE5
0018
001E
FFE6
0016
0020
FFF2
FFDE
FFD6
0008
0031
0021
FFF9
0004
FFE9
FFDD
FFFE
FFFC
0002
002E
000B
000B
FFDA
0033
001C
0027
FFF7
0000
0002
FFE1
0013
0029
FFDE
FFD6
0018
FFE9
000D
0014
FFEE
0020
0005
0026
001B
0026
FFCF
FFE6
FFD6
FFFA
0028
FFFD
0024
FFEE
FFF0
0029
FFF8
001E
FFE5
002E
0008
001B
FFD6
FFFF
0029
0027
FFD2
FFEC
FFFA
FFDE
0018
FFE0
FFF0
0011
FFFE
0018
002F
FFD9
0015
FFE4
FFF7
FFD0
FFDB
FFEE
FFF0
0029
0019
0030
000A
FFE6
FFEE
FFEE
FFEE
0012
0003
FFF4
FFDC
FFCF
FFE3
FFD8
001D
FFD8
0017
FFF4
FFD4
0020
0008
FFE5
0028
FFD1
FFE1
001A
0015
FFEA
FFD3
0025
FFED
FFE1
0002
002A
FFD1
001B
0007
FFF8
0019
0030
FFE4
FFDC
002A
0011
FFFA
0008
0019
001C
002B
FFF9
FFEB
000E
FFF7
000A
FFF8
FFDC
FFFD
0014
001F
FFFF
FFDE
FFF7
001D
FFF7
0014
0001
FFE6
001E
FFD5
0003
FFE2
FFD4
0000
0000
0015
0019
0017
FFF7
000D
0008
FFF8
000A
002E
FFE1
002A
FFD2
FFEC
FFEA
000D
FFDA
0027
0022
0010
FFFC
002C
0022
0000
0015
0007
0009
FFEF
FFFC
FFD5
FFF1
0014
002E
002F
0006
000B
FFE0
0014
FFD4
FFEA
0011
FFED
FFD2
0022
FFED
FFD3
FFD4
FFE7
FFDF
001C
FFEE
001F
FFDF
FFFF
0013
0010
000A
002C
FFE4
FFFF
0027
FFD5
FFD3
FFE5
000E
FFE7
FFE0
FFFC
000C
FFE6
FFEC
000C
002E
0012
001D
FFF2
FFE9
FFFB
001F
FFFC
0024
0032
FFD4
FFD1
FFDC
FFF4
FFDA
0026
FFCF
FFED
FFE0
002C
0011
002A
0030
0000
FFE5
FFE1
FFE4
0015
FFD1
FFD2
000B
000F
0011
FFF3
001F
0003
FFD8
001E
002E
FFD3
FFF5
FFFF
FFDC
0026
FFEA
001D
0012
000A
FFE0
FFE3
FFD2
FFE5
FFF0
0022
FFF2
001A
FFFA
001D
0031
FFE5
0025
000C
0020
0010
FFF8
FFE4
FFD4
0004
0032
0018
FFEE
0022
001C
FFEA
FFCE
FFD9
0027
0022
FFEB
FFEA
001E
002D
001D
000B
FFE6
0003
FFE5
0020
FFF4
0022
FFF4
0021
FFEF
FFFA
000C
FFD4
002E
0008
0001
0023
0025
0002
002C
FFD3
FFD8
000A
FFF1
FFFC
FFEE
FFF6
0021
000A
0033
001D
FFE9
FFE8
FFEF
0023
FFD0
FFE4
0029
000E
FFE4
FFE3
0025
0028
FFE7
FFF8
0022
001C
0020
0002
002A
FFEE
FFDD
0015
0004
0024
FFD5
0023
FFEB
0010
FFD1
000B
0016
FFF3
FFE3
0004
0022
FFEE
FFE7
FFE9
002E
FFF2
FFCD
001D
0014
FFDA
0032
000B
0000
FFF4
0029
FFE6
FFEA
FFD9
001B
000A
000B
FFE3
000F
001B
FFF1
001F
FFF1
001A
FFD0
0005
0030
0031
FFEA
FFFA
FFD3
0026
0007
FFF4
FFD8
002E
0003
FFEA
FFF1
FFE9
000A
002C
0025
FFFC
0021
FFF8
FFE7
0032
FFEC
FFEE
0032
FFDB
001B
002D
0001
FFCD
FFF3
FFD8
FFF7
001E
FFFA
FFF9
0006
0008
0024
FFEC
0021
0007
FFEC
FFEB
FFF2
000D
FFE4
002B
0008
002B
FFD2
FFF0
FFCF
FFE9
0025
FFD1
FFF9
FFD9
FFF7
0023
000D
0018
FFF1
002E
0015
FFF8
FFF8
002B
0008
0015
FFF8
FFE4
0017
000B
0000
000D
FFE2
001E
002E
0028
FFEE
FFF6
0020
000A
0005
002C
0004
0002
FFD1
FFD4
FFCE
002A
FFF7
FFFD
0023
000B
000B
FFEB
0022
FFDE
FFD2
FFE0
FFE8
FFEA
0011
FFE3
0012
FFD6
FFDC
0001
002B
0025
0030
000F
0012
000D
000D
FFDC
0004
FFF4
FFFA
0002
FFDA
FFF2
FFD3
0031
FFD9
FFE7
0028
FFFE
FFDB
FFF4
FFD9
FFE1
FFD2
FFFA
001F
0009
000B
FFE1
FFF0
