FFCE
FFD5
FFE7
FFD0
000D
FFF8
0005
FFDF
FFEB
0011
0030
FFD2
0028
0008
0007
0000
FFD4
FFD6
000A
FFF0
002B
FFF6
FFDB
0016
FFEB
0003
0014
0029
001E
0012
0012
002E
FFEB
FFCD
FFE9
FFE3
0011
000E
000A
FFCE
0017
FFEE
0011
0006
FFF0
FFDB
FFD6
0022
002B
000F
FFD7
FFF6
0017
001D
FFD9
FFCD
0016
FFF1
FFE7
FFCE
0004
0024
002F
0007
0001
FFD6
0005
FFF4
000B
FFF5
FFE5
FFD7
FFED
FFD7
FFDF
0032
FFFA
0003
0026
0033
0008
0020
FFEE
FFEC
FFF6
0012
0013
FFED
FFDA
000E
FFDA
0008
0014
0015
001A
0026
0000
0018
000C
FFE0
FFCF
FFEA
FFFA
000C
0024
FFE1
FFDA
002F
FFD8
FFFE
0009
0004
FFD6
FFD3
FFD8
0009
0005
FFE5
000E
0021
FFD1
0000
0013
FFE7
FFEC
000C
0029
0020
0009
0018
FFF2
000E
FFFD
FFE0
0015
0006
FFF2
002A
FFCF
FFED
FFD3
001B
0015
FFEF
0012
FFF5
001A
FFFB
FFF7
002D
FFE6
FFD9
0009
0030
FFF3
FFD3
FFF0
0001
FFDD
0010
0033
FFFB
FFF1
FFF6
FFD9
0027
FFF7
FFF4
0010
FFFA
000F
FFD3
0020
002D
000F
002F
FFDC
FFFE
000A
0008
FFF6
FFEF
FFDA
FFF5
FFDD
0018
FFE2
FFD3
0005
000A
0026
0008
FFF0
001F
0004
FFD5
0007
002A
FFF5
FFEB
FFDB
FFDC
FFF9
000A
FFD5
002D
001A
0009
0022
FFD5
FFFE
000D
0022
001D
FFE9
002D
FFDA
0026
0030
FFDF
0017
FFD1
FFF6
0002
0008
002D
0012
FFFE
0020
002E
FFCF
0031
FFD6
0020
FFEA
FFDA
FFFA
000F
FFF4
FFD2
000A
0029
FFF4
FFE3
FFFA
FFD2
0021
0021
0009
FFF1
001F
0006
0021
000D
001D
000A
FFF7
002F
0004
000B
FFE3
000D
0007
FFE0
FFD3
000B
001B
0002
FFE4
0011
FFD5
FFFA
FFDE
FFE0
FFE2
FFF4
FFD2
FFF6
0001
FFFE
FFF4
0023
FFDC
0001
FFD3
FFD4
0008
0007
0027
0006
002F
FFD2
FFD7
FFD1
FFE0
0004
000F
FFD1
002E
0023
FFEB
FFD5
FFDE
FFDA
FFD9
0002
FFE6
FFF1
0032
0013
002E
FFDB
FFF4
0006
FFD5
FFCD
0011
000F
FFF7
FFFF
FFF7
FFCF
FFEF
FFDF
FFD7
002F
000A
0017
FFED
FFF5
FFE5
FFD7
FFDF
001E
0012
0005
FFFD
002B
FFD4
FFEA
FFF1
001D
0032
FFE5
0026
0022
FFE4
FFF6
FFF7
0031
FFDF
001F
FFEF
0018
FFF8
0008
0022
001F
0026
FFD3
0014
FFDB
FFF7
0005
FFF6
0002
0033
FFDB
0012
FFF5
FFDA
FFDD
002E
0027
002A
0032
FFE2
FFF1
0011
FFFE
FFF8
FFF1
000A
0008
FFDD
FFFD
0005
0007
FFE2
0019
FFCF
FFF1
001D
0007
FFE8
0014
0007
001E
0018
000B
FFFF
FFDA
FFE8
FFF8
000A
0001
FFEA
FFCD
0000
FFEA
0018
FFCF
0009
002D
FFDF
FFFD
FFD6
000D
0005
FFF7
0002
0029
FFE1
FFCF
0025
0008
0028
000A
0020
FFF9
001A
002A
0007
FFDF
FFE8
FFE1
FFE6
FFEC
0006
0009
FFF8
000C
FFD5
FFD6
FFDE
0002
FFE3
FFEA
FFF6
0020
FFCE
000F
0011
001F
002C
FFCF
FFDD
0028
FFFC
0007
0011
0012
002C
0033
0017
FFEA
0027
FFD2
FFE4
0029
FFE7
FFE3
FFDB
0025
0000
0012
FFE5
001A
001B
FFED
FFF7
FFE2
0031
000F
002C
FFEC
001D
001B
0014
0030
FFF5
FFDA
0012
0017
0008
FFE2
0000
FFED
FFF9
000F
0019
FFE5
FFF6
FFE8
FFE1
001D
002A
FFF3
001A
0029
0023
FFE0
002F
FFF3
FFF0
FFD3
FFFF
FFD8
FFE6
FFED
0020
0026
FFEC
0025
0025
001B
FFDC
0013
002E
0013
FFEF
0000
000F
0001
FFD9
FFED
001F
0025
FFDB
002E
FFEE
0011
001A
0020
002E
FFED
0025
FFDA
0015
0019
0012
FFE7
0026
FFDE
FFD2
0016
FFFD
0024
FFF4
FFDE
0022
0005
FFE0
0017
0001
000B
FFFC
0022
0022
0015
FFD8
0023
0012
0014
FFF2
0027
0017
FFD8
FFF7
0028
FFD2
002F
0012
000D
FFE9
FFE6
002D
FFEB
001C
FFF5
FFDB
FFCE
0005
0031
FFF3
FFF1
FFF0
0002
FFFA
0027
0001
0001
FFDB
0031
FFE6
FFD4
0011
000A
FFF7
FFF8
001D
FFE1
0021
000F
FFF8
FFFC
FFE7
001A
0001
FFEE
000A
0033
FFF9
002B
FFF0
FFD2
FFE2
FFF8
FFE3
FFCD
002A
0023
0019
FFDE
FFD9
FFD4
0017
002C
FFF9
FFD9
0001
FFF1
FFF3
000C
0016
FFD8
FFD0
0033
FFE5
FFD2
FFE0
FFD1
FFF5
001F
FFF0
FFFA
0012
0001
0025
0025
FFCE
001C
FFFC
0032
FFFE
0032
001A
FFE6
0004
0032
0025
FFD7
0015
FFF0
FFCE
FFF6
FFE5
0021
FFEF
0022
FFCD
FFEC
FFE5
FFE5
FFD4
FFE0
0006
FFEB
FFF8
FFF3
0026
002A
FFFF
FFEF
FFD8
002E
FFD3
FFEB
FFEB
FFEE
FFDE
001D
FFD9
000E
FFD9
FFD4
002A
FFE0
0021
0005
FFD5
002F
FFE6
0025
FFDE
0024
FFCE
0001
001C
002D
002A
0021
0028
FFE1
FFEA
FFEA
FFF3
FFF5
0005
FFDD
0014
FFDE
FFED
0000
001E
0019
000F
FFDD
0005
FFD6
FFF3
FFF7
FFD1
FFE9
002F
002E
FFF1
FFD1
FFDF
FFF5
002E
FFDB
001B
FFD8
0031
FFF4
001C
FFF0
000D
FFE0
FFDC
002D
002B
0028
000D
0020
FFD4
FFEF
FFED
000E
FFF1
FFDC
000A
0020
FFF4
FFDA
FFE1
FFE5
FFEC
000F
000A
0014
FFF2
0021
FFE2
FFFD
001F
FFDF
FFD8
0027
FFF0
0013
FFCF
0013
FFED
FFD3
000B
FFE5
FFF4
FFD5
FFDC
FFEB
FFD6
002A
FFCD
FFFE
FFD9
FFEC
002C
FFDD
0030
FFE2
0019
0005
0027
0006
0004
FFE1
FFDE
002B
FFEE
FFF3
001B
FFEF
002E
0018
000A
0027
FFD2
FFE7
FFFC
FFE4
0019
002B
FFF8
FFF0
002F
FFFA
FFFF
FFF1
002A
0007
001B
0020
FFF0
FFF9
0024
FFF2
001E
002D
000D
0019
001F
0023
FFF5
FFD2
FFF6
0012
FFFB
0019
FFF1
000E
FFE0
001A
0005
FFE2
FFEB
0019
FFFE
FFE3
0030
0016
002F
FFF9
FFFD
0029
0003
0015
FFE7
FFFB
FFD9
FFE2
FFCD
FFD1
0031
FFE6
0011
0023
0005
FFDC
0017
000A
0018
001C
0031
0008
FFF0
000F
FFD4
0029
FFD9
FFEE
0020
000A
FFF5
FFFD
0024
FFF0
0026
FFD6
001C
0024
FFDF
FFF9
FFDE
0015
0004
000E
FFE1
FFE2
FFD1
FFEE
0006
0025
0011
FFF9
002E
0016
002C
0003
FFE7
FFD2
0017
FFD9
FFEC
0003
0007
000A
FFDE
FFF4
000C
0030
0017
002B
001B
0009
FFE0
0011
000D
000A
FFFF
0003
FFEF
0002
FFE1
001F
FFE0
FFD6
FFF9
0010
FFFA
FFE9
0006
FFF0
002C
002B
0000
FFEE
0018
FFD1
FFFD
FFEF
002B
FFCE
0005
0019
FFFE
FFD6
0030
0002
000C
FFE5
FFFE
FFF9
FFD4
FFD8
0023
FFE5
FFE1
0001
001C
FFD3
0008
FFD9
FFD1
FFD2
0022
FFD9
FFD1
FFFA
0023
FFE8
FFF8
FFD1
FFFB
0008
0007
FFEF
FFED
FFD8
FFF2
FFD7
001B
0030
0030
0025
000A
0015
FFEA
000D
FFFB
FFFE
001A
FFEA
FFED
002B
FFD3
FFFF
002A
000B
0005
FFE6
FFF0
0024
0006
0002
FFD7
FFCE
002F
FFF3
000B
FFD5
0013
002C
0008
FFDA
0008
001B
FFF6
0027
000F
0029
000D
FFDA
FFED
FFE1
002A
001B
0012
FFEC
FFE0
001A
FFFD
FFE4
000C
FFD1
FFEE
FFFD
FFDC
0032
FFE2
FFDA
FFE2
001C
FFF8
0007
FFCF
FFD0
FFFA
0020
0027
FFD6
0004
002A
FFF5
0022
FFDA
002D
001A
002D
0012
FFF2
002D
FFE9
FFEF
0015
001B
002C
FFE2
001F
0018
FFD3
FFF4
FFEA
FFEC
0031
000F
0016
0031
FFF3
001F
FFF9
0026
FFDF
002E
FFE3
FFEE
001A
FFF5
000B
FFFA
0019
FFE4
FFD3
FFEC
FFFD
FFDE
FFF1
FFF6
FFD3
0009
0027
FFDC
000A
0011
FFF8
0015
FFF7
0000
FFCE
0014
0011
FFD1
FFF3
0031
FFF8
0000
002A
0016
0008
001E
0025
FFFC
FFFD
FFF4
0030
0014
FFD5
0025
FFFE
FFD4
0005
FFF8
0027
FFE2
0021
0006
FFD2
0030
0001
FFEB
FFFD
0025
FFEC
FFE1
FFDA
FFEB
001D
FFFD
FFE4
FFDE
FFEF
002D
FFF0
0032
FFFE
FFDF
0028
FFFC
0015
0032
FFD2
FFD7
0017
FFEA
FFE0
FFD1
FFCF
001C
FFDB
FFFD
000B
FFF9
FFD0
001D
FFCE
001B
0028
FFF9
0004
FFFE
FFF5
0028
0028
FFEF
000C
002C
002F
0001
FFFB
FFE9
002F
FFDB
0008
FFEA
FFE9
FFF6
0033
FFD2
0008
FFD5
FFDD
FFFA
0001
FFE7
FFED
FFD6
FFEC
0030
002E
FFEF
0007
002A
FFCD
0020
002E
FFD6
FFDD
002F
0004
FFCE
FFE7
FFFB
0014
0018
0033
FFEA
0004
0003
FFF6
FFDE
0031
0024
0000
000B
FFE4
0004
0014
0002
0032
000B
FFF3
001C
FFDE
FFF4
FFF0
FFF9
001D
FFFE
001E
0008
FFF0
0020
FFE5
FFE4
0000
FFE8
FFCE
000F
0001
FFFA
0030
0007
0025
FFDB
0007
0026
0009
0016
FFF3
FFD6
FFFC
FFF5
0026
FFE6
0030
002F
FFE6
FFF0
0029
0030
FFFA
FFEE
0003
0013
FFE9
0018
FFD2
FFD2
FFF4
FFF1
FFED
FFFF
FFEE
FFE0
FFEC
0031
FFF7
FFFA
0008
0031
FFE6
0013
0016
000B
FFD6
0012
FFD3
000A
0019
FFE2
0023
FFD0
0023
FFFC
FFE3
FFDA
002E
FFD4
FFE1
FFF0
000C
0005
FFDA
FFEA
FFE5
FFE3
FFF7
0015
FFE3
FFF2
FFF5
0031
002F
001F
FFE6
FFD4
FFED
FFE8
0001
001C
0025
0023
FFF2
0013
FFED
FFD3
0015
FFCE
FFF7
FFEF
0014
001B
FFEC
0020
FFEB
FFFB
0017
0014
0032
FFE4
0011
000B
002B
FFDD
001A
0007
FFE9
FFFD
FFEF
0008
0028
0007
000D
0002
FFD2
FFE5
FFFF
FFED
FFDF
0000
FFEE
FFE7
FFFC
FFDA
002C
0026
0015
FFD8
001C
0020
001B
FFD8
000F
0022
0008
000F
FFFC
0003
FFD0
000E
FFD5
FFF9
FFEB
0005
FFDA
0014
001E
FFDE
FFD7
FFDC
0027
0003
FFFD
FFD8
000F
0026
0022
000D
FFD5
FFD8
FFD2
FFE7
FFDB
FFE7
FFF4
002D
000B
0022
0016
FFD8
0018
FFE9
000E
FFF0
0033
FFE8
FFE9
002C
FFCF
0014
0017
0022
0031
0031
FFD3
0021
000F
000F
FFDA
000F
0031
002A
FFFA
FFD1
FFF2
0021
0015
FFFC
FFD2
FFF9
FFFD
002C
000E
FFED
0003
FFD4
0030
FFF2
FFFE
FFF1
0013
0011
0016
FFE8
FFED
FFDA
0010
FFD1
000A
0026
0028
FFFB
FFFC
FFD5
0011
0021
FFE6
FFF8
0023
0027
FFE6
0005
FFE1
FFD7
002A
0021
001B
FFD2
0023
FFFA
FFF0
0005
FFD6
001A
0008
FFE0
FFE0
FFE0
FFD3
0009
0023
FFCF
FFD2
0007
0021
FFEE
FFF1
000A
FFE9
FFD0
0018
000D
0008
0019
0012
FFE2
FFF1
FFDA
FFDA
0012
0025
002F
000D
FFE0
FFD8
0020
0008
000C
001D
0015
0022
FFD3
0019
0024
FFEA
000E
FFED
002F
FFD0
0008
FFDE
0016
FFDF
FFE5
FFFF
002A
FFE2
FFDC
001B
0000
002A
FFDC
000F
FFE5
FFDD
0013
000A
001A
FFEC
FFFB
FFF6
0032
FFEB
FFEB
FFF1
0007
FFE7
002B
FFE8
0029
FFD7
0010
002A
FFDE
0030
FFFB
002E
0012
FFEC
FFE0
FFEC
FFD6
FFDC
FFD8
FFF8
001E
FFDB
FFDA
000F
FFE1
FFD7
FFDE
002B
0021
FFF1
0010
0004
0012
0013
000D
FFE8
FFD1
FFFB
0028
0007
0022
0032
FFDE
0014
0012
0031
0032
0013
FFE6
001F
FFD8
001D
002A
FFF4
000D
FFF9
FFFA
FFED
001B
002D
002D
FFDF
0026
0018
FFE7
FFD4
FFE8
002A
000E
0017
FFE7
0016
FFD0
FFF3
000D
FFDC
0021
FFE5
0010
FFF6
000A
FFD8
FFCF
002A
FFE8
0021
0033
FFE2
FFE8
0011
0030
002B
0000
001E
FFDB
0031
0030
FFDE
FFEB
FFD7
FFE9
0020
FFF4
FFD6
FFF0
0031
000D
FFF7
FFDE
0032
0021
FFEA
FFD4
FFD3
FFD9
0008
002C
0000
0023
FFFA
0015
0018
FFDF
FFF2
000E
FFD4
FFF2
0004
0033
FFFD
0020
FFF9
001E
000A
0028
FFF7
000B
000D
FFF8
FFDC
FFD6
FFCF
0026
FFE5
FFE2
0018
FFEE
0001
FFDD
002F
0024
0025
FFF6
001B
FFDC
FFCE
FFCF
0009
FFFB
0002
FFCE
FFF8
0016
FFFA
0018
FFE5
0020
0009
FFE2
FFE5
000D
0022
FFF7
FFE7
0026
0011
FFFB
FFFF
FFE2
000D
FFF2
0033
FFFE
FFFF
0007
002B
001F
FFFB
0016
0009
FFFF
FFE0
FFFC
FFE6
002A
FFEF
002E
0003
000D
0004
FFDA
FFF3
FFD7
000D
FFFB
001C
FFE3
FFDE
FFF6
002C
0016
FFF8
0002
FFD5
0032
0011
FFEA
0009
FFD8
0030
FFDF
000F
FFE6
0016
001C
0012
000C
0028
FFD5
FFEF
FFE6
0032
FFF5
0018
0013
FFE3
FFE5
FFEA
FFF7
FFE5
FFCF
0027
0030
FFF0
FFEF
FFCE
0012
0021
FFDC
FFDD
001E
000C
FFD1
000D
FFEC
FFF3
001C
0020
FFF6
002E
FFF6
001C
FFFE
0029
002A
FFD6
002D
0021
001E
FFE1
001F
0024
FFEA
002E
FFD2
FFDC
0004
0008
000F
FFCF
002F
FFD1
FFDB
FFCE
0007
002C
0011
0021
FFCE
0004
FFFC
0000
FFD4
0013
0000
001B
FFFE
FFDC
000F
FFDE
0026
000C
FFDD
002F
0002
FFD4
000D
FFE7
001F
0021
0031
0000
FFFB
001A
FFDA
0005
0005
FFD6
FFF8
0024
0024
FFD7
FFD6
FFE8
0026
FFDA
0017
FFD7
000D
FFF1
001E
FFE5
000E
FFE5
0016
0026
FFDA
0026
000A
FFDA
FFF9
FFDD
0015
001B
FFD8
0001
0020
002D
0001
002E
0004
FFF5
0024
FFFF
FFFD
FFFF
0024
0022
FFF6
FFEF
FFFF
0007
FFE5
001E
FFFF
FFEF
FFD8
FFE5
002E
FFEC
FFDE
FFFC
FFEC
FFD0
FFEE
0005
0005
FFF1
FFFB
0030
FFF3
FFE7
FFE6
FFFC
001B
FFE2
0015
FFCF
FFF8
001C
FFEF
0007
FFE2
0019
FFD2
0024
FFE1
0026
FFF1
0017
FFED
002A
FFDA
FFDF
FFFF
FFD5
FFE1
002D
0031
FFF3
002B
0005
FFE8
0015
0010
0032
FFE8
0012
FFD2
FFD8
FFCD
0033
001F
001D
0001
FFEC
FFDC
FFEA
FFF3
001A
0004
FFD5
FFCF
FFD7
FFF7
002C
000E
001F
FFFD
FFF2
FFD8
0026
001D
FFDE
0001
FFFF
000D
002E
0008
0004
FFD2
FFD3
FFE0
FFD0
0019
0017
FFDB
0022
FFDD
FFEC
FFE6
FFF3
FFE7
FFFF
FFF7
0032
FFD3
FFDB
FFD2
000D
FFD2
0022
0001
0003
0006
FFDE
FFE1
FFED
000A
FFE2
FFD9
0030
FFCF
001F
001D
FFEB
FFDB
FFDC
0014
000F
001D
002D
0014
FFDD
FFE6
0023
FFE2
FFD4
0015
FFF6
002B
000F
FFD6
002E
FFE7
FFEF
FFF6
FFD2
0000
FFD9
FFF6
FFF1
001C
001F
FFDD
FFF2
FFF3
FFDC
001F
0015
FFE0
FFF2
FFD8
000D
FFD9
0032
001D
FFF5
0008
002A
0006
FFDF
FFF4
0023
000F
000F
0026
0028
002B
FFD7
0005
0019
001A
000B
FFDE
001E
0017
FFD6
FFFC
FFDF
FFEF
FFCF
FFF6
0005
000C
0011
0022
FFE3
FFD9
0024
FFDD
0031
0023
0000
0031
FFD7
FFEC
000E
FFF1
002C
FFD4
0005
0009
0010
FFE7
FFF2
0023
FFE1
0021
0006
001B
0016
FFE2
0007
0026
FFF9
0030
FFFB
FFDB
FFF5
002E
FFEE
0026
0027
FFF1
FFD5
0017
FFED
001D
FFFA
FFFE
001C
FFF4
FFFA
FFF3
FFF2
0003
0020
FFF2
0002
0011
FFE8
FFE9
002C
0017
0008
000F
FFD0
000C
0001
0005
FFF2
FFD5
FFE1
002E
FFF7
FFFD
FFD2
FFD1
0016
0004
0001
FFE6
0019
FFDE
FFE0
FFFC
FFEA
FFE6
000F
000F
0021
FFF8
FFD4
FFE9
0031
000A
0015
FFCE
0002
FFD1
0007
002B
0030
0004
FFFC
002E
0012
FFD3
FFFC
FFE5
FFFD
FFFB
0008
FFF1
FFDE
0000
0022
0011
FFEF
002D
002A
FFE2
FFD1
0019
0022
0030
0028
000A
0003
FFD0
FFE6
FFFC
000D
0006
0019
FFE9
0007
FFD6
FFF7
001A
0014
0032
FFE9
0000
FFEF
FFFA
0025
0013
0027
FFE2
0026
FFD3
0028
FFEE
FFED
0001
002D
FFD2
FFF1
0025
FFF5
FFE1
FFF8
FFF4
002B
001B
0001
0032
FFFC
FFD3
FFE8
FFF9
FFDD
002E
001B
FFE8
0009
0017
002D
0027
0002
001C
0006
0005
FFD9
FFDA
0003
FFE8
FFCF
0017
FFD0
000A
0004
0030
FFFE
FFD3
0005
0023
0033
FFF9
FFEE
002A
FFE0
000C
FFF6
FFD1
FFF0
FFE8
0013
002E
FFE8
0020
FFD2
0004
FFD4
002C
001B
0010
0021
000F
0030
0016
002B
0002
FFD9
0003
FFDA
0009
FFFE
000D
FFCE
FFE1
FFFF
002E
FFF4
FFF8
0016
000B
FFEB
FFF7
FFE3
0030
FFDA
FFF3
FFCF
FFE4
001D
FFE1
FFD5
FFFD
FFCE
FFD5
0020
001C
002B
0024
0013
FFD2
001D
0023
001F
0001
FFE5
0023
0017
0031
FFDD
FFE4
FFE2
001E
FFE0
FFD4
0033
FFCF
0022
FFF2
0023
0006
0029
002C
FFCE
FFD5
FFE6
0011
0028
FFFC
000B
FFE0
001F
0030
FFE8
FFFF
FFD6
0006
0000
FFDC
FFFA
FFEF
0002
0009
FFCE
001B
0016
FFF2
FFD2
001A
002F
FFE5
FFEE
FFE0
0008
FFDD
FFF1
0014
0006
FFF4
FFF8
0006
FFCD
FFD5
0027
FFD5
0015
002B
FFE9
FFF3
0007
0027
002D
0019
FFD6
0011
FFF7
FFFD
FFD2
FFE0
001E
FFFB
FFEC
FFF4
0024
0019
FFE9
FFD9
FFE7
002B
0008
0003
000A
FFF2
001F
0002
FFD9
FFDA
0004
002D
FFEC
0026
001B
FFE6
FFD1
FFD7
0017
FFE1
FFF3
0000
0017
FFD8
FFF6
FFFE
0004
0021
FFDE
0020
0014
0006
0014
FFF7
FFDB
0011
0003
000E
FFEF
002A
0009
FFD6
FFFB
001A
001E
FFFF
0028
FFE8
FFF7
0029
0029
0013
0025
FFD6
0025
FFEE
FFDF
FFE5
FFF8
FFE7
FFEE
FFDB
FFEB
0007
FFFA
FFF0
0019
0028
001A
FFEF
0019
FFDC
FFDA
FFF0
0020
FFE6
FFD3
FFDA
0025
000E
FFE7
0006
0003
0010
FFE5
0025
FFEC
0014
FFCE
FFF3
FFF1
0004
FFD4
001E
FFE3
0012
001F
0006
0019
0011
FFF1
0020
FFEB
0007
0019
FFF4
FFEC
FFFC
0021
002C
0005
0011
0029
FFD7
FFE5
0015
0021
0025
FFF7
FFD6
FFFA
FFE4
FFEB
001C
FFD5
0022
FFF9
000A
FFD6
FFEF
FFD6
002F
001F
FFFC
FFE4
002C
FFF0
FFDD
0006
002D
FFCD
FFE5
002D
FFDE
FFD8
0007
0025
FFFE
0033
0012
FFD4
0032
FFF7
FFEA
0006
FFEC
FFD6
FFCD
FFFB
0022
0007
0033
FFEA
FFEA
FFDD
FFDE
FFEA
001E
002A
0031
FFE5
0027
FFEE
FFD8
0026
000E
FFDE
FFF9
FFEA
0018
FFFB
0032
FFD2
FFF1
FFFE
0000
FFED
0017
0026
002D
001F
0024
0005
0021
FFEC
FFF6
FFED
FFFD
FFEA
002F
FFED
FFD7
0003
FFD3
FFD8
FFE3
FFFC
FFF9
001F
0019
FFF8
FFEF
FFED
001C
FFD2
FFCE
001E
FFFE
FFDA
FFE5
002C
0025
0015
FFFE
0002
0031
0030
FFE3
0020
FFE1
FFE3
0012
FFF6
002C
FFD6
0001
002B
0029
FFDD
FFF2
000C
FFDD
0030
002A
FFDE
FFD9
FFD6
002A
FFE1
FFF7
FFFB
000A
FFD4
FFE4
002C
002A
001D
FFCF
FFEE
000D
FFE9
002A
000E
FFD4
002A
002F
FFD5
0003
FFEC
FFF5
FFDF
0008
002F
0000
FFD5
000C
FFF0
0024
FFF9
FFE1
FFE0
001C
FFE8
001B
FFE2
FFEE
FFFC
002D
002C
FFE2
FFF1
FFDC
0001
FFFC
0029
002C
FFF4
FFFF
0029
001F
FFCD
FFEE
FFF8
FFE4
FFE1
FFD1
000F
FFE8
FFD2
FFE4
001F
0024
FFFE
FFF7
0031
FFE1
FFE3
FFEB
FFDE
FFF4
002A
000C
FFF7
002C
FFD2
FFE2
0007
000C
FFD1
FFF6
000F
0014
000E
FFEE
FFD6
FFF9
FFDA
002E
FFFD
FFED
001B
0000
FFED
0020
0026
0012
FFD2
0007
001B
FFDB
FFE4
0027
FFCF
001A
FFFD
FFFB
FFCE
0021
FFF2
0004
0012
0015
002F
0003
FFF6
002E
000F
FFEB
FFDA
0023
FFF2
0010
FFFD
FFE1
000A
FFD3
FFF7
0005
FFF9
0019
0022
001C
FFD1
FFE1
0004
002D
0022
0023
FFEC
FFF9
FFFD
FFDD
FFD0
002E
FFE5
FFE5
FFD5
002C
0008
0011
002A
FFF0
000C
FFD1
FFE0
0022
001B
FFF1
FFF3
0003
FFCD
FFE6
FFE2
FFE6
001F
FFE9
FFE0
0000
0025
FFE6
FFD5
FFF1
0019
0005
0020
002F
001E
000B
FFFF
FFD1
0032
FFF4
FFDC
0011
FFEA
0009
0009
FFFA
0022
FFE8
FFFB
0004
0011
001D
FFF5
000F
FFDC
002C
FFF4
0018
FFCF
FFE2
FFFF
0027
0003
002C
FFFE
FFFF
FFD9
001F
FFE6
0029
002A
002D
0002
0012
001D
FFDA
000A
FFD0
0000
FFDD
FFE0
FFF2
FFF9
000D
FFD4
0000
FFE0
0008
000E
0006
0018
FFEF
001B
FFF9
FFFE
000F
FFCF
0010
000C
FFED
FFD6
FFD6
002B
0013
FFDA
FFF1
0009
0022
FFD1
FFE5
0028
FFCE
FFE1
002F
000C
FFE8
FFD4
FFD0
FFE6
0027
FFF7
0017
002B
FFF7
FFE0
0002
002A
001F
FFD4
0014
0007
002A
FFD9
0003
0027
FFF7
FFFE
FFD4
FFE9
FFEE
002E
FFEA
FFFC
0012
FFDD
FFFF
0018
0026
000D
0011
FFDA
002E
FFDA
001C
FFE8
002C
0017
001A
FFE3
FFFA
000C
001C
FFD7
002F
0028
FFE8
0021
0002
FFFC
FFED
0008
0018
FFF7
000D
0014
0016
FFD2
0025
FFFC
FFE8
FFE6
FFFE
0028
FFF4
001A
FFD7
FFFE
0032
001C
FFE2
0000
FFE5
FFF7
001D
001C
FFE4
002B
0009
FFF4
0000
000B
0006
FFFF
0001
FFDF
0020
0004
FFDA
001B
002C
002E
FFF3
FFDB
0002
FFD8
002C
FFE0
FFE7
FFF6
FFF4
001E
FFFC
FFDE
FFE8
0001
FFDC
000B
0007
0016
002D
002A
002E
FFE6
FFDA
FFEC
0028
0030
0025
FFD8
002E
FFF8
FFCE
FFFA
FFD2
0004
FFEF
FFFD
000C
0026
0011
FFF9
0021
002A
FFD9
0003
FFEA
FFD2
0011
0025
FFDD
0020
0024
002A
FFE8
0029
FFEE
0005
FFD2
FFD1
0017
FFFA
FFE7
FFE0
0011
FFCD
001F
FFD5
FFE0
FFF4
FFFE
FFF1
FFEE
0030
000E
FFCF
FFF9
0026
FFEC
FFD6
001A
000B
0007
FFD2
FFDB
000D
FFE2
0000
0005
FFEA
002E
0023
0017
FFD5
FFD8
FFFF
FFDD
0031
FFDD
FFFF
FFF2
000E
FFDA
FFF9
FFE9
0028
FFD1
002A
0022
FFEB
001E
FFD0
0030
0003
FFEC
FFF2
FFD4
0032
FFD1
0010
FFFA
002E
FFE6
0003
FFFE
0015
FFD4
FFE1
FFE3
0018
FFE0
0008
FFE3
0025
002D
0002
FFF1
FFE5
FFD2
FFE8
0010
0003
002D
FFF5
0014
FFFF
0001
FFE8
FFFB
FFFD
0015
002D
FFEF
FFD1
0000
0005
FFDE
001B
0032
002E
FFE1
0026
0015
FFFB
0004
0024
FFFE
FFF3
FFFF
0008
FFE0
0029
0012
000E
FFD7
000B
FFD9
FFD5
0003
FFF6
0009
FFD6
FFF9
FFDF
0032
0006
0013
FFEE
FFD7
0031
FFEA
FFF8
000F
FFCF
0020
0004
FFE9
FFD3
FFDD
0028
0013
FFE6
FFD4
0014
0007
FFF6
FFF2
FFE3
0011
0030
FFDF
000A
FFF8
FFFB
FFE7
0021
FFFE
0004
FFEC
FFDF
FFD6
0016
FFE1
0013
FFF5
FFF7
FFFD
FFF2
FFD7
FFED
0011
0011
FFEA
FFFC
FFE1
FFE2
FFCF
0029
FFE2
FFE4
FFE9
FFDA
000E
FFD4
FFDB
000F
FFF0
0015
0006
FFE7
000F
FFD9
0004
FFFA
FFE8
000B
0026
0033
000B
FFF6
FFE4
FFE7
FFFE
FFF2
002A
FFF3
FFF3
FFF4
0022
000F
000C
FFEF
0021
FFD1
0026
0001
FFF6
0000
0011
FFCE
0026
FFFB
FFF0
FFDB
FFFA
0000
FFF6
0012
FFF8
002F
000A
001F
FFD8
FFF5
FFEF
0007
0025
FFD5
FFD4
0024
FFE3
0011
0004
0022
FFDA
FFDA
0006
002E
FFF7
FFEE
000B
002C
0023
0033
FFCF
FFD8
000B
0021
FFEA
FFE5
001D
FFD3
FFF3
0001
0006
0017
FFF1
000C
0009
0005
000E
FFE7
FFD5
FFD9
FFE4
0000
0023
0015
001E
FFF1
FFF6
FFF5
FFE0
FFD3
0009
0032
FFDE
FFD2
001D
FFE7
0022
0015
002E
FFF7
0011
FFFC
000D
FFFB
FFE0
0001
0003
0020
0018
0011
FFD8
0017
0000
0028
002B
FFD2
0021
FFD1
FFF2
0004
FFDC
0019
FFCE
FFDE
0008
0016
002B
0015
0012
FFF5
FFCD
FFD9
0004
0012
FFF8
0018
0002
FFD4
FFE0
0023
0017
0028
FFD9
0032
FFE2
FFCE
0033
FFEA
0011
FFDF
0008
0029
FFEE
0011
FFE0
000D
FFEF
FFE2
FFED
FFDF
0029
FFF5
FFE6
FFFB
FFEE
0019
0030
FFFA
0025
0007
FFDD
0014
0001
000F
0028
FFFA
0029
001A
FFFF
000B
FFEE
0032
0011
FFD1
FFEE
000D
FFD3
FFCF
FFFB
FFEF
FFFA
FFE8
FFDE
0013
0001
FFE1
FFEE
0009
FFD4
FFDC
FFD4
0020
001A
001A
0016
0011
FFFE
000F
FFD1
000C
001C
0000
FFF1
FFE9
000F
0014
0026
FFF0
001C
0006
0027
0003
0002
0008
001A
0030
FFD4
FFD2
002D
0003
000C
FFFE
FFD6
001B
0019
FFED
FFEC
0023
FFD4
0027
FFE7
000A
002D
0012
FFF7
0013
FFF0
FFE9
0033
001A
000F
FFF1
FFD2
FFD0
0006
001B
0004
0023
FFD0
FFF2
FFE5
FFFB
FFD4
002F
FFE4
002B
FFF8
0032
0006
002C
FFCD
0019
0029
FFDB
FFD7
FFF8
002C
0004
0003
FFDB
FFCD
0020
FFD6
000E
002A
FFE2
0011
FFD5
000B
FFDE
0018
FFEC
FFFC
000A
FFDE
0019
FFEC
0011
FFDD
0013
FFDA
FFF8
FFE6
0019
FFE8
0027
0028
FFE1
000C
FFD6
FFF5
0016
0010
000D
FFEA
FFF4
FFD7
0016
0000
0015
FFE6
FFEE
FFEF
FFCF
FFF0
001F
0029
0002
FFFB
FFD0
0027
FFCE
002E
FFFF
FFF0
002B
FFCF
0008
0005
FFE3
FFF9
0010
0017
FFCD
002D
FFDE
FFE5
FFE8
FFD1
FFD9
0032
FFED
FFD9
FFD8
0016
0024
FFE7
FFCF
FFE4
FFD3
FFD7
FFF9
FFE4
0002
FFE7
002D
002A
0007
FFF1
FFF4
FFF7
0017
FFFB
0025
002D
FFEF
0006
FFD7
FFE1
FFF7
FFE2
0027
FFDD
FFFB
000B
0014
FFF4
0026
0007
FFFA
FFD4
FFFC
0021
000C
0022
FFFF
FFD9
FFCE
FFEC
0014
001E
FFEB
0000
FFF8
FFF7
FFE4
FFDB
FFE1
FFD2
FFE1
FFCE
000D
FFED
0030
FFE1
FFF0
FFF1
FFCE
0023
FFD0
002D
0028
0004
0004
0010
FFF4
000F
FFD1
FFD2
FFFC
0005
0028
FFD8
0021
FFE2
FFF5
FFED
FFF6
FFDC
0000
001F
FFFA
FFFF
0024
0015
FFFF
FFE7
0027
0008
FFE3
FFE8
001F
FFD1
0032
FFDA
001E
FFF5
FFFF
0027
FFF7
0004
FFD2
FFCD
FFE6
0012
FFD9
FFD8
FFF7
000F
0016
FFDF
FFD5
002D
FFE7
0024
0025
001C
FFDE
0021
001C
000A
FFEF
FFE8
FFD9
0001
0009
FFF2
FFFD
FFF2
000E
0029
FFDE
FFF4
FFDB
000D
0017
002C
FFE9
002E
FFD3
000B
FFD3
0028
0003
0011
0022
FFDC
FFD1
0027
FFED
FFDA
FFFD
000A
FFD0
FFE9
FFD0
FFF8
0028
0031
000E
FFDD
002A
0002
FFDD
002B
001A
0018
0015
FFE1
FFE2
0013
FFE3
FFFA
001D
001D
FFFB
001E
0023
0010
FFE4
FFE9
FFED
FFD9
FFE9
FFE2
FFFB
002A
FFD7
0017
0013
FFD7
002B
0007
FFF2
001A
FFE7
0014
FFD1
0023
FFFB
000E
FFE3
0012
001C
FFFD
000C
FFFC
0028
0000
0023
001F
FFF7
FFE4
FFF6
0021
FFE4
0003
001F
FFF1
000F
FFE6
FFD8
001E
FFD7
FFE9
0024
FFF0
0030
0031
FFE8
FFD1
0015
FFFB
FFD7
0015
FFD0
0026
FFDB
FFDA
FFDF
002F
0014
001F
FFF6
FFEF
FFE5
FFFE
0005
000D
FFE7
002E
FFDE
0030
FFCE
FFFE
FFEF
FFFB
0007
FFF9
FFF7
0018
0013
0022
FFE6
000B
0009
FFF3
FFFF
FFED
FFDB
FFE3
FFD8
0013
0010
002E
0018
FFD2
0027
0025
FFFA
0009
0031
0003
002A
FFD5
FFE0
FFFA
0009
0020
0032
FFF5
FFD2
001F
000B
FFE1
FFFF
0019
001C
0000
FFEC
0031
0011
FFF7
FFEA
0018
FFE6
FFDE
0003
FFEA
000D
FFD9
0010
FFEA
FFCD
FFDA
002C
0026
FFE5
001D
000B
0030
FFF3
0013
FFD3
FFF5
002F
0004
FFEA
FFD9
0015
000F
FFF3
002E
FFCF
FFEC
002B
FFEE
FFE7
0004
0021
FFD7
002D
001E
FFDF
0016
FFF4
FFF6
001D
002F
FFDA
FFF8
FFFE
FFF3
FFF2
FFD2
0013
FFF9
FFE1
0020
001F
FFFF
FFEB
000E
FFEA
FFE5
0018
FFD1
FFD7
FFCD
FFDC
FFD4
0033
FFEA
FFDC
FFE5
002D
0002
FFF2
0026
FFF5
