FFEF
FFE2
FFF3
FFED
0012
FFEA
0008
FFD4
FFE0
FFF7
002D
FFF3
0011
FFE7
FFDA
FFD3
FFEC
FFDD
FFDF
001B
FFCE
0006
FFF4
0001
0006
FFED
FFEB
0018
0026
FFE1
FFD7
0029
FFF1
0005
FFF2
FFDA
0009
0003
FFE2
FFFB
001E
0009
FFD7
0005
0015
001E
000D
FFDC
0016
0012
FFCF
FFF7
FFEF
0011
FFE3
0009
002A
001E
002B
0031
FFCE
000D
FFF7
0025
FFE7
0031
000C
001E
FFD6
FFE0
001A
FFCF
0020
FFCE
0010
FFF2
000B
0014
FFF0
FFD8
FFD4
0009
0002
0019
0001
FFF8
FFF6
FFD0
FFEF
0031
0026
FFEF
0009
0024
FFFA
FFCF
FFD4
0001
0030
0014
FFD4
FFE0
001C
0023
000C
000F
FFD0
0022
001E
FFE7
0015
FFE3
FFD1
FFE1
FFDF
FFEF
FFF8
0001
FFFE
FFE9
FFD0
000B
FFF5
FFEB
0026
0019
0025
FFFF
FFDA
0014
FFE2
FFFA
FFD3
0021
FFDA
0029
0025
FFFC
0019
000C
001F
FFF9
001D
FFFC
002D
FFFF
FFFC
001D
0021
0006
FFDF
FFFD
0030
001A
0020
FFD0
FFFD
000F
0022
FFD2
0024
0005
FFE1
FFED
FFEA
0003
FFD2
FFDD
0020
FFDA
FFE5
FFFB
0002
001B
FFFB
001E
000C
FFD8
FFDD
FFFA
FFF5
0019
0008
FFF5
FFDE
FFE4
0008
FFF8
0002
FFDE
0011
0024
FFE7
FFFF
0031
FFEF
000A
FFD6
000B
FFD6
002F
0016
001E
0015
0009
FFFB
0025
002F
0000
002C
0009
0004
FFFB
FFE2
FFCD
FFE6
0001
FFF4
FFFB
0031
FFF1
FFFB
FFDA
FFD2
001C
0007
001B
FFDC
0007
FFE7
FFE4
FFCE
FFDA
FFEC
FFD9
0032
FFEC
FFDA
FFE1
0009
FFD3
0025
002F
FFE6
FFFB
FFCF
000E
FFF7
FFE8
FFE2
0010
FFF7
FFDF
0013
0007
0025
FFD9
001D
0012
FFD9
0014
FFFA
002E
FFDB
000F
FFF4
002F
FFEF
002F
0029
FFE8
001F
0033
FFE7
FFFA
0002
FFEB
FFCE
FFE3
FFEA
FFFA
FFDE
0026
0015
FFD6
000F
0010
002F
FFCD
FFE6
002C
002C
0017
001B
FFD6
0001
FFE5
FFDF
0020
FFDB
FFFD
002D
FFE0
0031
0033
0006
FFDE
FFED
FFF8
FFEC
FFEA
0030
FFDD
0018
FFCD
000A
002B
FFEA
FFE0
0010
0016
0013
FFED
FFE7
002F
002B
FFFC
0023
FFFB
FFF8
FFDD
FFF8
0004
FFCF
FFFA
001D
0012
000E
002A
FFCF
0006
001D
0004
FFEE
FFDB
0028
FFFD
0027
0009
0012
001F
0010
FFF6
0001
001F
FFF3
FFF5
FFD7
002A
FFD6
000F
FFF7
FFF6
0012
FFD4
000A
001C
0022
FFDE
0029
0010
0027
FFFE
0004
002B
0029
FFFB
FFE9
FFF5
FFF5
FFEA
FFE8
0025
FFD4
0012
FFDE
FFF0
FFD3
FFE8
001B
0027
FFE3
FFFC
FFFD
0026
001B
0001
0011
0024
FFCE
FFF6
002A
0019
0004
0003
FFF0
0002
0010
FFF8
0016
0025
FFDD
FFFB
FFF7
0013
FFE6
000E
0027
FFF8
002A
0032
FFD8
FFE5
002E
002F
FFD7
FFCE
FFDD
0033
FFDF
0000
0024
FFCF
000B
FFE9
0025
FFEA
0013
0012
FFE3
FFD0
FFF7
FFEA
0020
001F
FFFC
000B
000B
0022
FFF8
FFE9
FFE8
0004
FFFB
FFFA
FFD6
0016
FFE3
FFE1
FFF7
FFE4
0009
FFF3
FFFB
0004
FFE2
FFDD
0027
FFF9
FFF7
FFD0
0000
0006
0006
0015
FFDF
FFE7
0020
002E
FFDB
0000
FFE3
FFD3
FFEE
FFDC
0015
0003
FFDC
FFCE
0020
FFDF
000B
FFEF
0009
FFED
FFD6
FFE4
FFE0
FFF9
0010
FFE8
FFCE
0002
000B
002F
0009
FFFD
0008
002C
0022
FFEE
FFE5
FFE8
0000
0019
0000
FFD4
0017
001F
FFEA
0011
FFF8
0028
0023
0003
0014
0027
0000
FFED
001A
FFE3
FFF5
0025
0017
FFF6
FFE3
FFF1
FFEA
FFDF
0019
FFE7
FFFB
FFF4
0031
FFF5
FFD5
FFD6
0009
000A
FFF8
FFF9
FFD2
0002
0000
FFDC
FFD7
FFD9
FFD7
000B
FFE1
FFE7
FFDF
002F
0024
FFE4
FFEE
FFE2
FFFF
FFCF
0012
0002
0029
FFDE
001F
001E
FFDA
FFF6
FFDE
FFE7
FFE8
0006
FFF7
002E
FFDA
0031
FFE4
001C
FFF0
FFDB
0025
FFEC
0010
0007
FFFD
0000
0018
FFD6
0011
0029
FFD3
FFDB
0016
FFFA
FFF6
FFDB
0001
FFDA
FFFE
001B
FFE7
FFFE
0032
0013
0023
FFF7
001B
FFD1
FFD9
FFE2
FFF6
0023
FFF0
0010
0015
0009
FFF1
0008
FFF0
FFD5
0032
FFDA
FFD4
0027
FFEC
000F
FFEE
FFF5
FFE8
FFF0
FFF7
0017
0001
002D
FFD1
0000
0009
002B
FFD2
0008
0024
FFE6
0027
FFCF
0018
002C
0010
FFFA
FFD1
002B
FFFD
FFD0
0013
FFFE
FFDA
FFE3
FFD3
0008
000C
0001
0020
0025
000C
FFCE
0014
FFF8
0007
000F
FFF1
002B
FFDB
0012
FFCD
002B
FFD8
FFD7
FFEF
FFF3
FFE3
0009
FFFA
FFD0
FFEE
0020
0013
0017
0014
FFED
FFD7
FFE9
0022
0031
FFFF
FFCE
FFDB
FFEE
0008
FFD4
002D
FFF2
002A
001D
001A
000B
000D
000E
000D
0006
0032
0018
001C
0026
FFE3
FFD5
FFFE
0001
0022
FFFA
0007
0003
FFD1
000C
0022
FFDD
000A
000A
FFDE
FFD9
0031
FFF5
FFE4
FFDE
0011
000B
000F
FFD6
0028
FFF5
FFED
FFFC
FFF5
0025
002C
FFEC
0025
001D
002C
FFE6
0008
FFE9
0021
FFCD
0007
FFF0
FFEE
000F
0024
000B
0024
FFE8
0002
FFFB
FFCE
0006
0011
0009
0018
0007
FFD4
FFD9
000A
FFE9
FFD5
FFF9
0006
FFEE
0017
000F
FFEF
001A
000F
000E
0005
FFCE
0014
FFF3
002D
0021
0009
FFE7
FFE2
FFF0
FFFE
FFEB
0002
FFDE
0031
FFD8
002C
002A
0003
0017
FFF9
000D
FFF0
FFEC
0008
0000
0008
FFEA
FFF2
FFD5
FFD2
FFE7
FFD4
FFD7
0020
FFD1
0010
FFE9
0026
FFFE
FFEC
0002
FFF4
0007
FFD9
0033
FFF8
FFF0
0016
FFF2
0022
FFFB
0016
FFD8
0023
0018
FFE2
FFDC
FFED
0031
FFE7
FFFC
FFD0
FFF5
0007
002E
0002
0021
0005
FFD1
FFED
0008
002E
0025
FFE4
FFE3
FFE1
002B
0024
001C
FFF5
0000
FFFC
FFE7
0001
FFD0
FFDA
0028
001A
FFF8
0002
FFF3
0019
001D
001B
0017
FFE2
FFEF
FFFD
FFEF
001A
FFEF
FFDB
FFF6
0031
FFE4
000B
FFF9
FFD4
FFFF
0015
0001
0026
FFEA
FFD6
002D
FFF4
0008
001E
FFEE
0016
FFDB
FFEB
FFDC
0020
FFE4
0016
002D
0003
0004
FFFC
FFEE
FFFE
000B
0032
002D
0025
0028
FFFD
0010
0028
FFF5
002F
FFF7
000A
0015
002E
FFE6
0019
0002
FFE8
001C
0005
0010
FFEE
FFFE
000C
FFF6
FFE1
002F
0001
0018
FFF7
FFF1
FFF6
FFF7
0005
0004
0000
FFDB
0000
FFDE
FFDA
002C
000B
0010
FFF6
002A
000E
001C
FFF3
002F
0021
0024
FFDE
FFE9
FFEA
FFE9
0024
FFD0
FFD5
FFE9
FFE1
FFE5
001F
0006
FFCD
FFF9
FFF7
FFD8
0012
0015
0017
0017
FFCD
002E
0020
0029
FFCE
002C
0020
0023
FFD6
0018
002F
0012
0007
002E
FFFA
000A
FFFE
002C
FFD5
0000
0013
001E
0009
002A
002D
FFD3
FFF6
FFCF
FFEF
0004
002A
0023
FFDA
FFD6
0009
0003
FFE8
0029
002C
FFF6
0028
FFF4
0018
FFFE
FFD9
002C
FFFB
0018
FFF2
FFCF
FFD7
0000
0013
FFEF
0014
0014
0015
FFFF
002A
FFFF
FFFB
FFE1
FFEC
FFD1
000E
FFE6
FFEC
001C
FFEE
FFE6
FFDE
001C
FFDA
FFFB
0001
0013
000E
0020
FFD1
FFEB
FFE9
FFDC
FFEA
FFED
0002
0011
FFF4
0016
FFEF
FFEB
0004
FFCF
FFD5
FFF8
002D
0017
FFD6
0023
0018
000B
0021
FFF6
FFE3
0001
0005
0004
0007
002E
0029
0026
001F
002D
FFD7
FFE8
FFFF
0023
0001
0019
FFDB
FFE7
0018
FFDE
FFF1
FFE8
FFF1
0015
FFF2
0006
FFD7
001F
FFF3
000F
0017
FFE2
0027
000C
FFF9
FFDF
002D
001A
FFE2
FFEF
0020
0014
001B
FFFA
0016
FFF4
FFE2
000E
0031
FFED
FFFC
0012
0004
0023
001B
FFD3
0033
001A
0025
000F
0024
FFD8
FFF0
0027
FFE1
FFD5
001E
0022
FFDD
0024
0013
0002
0022
FFF8
FFE1
FFEA
0001
0003
001F
001E
0008
001D
FFE0
FFD2
0026
FFD5
FFE6
0014
FFF7
0027
FFEB
FFCE
FFEC
0008
FFF3
0004
0027
002A
FFE8
FFFC
0005
002E
0033
FFE5
0017
FFF4
FFCE
FFCE
FFFC
FFFF
FFCF
0013
FFEB
0006
FFEC
FFDE
FFF6
FFE5
0004
FFE1
0001
FFDD
0012
001A
FFD8
FFFD
FFD4
000A
FFE8
0003
0002
002B
0005
0008
FFF6
002E
001C
FFEA
0023
FFF9
0022
0021
FFE0
0015
FFEB
FFEB
FFEB
0017
FFE4
FFCD
0016
FFDE
FFD7
FFE5
FFF4
FFFE
FFD1
0030
0016
FFEE
FFED
FFFB
000D
FFDC
FFE0
0025
FFE7
FFF4
0026
0011
FFF0
0013
FFCF
0018
FFFF
0020
002F
002C
002A
0001
FFF2
FFFC
0013
0027
FFE2
002B
0020
0031
0027
FFE9
FFD8
FFD8
FFEB
000C
001F
0029
000D
FFCD
FFE0
FFD7
FFF2
0000
FFD1
FFF0
FFDF
000F
FFFC
0000
FFF9
002F
FFE3
0002
0018
0006
002C
FFF4
FFFC
FFD6
000B
FFEA
FFDD
0005
0003
FFD5
0014
000D
FFE0
FFFD
0017
0003
FFF5
FFEE
000B
002D
0012
FFD4
FFFC
0028
FFD6
0032
002E
FFD5
002C
FFF2
0023
FFF8
FFFA
000E
001C
FFD0
000A
FFE0
FFF0
FFF0
FFFD
FFEF
FFD8
FFDC
FFD0
FFFD
002F
FFD9
002E
0018
000E
000F
0021
FFD8
0000
0014
0009
0022
FFD4
0014
0003
FFF4
FFF0
000C
0028
0000
0021
FFF6
FFD7
FFD3
FFD2
FFF4
FFEF
0016
0019
FFD2
FFE3
FFE9
0005
FFDC
FFDB
002D
001F
FFDF
FFF6
FFF1
001E
0001
FFDA
0018
FFF5
FFE8
FFF3
0000
FFF0
FFE6
FFF6
FFCF
001C
FFDE
FFD1
0010
001C
0020
FFFF
FFE2
0018
0014
FFE6
0029
FFD7
0031
0025
0013
002D
0017
FFE0
FFFA
FFD4
FFF5
0019
FFF4
FFEF
000A
0026
FFD2
FFF4
FFDD
0014
FFD8
0011
FFEA
FFE1
002D
FFCF
FFFA
FFCF
FFFE
0000
FFEE
FFDA
FFF3
0012
001D
0003
0009
FFE1
FFEA
FFDD
FFE6
FFE4
0002
0006
002E
FFE1
000F
0020
0006
FFE7
FFE8
FFD1
FFEC
0019
FFD2
FFE3
0015
001D
FFFB
0014
FFF5
FFDD
FFF6
0008
002E
FFD4
0001
FFEE
0001
FFCF
FFED
0021
0006
FFFB
FFEA
FFEB
FFF4
0022
0030
FFFA
FFF5
0023
FFF9
0005
FFE4
0019
0003
0020
001D
FFE3
0016
001F
FFF0
FFDE
FFCD
FFFB
FFF1
0006
FFE0
0025
FFE7
FFE4
FFFE
0000
FFE3
FFE9
FFDE
0016
001C
FFFC
0016
0018
FFDB
0030
0021
FFE2
FFE0
FFDA
FFDB
0019
FFFD
001D
0019
000B
0013
FFCF
FFED
000E
FFCE
FFD0
0024
0013
FFE8
0013
001E
FFEC
FFD0
002C
FFF0
FFD8
FFFF
001B
FFE3
FFE8
FFE6
0032
FFE1
0008
002C
FFDC
0030
002E
0027
FFE3
000E
001B
0032
FFDF
001B
FFEF
FFDF
FFF8
001E
FFFC
0004
0033
FFF6
000C
FFF2
FFF5
0014
002D
0004
001B
FFD6
FFE2
0000
FFCF
FFE7
0002
FFCE
FFE8
0001
0007
002C
000F
FFF7
002C
001D
FFE1
FFDA
0012
0006
001E
0018
000D
0032
0003
FFD8
0022
FFE7
001C
002F
0014
000A
FFFC
FFF2
FFF1
000E
001A
0012
FFE1
FFFF
001E
FFFE
0004
001C
0011
FFF7
0028
FFDD
0033
FFD9
FFCE
0028
FFE6
0018
0020
0025
0032
FFEB
0016
FFD9
FFF6
0024
FFF2
0009
0000
000F
0030
FFD3
0008
0025
FFFE
FFD5
0006
FFEF
FFDD
0024
0002
002C
001F
0014
FFCD
FFF9
FFE1
002A
FFDF
FFEA
0002
FFE8
FFE2
000A
FFD6
FFD3
FFF3
0017
0006
FFF8
0007
FFF2
002D
FFD2
0012
0028
001F
FFE0
FFEB
0016
FFD5
0020
0016
0018
FFD7
0016
0012
0022
FFD1
FFCF
FFF3
FFDC
0006
002B
FFF5
0023
FFCD
FFDE
FFD0
FFEE
002A
FFD7
000B
FFFB
002D
FFD9
FFE3
FFD0
FFF9
FFE9
0026
000B
000C
0003
FFD6
FFFA
0033
0022
0028
0021
FFD7
FFE4
FFCD
FFEC
FFD8
FFFD
0012
0026
001A
002D
FFD2
FFCE
0011
FFEA
FFE7
FFEF
FFE8
0001
FFFA
0001
0012
FFF4
FFE7
FFDE
FFF1
0019
001A
0011
FFE5
0009
0007
FFFE
0005
FFFF
0007
0016
FFD8
001A
FFDB
FFD4
0031
002F
FFD3
FFFA
FFE0
FFFE
0022
002E
000E
FFF1
000B
FFED
002A
0026
0006
FFEE
FFEB
FFD0
0020
FFFB
FFEE
FFFD
0021
FFDA
0025
0029
002E
FFF6
FFE3
FFF3
FFEF
FFDF
000B
FFFE
0025
FFD0
000F
001B
001B
0028
0017
002C
FFEF
0000
FFCE
FFCE
FFE5
FFD7
FFE7
FFDF
FFD0
002A
FFCE
0018
FFDC
002A
0028
0010
0012
FFCD
0032
0027
0028
0010
FFF0
0028
FFEB
0006
FFD7
002B
FFDB
FFE4
0006
001B
000C
FFE5
FFCD
001A
0032
0020
FFFC
0029
FFF7
0003
FFFE
FFFB
001C
0003
FFED
FFE7
FFD1
0009
FFE4
FFDC
0010
0013
001A
0000
0028
002D
001F
000E
FFEC
0031
FFE9
FFE2
FFFA
FFD3
0031
0009
0006
0010
0000
FFD0
000C
0016
FFF7
001A
FFE4
FFE3
FFDD
FFF3
0024
0022
FFF4
0009
0017
FFE5
FFDE
0030
000C
0031
FFEF
0015
FFE4
FFE8
0001
FFEE
FFDE
FFE8
FFD0
0015
FFFF
FFD6
FFDE
FFD7
000C
FFD6
001A
FFCF
FFE6
0028
0016
FFD4
0021
FFFF
0024
000A
0013
0033
FFE5
000D
FFFC
FFD1
FFCE
FFD9
000F
0007
0005
FFD0
FFFD
002B
FFF6
000D
001D
001D
0002
0025
FFF5
0028
FFE5
FFE9
FFD2
001E
FFF8
FFE4
FFE5
0029
0022
0005
000C
FFFD
FFF5
002B
FFDA
FFF8
FFF0
0000
FFFC
0002
FFDB
0001
FFE6
FFE0
FFD3
001B
FFF9
000D
0017
0012
FFFD
FFF5
FFF3
000E
FFFF
0024
0026
FFDE
FFDB
000D
FFEC
FFCF
0028
FFE4
002C
0016
001B
FFE1
FFE5
0002
FFDE
FFEC
FFEE
FFDD
FFE2
001E
FFDE
FFD0
000D
0031
FFEF
FFD9
0007
002A
001D
000D
FFED
0004
FFD6
0012
0017
0030
FFE7
FFCF
0005
0015
001E
FFE1
FFE8
0001
FFEF
0025
FFFD
001F
0008
001C
FFEF
0022
FFE9
0005
FFE3
FFFD
FFED
FFE8
0030
FFDD
001D
0032
FFCF
0014
FFE7
FFD1
FFF6
002D
FFCE
0009
0000
0026
FFD5
0013
0012
0011
002D
0021
FFD1
FFFD
FFF6
FFED
FFFB
FFF4
FFF9
0031
FFD6
002B
FFFE
000D
0022
FFF2
FFF9
FFF7
FFF3
002C
0022
FFD8
FFD8
FFF9
FFD7
000C
FFDC
0002
FFCE
FFED
0012
FFFE
0031
0026
FFF2
FFD1
0023
002A
0021
FFDA
0033
FFE7
0017
002A
FFE5
002A
FFEC
0031
FFEA
002E
FFD2
0015
0003
FFFE
FFE4
0015
FFE0
0005
FFE7
002F
FFD0
FFE1
FFE6
FFF7
FFE5
FFFF
0026
0016
0008
FFD6
0014
FFDE
001D
FFE6
FFF8
FFF1
0025
FFDA
0007
FFDB
0015
0029
FFF9
FFFF
002C
0002
FFFF
0008
0013
FFD8
0021
FFF9
FFD4
001D
FFF3
FFD7
000E
0027
0028
002F
0026
FFCD
FFF4
0021
FFF2
000A
000B
FFF2
0029
0000
FFFC
0033
FFFF
FFDF
0001
0020
001C
001E
0015
FFE7
0025
0028
FFE1
FFDA
0031
0026
0028
0028
0004
000F
0005
FFD2
0019
0001
000F
0000
FFFF
FFDE
FFE9
FFDD
FFE1
0030
FFDC
FFE8
0009
000B
FFDD
001E
001D
FFE5
FFEA
002D
0021
0014
FFD5
FFF8
0006
FFE0
FFFB
000A
FFEE
001D
0023
FFEE
0023
FFD7
0023
FFDC
FFD5
000F
FFFD
002A
FFF2
FFEA
0000
FFFB
FFF0
0014
001B
0024
0030
FFE8
0016
FFF5
0012
FFFE
0033
0017
002E
0022
0029
0020
FFFC
FFE7
FFF3
FFCF
0002
0001
0003
0031
002A
FFDD
FFF3
FFF8
FFF2
001F
0002
0007
0024
001F
FFDA
0016
FFF9
FFEB
FFD2
FFFF
FFF1
FFE7
0014
001C
FFE6
FFD2
0024
FFCE
002D
000D
FFEE
FFE6
FFCE
FFE5
FFDB
000B
FFDE
0003
0009
FFEB
FFD0
FFD1
FFCF
0018
FFED
001E
FFF9
FFFB
0001
0016
FFE9
FFD9
0006
FFEE
FFFA
000F
FFFF
000C
0005
0019
0015
0004
0012
0026
FFF9
FFF7
001B
0008
FFD4
0028
FFD0
0019
001B
002E
FFD2
000A
FFF9
FFEF
FFD6
0006
FFFE
FFD8
000C
0018
001B
002A
FFF7
002E
0025
FFEB
FFDD
FFF9
FFF6
0008
0009
001A
0001
FFD8
0025
FFED
0030
FFD9
002F
FFD6
FFE4
FFD2
0015
0024
FFF9
002C
0009
000D
0023
FFEB
FFF1
002A
0029
0031
0029
FFDA
0021
FFF7
0032
FFFD
0006
0003
FFEE
FFD4
0029
001F
FFDB
001C
000D
FFF7
FFE7
0025
0014
0005
000B
FFD6
FFFD
FFE1
FFE2
0011
002A
FFF6
FFE2
000F
0026
0019
0026
0004
001A
FFDB
FFF0
FFF5
0001
002C
0026
FFDB
FFDE
FFF1
FFEB
000C
0029
002F
0010
0023
0003
FFE2
0003
0006
0019
FFE3
FFF3
FFF2
002F
FFFA
001A
001A
FFE8
0007
0028
FFFD
002E
FFE3
FFD4
0028
0024
0032
0012
002D
0021
0023
0007
FFF4
002C
FFF9
0004
FFFA
0007
FFFD
FFD2
0027
FFFA
0009
FFDB
FFCD
FFE6
0015
FFD7
002A
FFE3
FFE2
FFDF
FFCE
001C
0026
000C
FFE0
FFEA
FFFE
002F
FFE6
0018
FFFA
FFEB
FFFB
FFD4
001F
FFE6
0017
FFD4
002F
FFE1
0027
0020
0030
FFFE
0017
FFF3
FFE0
FFFA
FFDE
0031
FFD7
0009
000D
0004
0011
FFD9
0006
FFEA
002D
001B
0030
FFD1
FFEA
FFE1
FFCE
FFE6
0012
FFE4
0001
0028
0014
FFF5
FFF3
FFFB
FFDF
000E
FFF2
0024
001A
000B
FFF2
FFE2
001C
FFFF
FFE4
FFE1
FFDE
001C
FFE4
0003
FFFB
0008
0027
0026
FFFB
FFCE
FFF8
000B
0006
000F
FFDD
000F
FFE0
001A
FFF0
0015
FFD2
FFF7
0015
FFE4
001E
000D
0009
FFF1
FFFE
000A
FFFD
0014
FFF9
FFE2
FFE3
FFCD
FFEC
0019
001E
FFE2
002F
0000
002B
0015
0017
FFD6
FFE3
FFCE
0016
FFF0
001D
FFF0
0021
FFDA
FFDF
FFF0
FFF7
FFF1
001B
FFD7
FFF1
0023
FFD4
002D
0032
FFD6
FFEB
FFF3
001C
000A
000F
001A
FFD9
0022
0015
0008
0028
0015
FFE1
FFF9
FFFF
FFD2
002F
FFDA
0014
0001
FFCF
002B
0024
0002
FFE4
FFD9
FFF2
FFE7
0001
0030
0008
0028
000F
FFFD
0024
FFFD
0026
FFEB
FFDA
0024
0009
0028
002D
FFD2
0000
FFF3
000D
001E
FFEA
0006
0015
FFDB
0020
000B
002E
FFF0
FFD8
0001
FFD6
0030
FFD1
001A
0003
FFF3
FFD4
000D
0009
FFEA
002A
FFEC
FFFB
0004
FFD7
002C
FFF3
FFD5
FFF4
000A
0001
0014
FFD2
FFEA
0021
FFD5
0024
FFD6
0022
FFF2
000B
FFDC
FFD4
FFE3
FFDA
FFED
0001
0009
001E
0010
000B
FFF7
FFFD
FFF7
0023
FFE4
FFCD
000F
FFE2
0028
0025
FFD5
FFD8
0000
000B
FFE9
0016
000A
FFEE
FFCF
001A
FFE3
0022
FFF8
0008
0026
0025
FFF3
FFE2
001C
FFF9
FFE0
0029
FFE1
FFCF
FFCF
000D
0011
FFED
FFEE
FFF0
0012
FFD3
002C
FFE4
0033
FFDE
001C
FFE4
FFD5
0026
0025
FFF6
0015
0006
0024
FFED
0002
FFFF
FFF1
0028
FFDE
FFDC
0008
0010
FFE1
FFF5
002E
FFE6
0011
0019
FFFB
002D
0018
FFFC
0007
0014
0009
0027
FFF1
FFEC
FFE3
FFD1
FFD1
0026
0012
0010
000C
0024
FFFE
0026
FFF2
002C
0014
FFE7
0007
0003
FFDB
0009
FFED
FFD2
002E
000E
0027
0012
FFF1
0001
0012
002F
FFE7
0026
002B
0011
002C
FFF6
002E
0015
FFD1
002A
FFFE
FFFC
0007
FFDC
FFFD
0022
FFCE
FFE9
FFCD
FFF7
0017
001F
002E
000B
FFE7
002B
001C
0008
0014
002B
0016
FFF3
0016
FFD1
FFF4
FFF6
FFDE
FFCF
FFDA
0010
001F
0032
FFF0
000A
002D
FFDE
0016
001A
FFD6
0025
0020
FFD0
FFD6
FFD2
FFEF
0001
0003
FFE8
002A
FFF3
FFD1
FFEC
0003
FFF7
FFE9
FFDA
0021
0033
FFEF
FFF4
000C
0016
FFF5
0029
0006
FFFB
000F
002E
001E
FFD1
FFEF
FFFD
FFED
0014
0021
0018
0032
FFE9
0026
001B
FFF2
0018
FFD7
001E
0003
FFEB
0010
000F
FFE2
FFD0
FFF9
0007
0027
002C
0003
001A
FFFA
0019
FFE2
FFF3
000E
FFCF
0017
0022
FFF6
FFFB
0024
001C
FFEA
FFEE
0012
0006
FFDD
FFED
0029
0013
0032
001B
002D
FFE3
001C
FFCF
0011
FFFD
FFF0
0025
0024
FFCF
000B
FFF2
FFF7
0022
FFED
002D
FFDF
0011
0012
FFE7
FFEE
0022
001B
FFEE
0003
FFD3
FFE2
FFFF
FFD6
0023
0016
002D
0014
002D
0006
000A
0031
000F
FFD0
0017
002A
001E
0009
0012
0032
FFD6
0011
FFEA
000E
000B
FFDD
FFE2
000C
FFDA
FFE8
0022
FFEE
FFFF
002D
FFE4
FFF5
000B
001A
0029
002B
001C
FFE4
FFCF
FFF4
FFDB
0016
0010
FFD1
0022
FFE6
FFF9
0011
FFF9
FFFA
FFD4
FFF6
001B
002B
FFF7
FFF8
0015
002D
FFE8
FFFA
001E
000B
FFD8
000D
FFE0
0001
0003
0027
FFFC
FFE9
FFE4
0026
FFDE
FFF8
FFE0
001C
FFFD
FFF1
FFF2
0024
0006
0016
0029
0029
FFEE
002E
FFCF
FFF3
0029
FFE9
FFE9
FFEC
000C
FFFA
0017
0028
0012
FFE2
002C
FFE8
FFDC
FFD6
0006
FFD8
FFDB
FFEC
FFEA
000B
0020
001B
FFE8
FFE6
0030
FFCE
0027
FFE1
002E
FFF0
FFFA
0015
0009
FFED
0006
0018
FFD1
FFCE
FFFC
FFDA
0011
FFE3
FFF9
FFE1
0005
FFD9
FFCF
FFD2
002F
FFDB
0015
FFD4
FFD8
0001
FFFC
002E
002E
001D
000A
FFFB
FFF1
002E
000B
0008
FFE5
FFD2
002E
FFED
FFFA
FFD9
0023
FFD0
0022
FFDB
0028
0018
FFDE
0007
FFED
FFDF
0025
FFF6
FFF6
FFDE
FFF4
0026
FFF2
002E
002E
FFDC
FFDF
0025
FFF5
FFCD
FFE9
000A
001F
FFDA
FFD8
002B
001A
0009
001C
FFF9
001A
FFF3
FFE6
0017
FFF8
0031
FFF1
002B
002C
FFE6
001F
FFF9
002B
FFFB
0019
FFFD
FFE4
FFE1
FFF8
001A
000B
0013
FFEA
FFFE
FFD1
0021
0032
FFF6
FFCE
FFDE
0010
000B
001D
FFE7
001B
0013
FFEE
0005
FFDC
FFFB
0027
FFF8
0023
0009
FFE0
0008
0001
FFF6
FFD9
FFF7
FFD4
FFD7
FFF7
FFEC
002C
FFF3
001A
0003
0015
FFE7
002D
0003
0022
FFF2
FFD7
0012
FFCE
FFFD
FFE1
000D
0031
FFFC
0021
0001
0000
002C
0028
001D
FFEB
0005
FFE4
FFFA
FFFE
0022
0029
FFF7
FFCF
0025
FFDF
000C
FFCF
FFF6
0032
FFD7
FFF8
FFEC
0029
0026
FFE5
FFD5
000D
FFEF
0012
FFD0
FFDA
0013
FFE3
0025
FFD3
FFE3
0033
FFF9
0015
FFE0
000B
0017
FFED
0022
000B
FFF5
0006
0008
FFDE
FFF6
FFF0
FFF6
001B
FFFE
002D
FFEB
FFF7
001D
0005
0005
FFD2
FFF6
FFE9
0033
FFEC
0027
0012
FFF0
0004
0023
0027
FFDD
FFF0
FFEF
FFD1
000A
0024
FFF4
0019
000D
FFF3
FFDB
0015
0024
0013
FFCF
FFE3
FFD4
0007
001A
FFD8
0023
0006
0013
0030
FFD5
0029
FFDA
FFF5
0024
002A
0001
000A
0015
0022
FFD9
0020
FFFE
FFFB
FFF8
0001
002E
0005
002E
FFDF
0017
0020
0012
000B
0007
0025
0021
FFD9
0024
FFF7
FFE7
0026
FFF9
0020
FFE8
FFCD
0000
FFD7
001A
FFE9
FFFA
FFD6
FFEA
001D
FFDC
000F
002B
0012
0020
FFD8
FFE6
0028
0016
000E
0011
FFF7
FFD1
001D
0012
FFFD
0029
FFEF
FFEB
0026
001E
0002
FFDA
FFE3
0010
FFF4
0022
002E
001F
FFF3
001E
FFF1
FFDE
FFD0
FFF4
0029
FFE5
FFE2
0030
FFCF
001D
FFEE
FFD1
002B
FFDB
0005
FFE9
FFD3
FFD2
FFD9
FFD4
001B
FFFF
FFF0
FFF8
002C
002A
0016
0027
FFEE
FFF4
000C
000D
FFFE
FFF6
0032
0021
FFF9
0017
FFE8
FFD7
FFF1
FFF6
FFCE
0020
FFF2
0008
FFD4
FFDF
0028
000B
002E
0033
FFF3
FFEB
0025
0033
000D
001E
001D
FFF1
0008
0022
0013
FFCF
FFEF
FFDC
FFE5
002A
FFD1
FFE3
FFEC
000C
0003
FFE3
FFDE
FFE5
0000
FFE9
002E
FFFC
FFD3
0017
FFEE
0010
FFE9
0007
001C
002C
FFE8
FFEF
FFFC
002C
0029
FFD6
FFDA
0000
FFD8
FFF0
FFDC
000E
002E
0033
FFF3
000A
0024
FFD9
0013
FFF7
FFE2
FFF6
FFD5
0014
FFE7
FFED
FFD9
0025
FFFF
0007
0007
FFF7
FFE1
0019
FFDA
FFD7
0016
FFE2
FFEC
FFFD
FFFB
0015
000D
000F
0016
FFEB
FFEE
FFFA
FFEC
0032
0020
FFDE
FFCD
FFD1
FFE6
FFD9
0003
0025
0018
FFE3
FFF6
0001
0020
0023
002A
0001
0014
FFD8
0007
FFE6
FFF9
000E
FFE7
FFD2
FFCE
FFCF
FFCE
FFD8
FFE5
FFE3
0032
FFEC
FFDA
0005
0025
0012
FFEB
0006
0016
0017
0011
0026
0026
0008
FFF9
000E
0021
FFCD
0032
FFE0
FFFD
0026
FFE4
FFFE
FFDA
FFF5
FFDF
FFF2
FFF3
0033
0033
FFD9
0017
FFD2
FFD0
FFD8
0030
002D
FFE1
FFDD
FFE5
0002
0007
FFE3
001A
FFEC
002B
0010
FFF9
001E
0021
FFEB
FFF0
002D
FFDE
FFD1
FFFB
001F
001C
002B
0003
FFD7
0009
001D
FFD6
FFDE
FFCE
000A
0028
0011
0031
FFD3
0029
0020
FFED
0030
FFEA
0028
0027
001A
0006
FFD9
0003
FFF1
001E
001A
002A
FFCE
0020
002D
001E
FFDA
FFD5
FFCF
000D
000D
0032
FFF6
FFEF
000D
0021
002D
001F
FFF8
000E
0024
FFFF
FFE3
FFDE
FFCD
0016
FFD8
FFE6
FFEB
0006
FFF6
0012
FFD2
FFD9
0000
FFEF
FFEB
FFD4
0029
0014
FFD9
FFD3
0031
0013
FFF8
0015
001A
001D
FFFE
FFF9
FFCE
002C
000B
FFE2
002B
002A
0032
0026
0033
FFE6
0023
0021
FFE4
FFD7
0031
FFEB
0026
FFCD
FFCF
FFFD
FFE5
0013
0007
FFD5
FFDD
FFF5
FFE0
001E
FFF7
FFD6
FFFE
FFD6
FFDA
FFE5
0025
002B
0021
FFEF
FFE9
0005
0017
0033
FFDA
FFD2
0014
0022
0023
0012
002E
0001
002A
0030
0024
FFED
FFE1
0005
FFFB
0027
FFD7
FFE7
001A
FFD7
FFEE
FFF4
000D
FFDD
0025
FFFB
002B
FFFD
FFE9
FFDB
FFCD
0003
FFD8
FFF5
0009
FFE9
FFDF
001C
002E
FFD7
FFDD
002F
FFD1
0031
FFCD
0026
FFEC
002D
FFED
0010
FFD5
FFE6
001C
0003
002C
FFF9
0026
FFFB
0031
002F
FFEF
0028
0024
FFE2
000D
FFD4
0022
FFDF
FFD4
FFF6
0008
0024
0031
FFFA
FFD3
001A
0007
FFFB
FFEC
0000
FFEF
001A
0004
0027
0004
FFE5
0024
0006
FFE2
000D
FFF1
0023
FFFB
0017
FFD7
FFF5
0031
0020
FFDD
FFE9
FFEF
000F
001A
001A
0001
0020
FFFA
FFD9
0007
002E
001E
0008
000F
002C
FFF9
FFEF
0031
0025
FFEE
FFFC
FFF7
FFDC
002F
FFF6
0026
FFE0
0005
FFCF
001B
0008
000D
FFD2
FFE2
FFD4
FFEA
000D
0007
000B
0005
FFE9
FFE6
FFDB
0024
000C
FFE0
FFDF
0026
0019
0010
FFF6
FFE8
0031
001E
FFEC
0024
001B
FFEB
FFF8
FFE0
FFD8
0017
FFE8
0021
0033
FFD5
FFFD
001F
001E
001B
FFF1
FFFB
000A
0031
FFEE
002B
FFE8
0032
0011
FFFC
000C
FFE9
FFE9
FFD8
FFD8
FFF0
001B
000B
FFD7
0024
000A
002F
0011
FFDF
FFFD
000F
FFD0
FFCE
FFDA
FFE7
FFF9
FFFF
FFDB
0012
000A
FFEB
FFCE
FFD5
FFF5
FFDD
FFF3
000D
0005
FFE4
FFF0
000C
0025
001A
0005
FFF2
FFF2
0027
FFD1
0032
0011
0013
FFD1
000B
FFFE
FFD8
FFE9
0028
0005
FFF7
FFD4
0016
0015
000C
0001
FFF9
000A
FFE5
002D
0009
FFED
FFFB
001F
FFDD
FFEB
0012
FFED
001E
FFDA
001B
FFD4
FFCE
0029
0008
FFF1
FFE5
000C
0001
0032
0031
000E
FFFA
FFFF
0013
FFD7
FFEE
FFD5
FFD4
FFE1
FFFE
001D
FFFF
FFEF
FFD5
0005
FFE9
000C
0031
FFD8
FFE3
FFFD
0030
001C
0029
FFEF
0032
FFD7
FFD2
0024
002C
FFD6
FFD8
FFD0
FFD8
FFE2
0030
0011
001D
001C
0004
001E
000A
FFED
0006
0003
0021
0031
FFF7
001B
FFD7
001C
FFF3
FFD1
FFF2
000B
FFD9
002B
FFD5
002C
0015
FFEF
FFF5
0019
000A
0012
FFF5
FFFF
0032
FFE3
FFF8
FFEB
001B
001B
FFEB
