FFD5
FFCE
FFF9
FFF7
0032
FFFD
FFE7
0028
FFFF
000A
FFD7
FFF4
002D
0009
FFF0
000D
002A
FFE9
0001
002F
FFDE
0016
000C
0012
FFF1
FFED
0013
FFE3
FFF8
FFE0
FFCE
0030
FFF9
0030
FFDB
0009
FFE1
001E
001D
FFD8
002A
FFE1
000C
0032
0027
002F
FFF0
FFD8
FFE0
0000
001E
FFDC
0010
FFEE
FFF0
0011
FFFD
0020
FFDD
001E
FFD3
FFE1
0010
0024
FFE7
FFEE
0004
FFE2
0020
001C
FFDC
FFFC
001C
FFEF
000E
FFD2
000B
FFDC
0022
FFF1
FFEA
0023
FFD2
FFF5
FFF3
FFEA
002A
001A
FFD3
0016
0003
0029
FFED
0008
0000
FFFF
FFFC
FFE2
001A
FFFB
002F
FFE8
0013
002D
0011
0026
0022
FFF2
000A
FFDD
0004
FFE4
0019
0003
FFF7
FFE8
0033
FFD4
FFD1
FFE3
0030
0031
0010
0027
FFE3
0030
FFDB
FFD7
FFD8
0007
001D
FFF2
0031
FFF9
FFDC
FFFD
0012
0022
FFFC
000A
FFE8
000F
0032
FFD2
0028
0006
FFE7
002F
FFFE
FFEF
FFDF
FFE6
0022
000C
002A
FFE5
FFD9
FFCD
0001
0033
0014
FFEC
0027
001D
FFCE
0020
FFEC
FFDC
FFE4
FFFD
FFF8
FFEA
FFDE
001B
0032
001C
FFEB
FFE6
FFE3
FFDB
0005
000B
0015
0012
FFEB
FFEF
0013
FFF1
FFE3
FFF3
FFE9
FFD6
0022
0024
FFE3
FFD3
0018
FFE2
FFF5
FFD3
FFE4
001E
001F
FFE2
FFEF
FFDB
FFD4
0032
0010
0004
001B
0023
001F
FFCE
FFE0
0010
FFF3
0031
0011
002F
FFE1
0025
FFEE
0032
FFDD
0002
001E
FFF9
FFFD
0032
FFF8
000B
FFD2
0023
000F
FFF6
FFCE
0009
FFCE
FFCD
000C
FFE0
FFE0
0010
FFD2
FFED
FFDC
0008
0011
0017
FFE7
FFD6
FFD5
FFF8
002E
FFE3
FFE7
FFD7
000B
0012
000F
0025
FFFF
FFDB
FFEA
0011
000C
0003
0013
000E
0027
0009
001D
FFE6
0012
0029
FFF4
001D
0017
FFD3
0008
FFDA
0030
0020
FFD8
FFD9
000A
FFF0
FFD0
0004
FFF5
FFD7
001F
002B
001A
0021
FFE3
FFE8
FFE2
001B
002E
0016
0027
000E
FFF4
FFF8
FFD5
FFD0
0014
FFFA
0005
0006
FFE9
FFFE
FFFD
FFF5
0021
FFFB
000B
0029
0026
0028
FFE8
FFD0
FFE8
FFE9
002A
000F
FFD5
FFDB
FFDD
000D
0018
0025
002D
FFE1
FFED
FFE5
FFF2
002A
0008
0018
FFFF
FFD0
FFD3
0004
0016
FFE3
0017
0020
FFF7
0019
FFF6
0012
001B
0032
FFF0
FFF7
FFDE
FFE2
0014
002B
FFF5
FFDF
FFEA
FFFB
FFEB
FFE5
0018
FFCE
0004
001E
FFE8
000B
0011
0010
FFFA
FFF0
0022
001A
FFEE
FFD7
FFD4
FFD6
0008
FFD2
FFEF
001A
FFEB
001B
0019
FFE6
0017
0019
FFF5
FFE2
0002
002B
000E
FFDF
0013
FFF9
0009
0018
0002
0020
0017
000C
FFDC
0022
002D
FFDB
FFFF
FFE7
001A
0017
FFDB
0027
FFDF
001E
FFFC
FFEE
FFDD
FFDE
0011
0005
FFD9
FFD8
FFD4
0019
0016
FFD3
0006
FFD5
0029
002A
0014
002C
0020
0022
0007
FFEC
FFE3
FFEE
000D
FFDE
FFE7
FFFD
FFE5
0009
002B
0019
0011
0008
FFFF
FFE0
0028
FFE6
FFD6
001A
FFDF
FFF3
FFD0
FFDB
FFDF
FFD2
0010
0023
FFF3
0026
FFE3
FFEE
FFDC
000C
FFF8
000C
001B
0005
000D
002D
FFEB
FFF2
0016
000B
FFDF
FFF3
FFFD
FFF8
FFDF
002B
001B
FFFE
0012
0029
FFDB
FFE6
0004
001F
FFD1
0032
FFFB
FFF2
FFEB
FFDF
001E
002F
FFF7
002E
0021
FFFE
0012
FFF9
0006
FFD3
0014
FFD2
0020
0021
FFE5
FFEE
FFFE
000A
FFEA
0009
FFEB
FFD2
FFCD
FFD7
001E
002F
FFF9
0001
FFDC
0005
FFDC
000B
002C
FFE1
001B
FFCF
FFF3
FFD8
FFF1
FFDF
FFF3
FFF8
FFEC
0010
002B
FFF6
FFE0
FFE9
0024
0007
FFFB
FFDC
FFFB
FFE9
002D
0027
FFD5
0002
FFE4
FFF7
0027
0003
FFEF
FFE2
001F
000D
FFFD
FFE3
FFEF
002F
0002
FFF6
0002
001D
FFF0
FFDF
0009
0011
0016
0027
FFF3
FFD5
002F
FFF9
000D
0011
0005
FFE2
001A
001F
0005
FFFF
FFD8
FFD5
FFF0
FFED
002E
001D
0010
0002
FFDE
0031
FFF3
FFD8
FFFF
0026
0028
FFCE
0028
FFE9
FFD1
0024
0025
000A
0008
0020
001D
0028
0005
0030
0033
FFD9
0024
0000
FFF4
000C
FFD3
0001
0026
FFE3
FFF8
002D
FFF9
FFF1
FFFA
0002
000E
001F
FFFB
0021
0003
FFEF
0010
0016
0006
FFD3
FFDE
FFEA
FFEA
0012
FFCF
001A
FFE8
FFED
0003
FFE3
0027
FFD6
FFFA
0024
000C
FFEB
FFF8
0015
0030
0028
FFF0
0033
FFCD
FFD0
0021
FFE1
FFD3
FFE5
FFF8
0018
000D
FFE5
0000
002C
0020
FFEE
0031
0015
FFD3
FFD0
FFDE
0017
FFE0
0001
FFD6
002B
FFF0
002A
002E
FFCD
FFFC
FFCF
002A
0002
FFD4
FFD8
FFF4
002D
0014
0026
FFF2
FFD1
0031
FFCF
002E
FFF3
FFCE
0013
0031
0030
FFDD
FFDF
0007
000E
0019
FFDF
002F
000E
0024
0004
FFF7
0031
0008
0026
002E
0012
0005
FFCD
FFD1
FFE1
FFE0
FFE7
FFEC
FFF2
FFF8
FFD7
FFD1
0012
0004
FFFA
000E
0022
FFF9
000E
002E
0023
FFF8
000F
FFDF
0006
0031
0002
002C
FFF7
0033
0008
FFD1
0009
FFE9
FFD0
0021
FFE9
001E
FFEA
FFE1
0031
FFF2
000A
000B
0006
002A
0012
FFF6
0025
FFDF
0005
002E
000D
0020
0010
0023
002E
FFE9
FFDE
FFFE
0015
FFE4
FFCD
FFF0
0030
0014
FFF6
FFE1
FFF1
FFDE
FFD8
002A
0033
FFDE
FFD2
FFEF
FFFC
FFE2
FFEC
FFE1
001C
0016
000E
FFF4
002A
0030
FFDF
FFE4
0003
FFD6
FFF9
0008
0002
FFEF
0004
002F
FFE2
0010
FFD1
FFD4
0005
FFD8
FFCF
FFDE
0007
0015
FFE2
0011
FFDF
000C
FFF7
0010
0033
002D
FFCD
0027
FFD4
002E
FFEA
FFF4
FFD6
FFD8
0017
002D
000B
0016
001B
FFE8
FFD1
FFCD
FFF1
FFE6
FFD3
FFDF
FFDA
002A
FFDB
0004
000A
0004
FFD7
FFED
FFD2
FFF5
FFE0
0006
0014
0003
FFF9
FFF4
0023
FFE3
0018
001A
FFF8
FFEB
FFFD
FFD6
FFD2
FFD8
FFE0
0000
0024
FFE5
002D
002F
002F
0023
FFF2
FFD4
0007
0006
0024
0033
0001
FFF0
FFE0
FFCD
0001
0006
0021
0000
002B
000D
0023
FFDC
0024
0012
FFDE
FFE0
002C
FFD0
FFFC
FFED
0011
0023
FFF2
FFF9
0031
001D
0029
FFFA
FFE5
FFF7
0016
FFD8
FFE8
FFD2
FFF9
0022
FFCF
0012
002C
FFE5
0014
0031
002F
FFE5
FFD7
FFDC
0015
0017
0012
FFEF
FFDE
0008
FFFE
0017
FFFA
FFEF
FFEB
FFE2
FFE8
FFD7
FFF0
FFD1
FFE0
0019
FFEE
0011
0016
0008
002F
FFCF
0018
002F
0025
FFDE
FFEE
FFDE
000A
0016
FFED
0004
0014
FFF8
0024
001C
FFD3
000C
FFE5
0006
002F
0027
FFF6
FFEB
FFE5
0003
FFD8
0005
FFCD
FFEE
FFE3
0030
0017
FFF1
FFD6
0002
FFE3
0004
0022
000C
000E
0004
002C
002C
0001
FFEC
FFFC
FFE0
000E
0000
FFD7
FFE1
FFFE
0028
0007
0013
FFF0
0007
FFFB
0010
FFD2
FFFF
FFEB
FFEE
002F
FFE0
FFED
0001
0025
FFF7
0019
0024
FFED
FFF5
FFF1
0022
FFD1
FFEC
0012
0007
FFF9
0004
FFE1
FFF9
0000
0029
FFE8
0026
000F
FFCF
0017
FFD0
0033
0026
FFEB
FFE7
FFF4
FFF1
FFF3
FFED
000C
FFDE
0023
0020
FFFE
0024
FFE6
FFCF
000C
FFFC
0007
0029
0030
000E
001B
FFD5
FFDD
0018
FFF9
FFFA
FFEC
000B
FFE0
000D
FFDF
FFD3
FFEF
FFE4
0028
FFD2
FFDF
0005
FFFE
FFD1
FFCE
0032
0010
FFF2
FFFD
FFE8
FFF0
000F
0027
FFE0
0023
FFD9
FFE3
FFD1
FFDB
002B
FFFC
FFD5
002F
0027
001A
002C
FFE3
0022
0013
0026
001E
FFF0
001C
FFE8
FFEE
FFD8
002D
FFEB
0002
FFF5
002F
FFEF
001D
0024
FFF9
FFF4
0019
002A
001A
FFE4
0028
FFF4
0008
0022
FFE0
001D
000A
0028
FFDE
FFF8
0022
FFCF
FFD8
0032
FFEA
0031
FFDF
FFF2
001A
0010
0008
0003
0023
FFE5
FFFA
FFDD
000A
FFE6
FFEF
FFFD
FFD0
FFD6
0013
FFF9
0025
0014
FFCE
000C
FFD6
001D
0032
0003
0013
FFE5
FFFA
0024
FFDE
FFE8
FFFA
0016
FFF3
002C
FFD6
FFF3
0015
FFE4
0010
FFDE
FFD3
FFD9
002C
0005
001E
FFEF
0009
FFFF
002E
0019
0018
FFD2
0005
FFFD
002C
FFE7
FFE8
FFF7
FFE6
FFDA
0025
0006
0025
0022
FFEA
0005
FFD5
002B
FFF6
FFF5
FFEC
FFFC
FFE7
FFF3
001F
0022
FFEC
FFFD
0026
FFD2
0028
FFE3
0012
0008
0005
0025
FFD7
FFF0
0004
0020
FFE3
001F
FFF6
FFE0
001B
FFD6
0002
FFD3
FFF1
000A
0006
FFF6
FFF9
FFE4
FFFB
002E
0024
FFDC
FFD0
002C
0003
0004
001D
FFED
FFFE
0030
0012
FFDD
FFDA
FFE2
001B
FFEB
FFCF
002D
FFDE
FFCE
FFE5
FFE5
FFF8
002B
0027
FFFC
FFF7
0006
FFE6
FFD2
002D
FFE0
FFE1
FFFD
FFFF
FFCF
FFDC
FFF4
0013
FFE4
FFF8
0006
0028
FFEE
FFDA
FFFF
0019
FFD8
FFF8
FFCF
FFD0
FFFE
FFEB
0023
000A
FFFB
FFF7
0000
FFD1
0028
0033
FFDF
FFD9
FFDC
0010
0011
0024
001A
FFFB
000C
0013
0001
FFFE
000F
0006
000F
000C
0016
000F
0002
0013
FFFB
FFE6
FFCD
0006
0009
0030
FFF2
FFF5
FFE1
FFD4
001C
FFE6
000B
0013
FFFD
0027
FFFA
FFEA
0029
0025
FFDE
FFCF
FFD6
FFEA
0030
0006
FFF3
0028
FFFB
FFED
002D
0024
0023
0001
001E
FFDF
0007
0032
FFEB
001E
FFFF
FFD1
001B
FFDE
000D
FFD6
002E
FFEB
FFE4
FFDA
002E
0016
0019
0000
FFFD
FFD8
0006
FFE6
0031
001E
FFF7
FFDC
001D
FFD9
FFE0
FFE2
0006
001D
FFED
FFD5
FFFC
0019
FFE3
FFE3
002E
002F
0032
0020
FFE0
FFE3
FFF0
FFED
002F
001E
0017
FFE0
002A
0022
FFDE
0026
FFE9
FFD5
0010
0010
FFD7
FFED
0032
0012
0018
FFE3
FFD5
FFE9
FFE6
FFE5
FFE1
0008
FFEE
0021
FFE0
FFFC
FFCE
FFFE
FFD3
0031
001E
FFFF
FFD6
0009
001A
FFE0
0007
0020
001B
001F
0027
002D
FFF6
0007
001E
0014
0033
FFCE
FFF1
FFEA
FFE8
FFE4
0015
FFD5
0019
0014
FFE6
FFE7
000D
001B
0027
0024
0030
0008
002A
0020
0028
FFCE
0030
FFFD
001F
FFDA
FFF5
FFE9
FFEB
FFD9
001F
FFCE
FFED
FFDF
0009
FFE7
FFE7
FFFF
0010
FFD9
FFDF
FFE6
0031
FFF5
000A
FFE6
FFFF
FFD4
FFD0
FFFD
FFF6
FFDB
0013
0032
FFF5
000D
002F
0022
FFFC
0018
FFDA
0001
FFE9
FFDD
FFF8
FFDA
0014
FFFC
0003
FFDC
FFDB
0009
0032
FFD7
FFEA
0026
FFD4
0026
0002
FFF7
FFED
FFEB
FFEC
0027
0017
0011
001F
FFE7
000C
FFFC
001D
FFEC
000F
0027
FFF6
FFD4
0002
FFF0
0012
002E
FFFF
FFFD
0010
FFD7
FFE7
002B
0011
FFCE
FFE2
0013
001B
0023
FFEB
002C
0005
0014
000A
FFD9
002F
FFD9
FFE7
0020
000C
0023
0002
FFF3
002B
FFD1
0024
FFE4
0024
FFDB
0008
0028
FFFD
0019
001F
0018
002C
FFFB
FFDF
FFD2
FFE6
FFDB
0006
FFE0
FFD1
FFD0
0022
0009
FFF1
0028
FFD4
0031
000C
FFE0
0012
001B
FFF9
0025
FFDC
FFE9
FFD6
FFE2
FFE5
002B
FFD5
FFF9
0003
0029
0033
001A
0030
001D
002F
0015
FFD5
FFF6
000F
FFF1
FFE9
0008
002C
FFD0
001C
0017
0030
002C
001B
0002
FFE2
0005
001B
0029
001E
FFE1
000A
FFEF
FFCE
FFE1
FFD8
0023
FFE7
FFEA
002F
FFF4
FFCE
FFEA
FFD9
FFD7
FFD5
000A
FFE0
FFF2
0025
FFF8
002B
0000
FFF6
001A
FFD4
FFD6
0010
FFFF
001E
002B
FFF5
000A
0000
0031
0022
002A
FFE7
001C
FFE8
FFE2
002D
FFCF
0030
FFDC
0021
FFE9
FFF1
FFE3
0009
FFF0
0010
FFCE
FFD3
FFD7
FFF8
0020
0028
FFE6
0008
001B
FFEA
FFF7
0002
FFDB
FFCF
FFDC
000D
FFD4
FFE0
FFEF
FFD5
FFE0
002A
FFCF
0010
FFF4
0012
0009
FFE4
0024
FFFF
0021
FFF6
0032
001C
0030
0001
FFFD
001A
0027
0030
FFEE
001F
FFE2
0005
FFDF
FFF0
002C
FFDC
000E
000A
FFD9
FFEE
0006
FFE0
001F
0030
FFE3
FFE0
FFFB
0019
FFEA
FFCF
0004
002F
FFF5
FFF8
0030
0014
0016
0006
0031
0013
0028
0014
0018
FFEB
FFEC
001D
FFEB
0006
FFE6
0020
FFD8
0022
000B
FFE0
0004
FFEA
FFEE
FFF1
FFD3
0032
FFD0
0011
FFF3
000F
FFF1
0012
0017
0014
FFD8
0010
FFE9
FFD0
FFF7
FFF9
FFFD
0015
FFEC
FFED
FFD3
0013
0007
FFF1
0015
0004
FFFD
0001
000E
0010
FFEA
FFDB
FFDD
000E
0026
FFF7
FFDE
001A
0022
0027
000B
0025
FFCE
FFD8
FFD6
0016
FFD4
0000
FFFD
FFED
0026
FFDE
FFF1
001C
FFD0
0012
0020
002C
0027
FFEE
0009
FFD5
FFE7
FFD6
FFED
0026
FFF0
0006
FFF9
FFFC
0030
FFEB
000D
FFF8
FFD3
FFFF
0020
FFD7
FFD4
FFDD
001B
0017
0007
FFFD
0028
001B
0020
0020
000F
FFFC
0025
002C
FFCF
FFD2
002F
FFE9
0026
FFF5
FFD9
FFD5
FFDD
FFE6
FFFF
0015
0032
FFFA
0002
0002
0004
0002
FFCE
FFCD
FFD7
FFD7
0015
FFE2
0028
002C
0031
002D
FFE9
0001
FFDF
001F
0028
0024
FFF9
001A
FFD7
FFD1
001A
FFF8
0033
FFD7
0024
FFFE
0022
0020
002B
FFEB
002E
FFDC
FFD5
FFF9
0022
FFFD
0022
0018
FFE2
002E
FFD3
0029
FFEC
0000
FFF8
FFDE
FFF1
FFE1
FFE2
FFE0
FFFF
001F
0007
0028
000E
0013
0011
FFFB
0013
FFD4
0025
001C
FFE6
001B
FFCE
FFE3
FFD3
001D
001A
0020
FFCD
0000
0015
FFDD
000F
FFD5
FFDF
FFFE
0010
FFDC
FFE0
FFE2
FFE5
FFE4
FFF5
0010
FFFA
001C
0016
FFDA
FFD2
0027
FFD5
FFDC
FFCF
000D
0008
0032
0028
FFF7
FFF3
FFEB
FFDC
FFDB
FFDA
FFD8
FFE5
FFEC
002F
0008
0032
FFF3
FFFC
FFEE
FFE0
FFDB
002E
0032
FFD1
FFDC
FFF8
FFE0
FFF2
FFDA
FFFC
FFE9
FFF1
FFD6
FFF9
0031
FFEE
0027
0023
002E
001E
0010
0025
FFD5
FFFC
0032
001C
002F
001D
0026
0015
001B
0002
002B
0021
0023
0012
FFEC
FFD0
002D
0009
FFEB
FFDC
0022
0022
0020
000F
FFF2
FFEC
FFCE
0022
FFD6
000D
0000
0003
002C
FFD0
001C
FFD2
FFD1
FFF9
FFD3
001E
0003
FFD0
FFD1
000C
001F
FFFA
0006
001F
000B
FFE4
000C
000D
0018
000C
0030
FFE1
002E
0004
0012
FFD7
FFF4
001C
0015
FFD1
0005
FFD6
0033
0029
FFCF
0025
002B
FFF1
0016
FFFA
0010
FFF0
FFEE
FFF8
FFDC
0022
FFF1
FFF6
0028
0000
0005
002F
0028
FFDE
FFFD
0030
FFF3
FFF3
FFE1
FFD9
0019
001C
0030
001C
FFE6
FFD1
0032
FFF0
FFED
002A
0009
FFE3
0028
0033
FFD6
0025
FFF5
0002
002A
0030
FFE8
FFE3
FFD5
0006
FFCE
FFF7
FFD4
FFF6
FFD1
0022
FFE2
FFEE
0026
0019
FFE3
FFD4
0016
FFF5
001B
FFFA
FFF0
FFFB
0019
0029
FFD2
0002
FFD0
FFFD
0027
FFF2
002C
000D
002C
001A
FFD7
FFE4
FFF5
FFDE
FFFF
FFFD
002F
FFF9
001D
002D
0027
FFE2
0000
FFF0
FFF6
FFF2
0021
FFFB
0002
0031
FFD3
FFFF
001C
FFDC
000B
FFE5
0026
FFEE
FFEE
000A
FFE0
FFEA
FFF7
FFF1
0003
000A
0007
0010
FFEC
FFDA
001B
0024
FFE7
FFF6
0000
0003
0010
FFD1
0017
FFD3
FFFD
0022
FFFB
FFDC
0032
0028
001C
FFF7
FFE0
002D
0003
0024
FFF0
FFEF
0032
0002
FFDB
FFE3
FFFE
FFD1
FFFC
FFF8
001D
FFF1
0031
FFDF
0009
FFD6
0018
0033
0021
0006
FFFE
0022
002D
0032
FFF5
0032
FFDD
FFE7
FFD6
FFE9
001B
0024
001D
000D
0001
0015
FFF5
0023
0012
0014
0004
0027
FFE7
FFF4
001C
FFFF
0028
FFF0
FFF3
0028
FFFC
0002
FFEF
FFE9
0010
FFD9
0027
001D
FFE0
0014
000B
FFE0
FFE9
FFF7
0014
000E
0003
001B
001A
000C
001D
FFEF
0027
000C
0021
0005
FFE3
0004
FFF3
0014
FFFE
0022
0012
0013
FFE3
0032
0023
001E
FFEF
0004
FFDB
0004
FFDC
0005
000F
FFF5
0000
0026
FFD8
001E
FFDE
FFD1
FFE0
001B
FFF6
0026
0003
FFCF
0016
FFD8
001E
FFDE
FFF0
001B
002F
FFF3
0022
FFE0
001F
0010
FFE1
FFEC
FFDA
FFF4
FFE2
000F
0033
FFCE
0004
0008
002A
0001
0004
FFFD
FFE8
FFD3
FFF7
FFD2
0005
FFEC
0003
FFDB
002C
0028
FFE0
FFF0
000C
FFD7
FFF1
FFE7
002B
0024
0008
0002
002C
002C
0030
FFDA
FFDD
0012
0004
FFCF
FFD3
0028
0026
FFF1
0028
000A
001F
FFF9
FFD8
FFF9
FFFC
0005
FFD8
0032
FFE6
FFE1
0003
0004
FFFA
001C
0002
000B
0017
FFCF
0007
0027
FFCF
FFF6
002C
FFF1
FFFC
0031
FFE1
FFD3
0025
0026
FFFD
0001
0022
0018
FFE8
FFCF
FFFE
0025
0029
002F
0027
0008
FFFA
001C
0019
0004
FFD6
002C
FFFB
FFF2
000D
0012
FFE2
0023
FFEA
FFE0
FFF6
0018
0030
0020
002D
FFDB
FFD4
0006
FFEB
0022
0012
0030
FFE7
FFFF
0000
FFE5
0009
FFFA
FFFB
FFF2
FFCF
0002
FFEF
FFCD
FFEC
FFE9
FFF5
FFDA
0001
0014
000D
001F
FFFB
0002
0020
FFF9
0015
FFF9
FFF8
001B
FFDF
FFEF
FFE4
FFF2
FFE4
0008
001F
001D
FFF2
0032
000A
FFF6
0022
0018
001A
FFE1
FFFD
0025
0000
0013
0009
0023
FFEA
0008
FFD9
0013
0018
FFD1
0012
FFF7
FFDA
FFF8
FFE1
FFF7
FFF4
0018
001C
000B
FFCF
002C
0013
FFD0
0021
FFE1
0008
FFFD
FFF8
0028
FFFA
FFD5
002E
002B
0013
FFFD
FFD6
001E
FFD5
FFD4
0004
FFDD
FFCE
FFF8
FFDB
FFDD
FFD5
FFE2
0016
0020
FFFB
0001
FFD0
FFD4
FFE7
0004
0019
000B
FFF5
FFD9
001D
FFF2
0018
0001
0018
002A
002B
0004
0001
FFE8
002D
FFFC
FFDA
FFF9
FFDA
0000
0006
FFEF
FFD4
002D
001C
0023
FFF2
001B
FFFF
FFE1
FFDA
FFF0
FFDB
0033
FFD2
FFFA
FFFB
FFEC
0007
FFDC
001D
FFEF
0009
0016
0028
0022
000B
FFF5
0000
001C
0027
FFD7
FFF4
001C
FFF9
FFEF
FFF7
000B
0033
FFFF
FFE2
FFDD
FFD1
0006
0005
FFE2
0014
0019
FFE7
FFF0
0032
FFF3
001B
FFFB
001E
001C
0011
0024
002D
0008
FFE5
FFF6
001A
000F
FFDF
FFD2
0013
FFE7
0000
0019
0006
FFD5
FFE0
FFE3
FFE7
0007
0000
FFE2
FFD4
FFDE
0032
FFFD
0026
0024
0001
0015
FFE1
0013
FFE9
0022
FFD5
001C
FFD7
0027
FFEC
0010
FFFF
FFF2
000F
002E
FFD1
002B
000B
001F
FFF4
FFFD
0026
FFF7
0004
FFCF
FFDD
000F
0016
0008
FFDB
FFFA
FFF1
0000
0026
001C
FFD5
0028
FFFD
0019
FFDB
0011
FFE5
FFFA
FFCF
FFDC
FFD6
FFE5
FFD7
0014
FFD0
000C
FFDB
002E
002C
FFE4
000C
FFD0
002C
0002
FFD1
FFF0
FFD5
FFF5
0011
FFFD
FFF4
FFD9
FFE6
FFD7
001F
FFDB
000A
FFF0
FFE4
000E
FFFC
FFF6
000A
FFFF
FFEC
0006
0011
FFD0
FFFD
FFD3
FFE0
0006
0025
0027
FFD4
FFF8
0008
FFDC
001B
0019
0029
FFCE
FFE3
0022
0011
0028
FFD3
000A
0007
FFD0
0001
000B
FFE0
FFE9
000E
FFFD
0025
FFF0
FFE8
0032
002A
FFD0
001C
FFD8
FFD0
FFE9
FFE8
0021
0016
0031
0016
FFF8
0014
0033
0016
001B
002D
FFD8
0015
0024
002F
FFE2
0000
0012
FFE6
000A
FFE7
FFEF
FFFA
0003
FFFB
FFFF
FFEB
FFDD
FFD2
FFE1
0008
001D
FFDE
FFD8
001A
FFEC
002E
0016
FFEE
FFEA
0002
FFD5
FFD9
FFDF
001C
0001
FFCE
0012
FFF8
0001
FFE3
0005
0031
FFD4
FFEA
FFE6
FFE6
FFF4
0021
002A
FFE2
0004
000E
0002
FFF9
FFE0
FFFF
FFF6
001E
001B
FFDB
FFD6
002A
0004
0025
FFD3
0003
0004
0025
FFD7
FFE5
FFF6
0025
002D
0032
002F
FFCD
FFD2
FFDC
FFF1
0022
0028
FFE0
000C
002B
FFFC
FFD7
FFFC
FFF3
0008
FFFA
FFCF
0033
0004
FFFD
002F
FFDD
FFE0
0020
FFE8
001F
FFE9
FFD0
0002
FFE1
001A
000E
002B
001D
FFDF
001F
000F
0011
0022
0008
FFFD
000E
FFEB
FFDF
000C
FFE5
FFD5
FFCD
000B
FFF2
001A
FFF3
FFFF
FFF6
000F
FFF1
002F
002D
0024
002B
FFFB
0004
0019
0014
0028
0016
0033
FFF0
0022
0014
0014
FFEE
001D
0029
FFE3
000D
FFF5
0032
FFFE
FFE4
FFF4
0010
FFD5
000B
002C
0024
FFD4
0033
0014
FFDD
FFCE
FFDE
0023
FFCF
FFE5
001A
0009
001D
0019
FFD2
0028
FFE4
0005
000F
FFDE
0031
FFFF
FFD3
002D
0009
0014
0003
0022
FFD0
FFE8
FFFD
FFD5
0015
FFF5
FFE9
FFCD
0017
0022
FFF5
0007
FFE4
000D
FFCE
FFFF
000F
002B
FFF4
001B
000A
002C
FFF6
FFED
0028
FFD2
FFDB
FFD5
0023
FFCE
0025
FFFB
FFCD
FFF6
FFE0
000D
0012
FFFF
FFD1
0010
0023
0017
0022
FFE1
0028
FFEE
FFCE
0023
002D
0010
FFE4
FFE7
FFFD
0029
FFDC
0021
FFEB
0020
002B
FFF9
FFF2
001F
0003
0013
000D
FFDC
0023
FFE1
002C
FFE6
0018
FFEA
FFED
FFED
0019
0006
0027
FFEC
0014
001A
FFDC
FFF6
FFFE
FFF1
FFEE
0013
FFE3
0015
002D
0007
000B
FFD4
0025
FFEA
000C
0031
000A
0017
FFFA
FFD3
001E
FFD0
0015
FFCF
0025
FFDD
0001
000A
FFFC
FFF0
FFFD
FFED
FFFA
FFF2
0007
FFE5
0032
0000
FFE1
FFFE
0026
FFCF
0012
0005
FFDE
0021
FFF3
FFEB
0022
000E
0029
000D
0019
0022
FFD2
001C
000C
FFD4
0001
FFD5
0018
0005
002E
FFE0
000B
FFE2
000C
0017
0017
0020
0024
FFD5
FFF0
0013
0000
FFE0
0005
FFF7
FFF5
0020
FFF7
FFD0
FFD3
0024
002F
0013
FFF2
002D
0011
0023
001B
FFF4
FFFE
FFE0
FFEB
001C
0028
0017
FFFC
FFD6
FFD3
FFF3
FFFC
000B
FFCD
0032
FFF2
0024
0004
FFDA
001E
0015
0003
0001
FFD6
0010
002A
FFD6
FFE8
0029
FFEA
0010
0004
000A
FFF7
FFEC
FFD2
0019
0019
0011
000F
FFE6
FFCF
0020
FFFF
FFEC
FFD7
FFD3
FFF1
001F
002B
0029
002B
002A
0003
FFE3
001F
FFE3
FFE8
FFE5
0002
FFEE
FFDD
FFFB
0026
0007
0027
FFE1
FFDE
0008
FFFC
0010
001E
001A
002D
FFF6
FFE2
0005
FFD8
FFEA
FFE2
FFF5
FFD8
FFD0
0010
000B
0015
0010
FFD9
FFEB
FFDA
0023
0019
FFE1
FFF0
0030
000A
001F
FFE8
FFE2
001D
0013
0013
0005
0007
0018
FFE8
FFF1
0026
FFEC
0005
0015
0033
FFF9
FFF9
0023
001F
0018
FFFC
FFEE
000B
0027
0027
FFD8
FFF9
FFFC
0031
0012
FFF7
FFCF
0007
FFD7
0022
001A
FFFC
FFF9
0029
FFEA
FFE6
002D
0020
0021
FFE1
FFDB
FFCF
FFE5
001C
FFE5
0017
FFE7
FFF5
0031
FFE6
FFF3
FFEC
FFD8
FFFF
FFF4
0014
0021
0005
FFD0
000C
FFD2
000C
0013
FFE1
0021
002A
0020
FFEC
0009
002A
FFEE
0021
FFCE
FFCD
001B
001B
001E
002C
FFD9
FFE5
0029
FFDF
0013
0003
FFD5
FFEA
0002
0024
0015
000C
0000
FFEB
FFD9
FFF7
FFD0
FFE2
FFF9
FFF8
FFD1
0009
0005
FFD5
002D
FFD7
0024
FFCD
0027
FFCF
001A
FFF2
0018
FFF6
FFD4
001B
FFD4
002B
FFD2
FFFE
0017
FFF5
FFE3
001B
001D
002B
FFF3
0001
FFF2
FFE7
001A
FFF0
FFF9
FFF6
0016
002B
0011
FFFD
001D
000E
FFD3
FFD7
FFD1
FFFC
0021
FFED
FFF4
002A
0022
0011
FFE8
FFD9
FFCE
FFD8
FFEB
0005
FFD3
FFDB
FFDF
000E
000C
0005
FFE6
FFF3
FFD7
FFE4
0029
0031
000F
002B
000F
FFD0
0033
FFD7
0013
FFE7
FFF5
000F
FFF9
FFE6
FFEF
FFF0
002F
001F
FFFC
FFE1
0020
FFDD
FFE2
FFF2
0027
FFDA
FFD9
FFFF
FFE9
0007
FFFB
FFF9
FFD8
FFDB
0021
0028
FFE5
FFD8
FFD2
000B
0016
FFF3
0012
0016
002D
FFD3
FFE0
FFD4
0026
001E
0008
FFD5
FFE9
FFEB
0006
FFE7
FFD4
0018
FFEB
FFFB
FFDA
001F
0007
0029
0000
002D
0028
0008
002C
FFEE
FFF2
FFD1
0009
0017
001C
FFDC
FFFA
FFDF
0011
FFDD
0029
FFE4
FFEB
0024
FFFC
FFCF
FFFF
FFD5
0032
0009
FFE7
0007
FFD5
001F
002C
0026
FFF0
FFEE
FFD0
0010
0004
FFFC
002A
FFDE
FFCE
FFD4
FFE4
FFD0
0000
FFED
FFDF
001A
FFE2
0013
FFF1
0001
002C
FFD1
0000
0024
0009
FFE9
FFF6
0012
0028
FFD1
FFD4
FFEE
FFE5
FFE8
FFE3
FFE1
FFDA
002C
FFDC
FFE2
FFE6
002C
001A
001E
FFD8
0022
FFF7
FFE8
0008
0021
001D
0028
002C
FFE5
FFF8
FFCE
0027
FFDD
0025
FFEF
FFF2
FFD1
FFEE
0028
FFCF
FFF6
FFD0
FFF3
FFDE
FFE7
0027
FFF9
FFE9
0009
FFDB
FFE7
0005
FFE5
0012
FFFF
001C
002E
FFD9
FFEF
FFEE
FFDC
0020
001B
FFFE
0004
FFD3
0006
001E
0008
FFE8
0011
FFF2
0005
FFFF
FFF4
0016
0027
FFCD
002C
0001
0015
0024
FFFD
0022
FFDF
FFDD
0010
0026
0028
000F
0003
FFEF
0031
FFEE
0019
0003
000B
FFF5
0030
0007
002D
FFCE
0007
0016
0019
0029
FFCD
FFCD
FFFD
FFD0
0031
FFE4
FFFD
FFD3
0002
FFF4
FFD1
FFEF
FFF5
0032
FFE2
0005
0032
001E
0033
0030
FFFF
0014
FFD8
FFFA
0020
0001
0015
0019
FFE7
0026
FFFC
FFE2
0025
FFF8
001A
0005
FFF4
0020
0009
FFF5
FFD8
0028
FFD0
0025
FFF2
000E
002B
FFDC
0007
001B
001A
0003
000D
001A
0023
001B
FFF1
0033
FFF9
FFCF
FFF2
FFDA
FFD9
FFEA
FFD2
0013
FFD4
FFE2
FFD6
FFD3
FFE8
0007
0030
0026
0026
FFDF
FFE8
FFD5
001D
FFD4
0006
FFE6
FFE6
0032
001A
0023
0007
0026
000F
002E
FFEA
000A
0013
FFF5
0027
0031
FFFF
FFF5
FFFD
0024
000F
FFD1
0004
FFCF
001D
FFEE
FFFD
001F
FFD2
FFDD
FFF6
FFE4
FFEF
0033
0021
0027
002D
FFF0
FFEB
FFE5
0022
0012
FFE5
FFF3
0001
0003
0028
FFF4
002A
FFFA
0019
002C
002A
FFD3
FFE2
FFFE
FFF9
000E
002E
FFD8
FFFB
FFE1
0028
0030
FFFE
FFD7
001D
0014
FFF1
0028
0031
0006
0007
FFEB
0009
FFFA
FFEC
FFD4
FFE7
FFE1
0004
000A
000B
FFF5
FFF8
0022
FFFE
0032
FFFA
000F
FFD2
0010
0024
002D
0033
FFEA
0008
FFFB
0007
FFDD
0024
002A
FFFB
FFEA
FFDB
0013
FFED
002A
0012
000F
0006
FFD1
002C
000D
0033
0004
0016
FFD3
000D
001B
001D
001C
FFE4
0031
0033
FFD5
002D
FFEA
0013
FFEF
0030
FFD7
0000
FFF9
FFEE
000F
FFDA
0016
0031
001F
0025
FFF2
FFEE
0002
FFD1
002E
FFDC
0029
FFD5
0021
FFDC
FFD1
0016
FFE9
0016
0006
FFD8
002C
FFFB
0018
0000
000B
FFEC
FFE1
0004
FFFA
FFF5
0012
0014
FFD2
FFEF
FFF7
FFD7
FFE5
FFD2
0033
0018
FFD6
FFCF
0016
FFFA
001D
002B
000A
FFE0
001D
002F
0008
0013
FFEF
FFF4
0018
002C
000D
001E
FFDE
FFE3
0003
FFDF
000E
FFEB
001E
0020
FFFC
FFDF
000F
0032
000D
FFD0
FFCF
FFEE
FFE1
0020
0023
FFE7
FFEE
FFE5
002A
0000
0010
FFF7
000D
FFF4
FFF0
000E
0009
FFEB
FFDC
FFF3
FFF7
000D
002A
FFD1
FFE6
FFE1
0000
FFF9
0017
FFE6
000A
0027
002A
002F
001C
002A
FFE5
FFE1
FFCD
0015
002D
FFE0
000E
0019
002C
000F
0030
FFF0
FFF1
0004
FFF4
FFCD
0018
001A
0019
FFF0
0002
FFF2
FFCE
0006
FFD9
FFD5
001A
FFCE
002F
0002
0031
FFD3
0009
FFF1
0023
FFF2
FFE7
0025
FFF3
FFCF
FFF5
0010
FFE7
FFF9
FFD3
0009
001A
FFF7
FFF8
FFD6
FFE1
FFDD
FFFE
0003
002E
FFD4
000A
0003
0002
