DEPTH = 4096;
WIDTH = 16;
ADDRESS_RADIX = UNS;
DATA_RADIX = HEX;

CONTENT BEGIN
	    0 : FFD5;
	    1 : FFCE;
	    2 : FFF9;
	    3 : FFF7;
	    4 : 0032;
	    5 : FFFD;
	    6 : FFE7;
	    7 : 0028;
	    8 : FFFF;
	    9 : 000A;
	   10 : FFD7;
	   11 : FFF4;
	   12 : 002D;
	   13 : 0009;
	   14 : FFF0;
	   15 : 000D;
	   16 : 002A;
	   17 : FFE9;
	   18 : 0001;
	   19 : 002F;
	   20 : FFDE;
	   21 : 0016;
	   22 : 000C;
	   23 : 0012;
	   24 : FFF1;
	   25 : FFED;
	   26 : 0013;
	   27 : FFE3;
	   28 : FFF8;
	   29 : FFE0;
	   30 : FFCE;
	   31 : 0030;
	   32 : FFF9;
	   33 : 0030;
	   34 : FFDB;
	   35 : 0009;
	   36 : FFE1;
	   37 : 001E;
	   38 : 001D;
	   39 : FFD8;
	   40 : 002A;
	   41 : FFE1;
	   42 : 000C;
	   43 : 0032;
	   44 : 0027;
	   45 : 002F;
	   46 : FFF0;
	   47 : FFD8;
	   48 : FFE0;
	   49 : 0000;
	   50 : 001E;
	   51 : FFDC;
	   52 : 0010;
	   53 : FFEE;
	   54 : FFF0;
	   55 : 0011;
	   56 : FFFD;
	   57 : 0020;
	   58 : FFDD;
	   59 : 001E;
	   60 : FFD3;
	   61 : FFE1;
	   62 : 0010;
	   63 : 0024;
	   64 : FFE7;
	   65 : FFEE;
	   66 : 0004;
	   67 : FFE2;
	   68 : 0020;
	   69 : 001C;
	   70 : FFDC;
	   71 : FFFC;
	   72 : 001C;
	   73 : FFEF;
	   74 : 000E;
	   75 : FFD2;
	   76 : 000B;
	   77 : FFDC;
	   78 : 0022;
	   79 : FFF1;
	   80 : FFEA;
	   81 : 0023;
	   82 : FFD2;
	   83 : FFF5;
	   84 : FFF3;
	   85 : FFEA;
	   86 : 002A;
	   87 : 001A;
	   88 : FFD3;
	   89 : 0016;
	   90 : 0003;
	   91 : 0029;
	   92 : FFED;
	   93 : 0008;
	   94 : 0000;
	   95 : FFFF;
	   96 : FFFC;
	   97 : FFE2;
	   98 : 001A;
	   99 : FFFB;
	  100 : 002F;
	  101 : FFE8;
	  102 : 0013;
	  103 : 002D;
	  104 : 0011;
	  105 : 0026;
	  106 : 0022;
	  107 : FFF2;
	  108 : 000A;
	  109 : FFDD;
	  110 : 0004;
	  111 : FFE4;
	  112 : 0019;
	  113 : 0003;
	  114 : FFF7;
	  115 : FFE8;
	  116 : 0033;
	  117 : FFD4;
	  118 : FFD1;
	  119 : FFE3;
	  120 : 0030;
	  121 : 0031;
	  122 : 0010;
	  123 : 0027;
	  124 : FFE3;
	  125 : 0030;
	  126 : FFDB;
	  127 : FFD7;
	  128 : FFD8;
	  129 : 0007;
	  130 : 001D;
	  131 : FFF2;
	  132 : 0031;
	  133 : FFF9;
	  134 : FFDC;
	  135 : FFFD;
	  136 : 0012;
	  137 : 0022;
	  138 : FFFC;
	  139 : 000A;
	  140 : FFE8;
	  141 : 000F;
	  142 : 0032;
	  143 : FFD2;
	  144 : 0028;
	  145 : 0006;
	  146 : FFE7;
	  147 : 002F;
	  148 : FFFE;
	  149 : FFEF;
	  150 : FFDF;
	  151 : FFE6;
	  152 : 0022;
	  153 : 000C;
	  154 : 002A;
	  155 : FFE5;
	  156 : FFD9;
	  157 : FFCD;
	  158 : 0001;
	  159 : 0033;
	  160 : 0014;
	  161 : FFEC;
	  162 : 0027;
	  163 : 001D;
	  164 : FFCE;
	  165 : 0020;
	  166 : FFEC;
	  167 : FFDC;
	  168 : FFE4;
	  169 : FFFD;
	  170 : FFF8;
	  171 : FFEA;
	  172 : FFDE;
	  173 : 001B;
	  174 : 0032;
	  175 : 001C;
	  176 : FFEB;
	  177 : FFE6;
	  178 : FFE3;
	  179 : FFDB;
	  180 : 0005;
	  181 : 000B;
	  182 : 0015;
	  183 : 0012;
	  184 : FFEB;
	  185 : FFEF;
	  186 : 0013;
	  187 : FFF1;
	  188 : FFE3;
	  189 : FFF3;
	  190 : FFE9;
	  191 : FFD6;
	  192 : 0022;
	  193 : 0024;
	  194 : FFE3;
	  195 : FFD3;
	  196 : 0018;
	  197 : FFE2;
	  198 : FFF5;
	  199 : FFD3;
	  200 : FFE4;
	  201 : 001E;
	  202 : 001F;
	  203 : FFE2;
	  204 : FFEF;
	  205 : FFDB;
	  206 : FFD4;
	  207 : 0032;
	  208 : 0010;
	  209 : 0004;
	  210 : 001B;
	  211 : 0023;
	  212 : 001F;
	  213 : FFCE;
	  214 : FFE0;
	  215 : 0010;
	  216 : FFF3;
	  217 : 0031;
	  218 : 0011;
	  219 : 002F;
	  220 : FFE1;
	  221 : 0025;
	  222 : FFEE;
	  223 : 0032;
	  224 : FFDD;
	  225 : 0002;
	  226 : 001E;
	  227 : FFF9;
	  228 : FFFD;
	  229 : 0032;
	  230 : FFF8;
	  231 : 000B;
	  232 : FFD2;
	  233 : 0023;
	  234 : 000F;
	  235 : FFF6;
	  236 : FFCE;
	  237 : 0009;
	  238 : FFCE;
	  239 : FFCD;
	  240 : 000C;
	  241 : FFE0;
	  242 : FFE0;
	  243 : 0010;
	  244 : FFD2;
	  245 : FFED;
	  246 : FFDC;
	  247 : 0008;
	  248 : 0011;
	  249 : 0017;
	  250 : FFE7;
	  251 : FFD6;
	  252 : FFD5;
	  253 : FFF8;
	  254 : 002E;
	  255 : FFE3;
	  256 : FFE7;
	  257 : FFD7;
	  258 : 000B;
	  259 : 0012;
	  260 : 000F;
	  261 : 0025;
	  262 : FFFF;
	  263 : FFDB;
	  264 : FFEA;
	  265 : 0011;
	  266 : 000C;
	  267 : 0003;
	  268 : 0013;
	  269 : 000E;
	  270 : 0027;
	  271 : 0009;
	  272 : 001D;
	  273 : FFE6;
	  274 : 0012;
	  275 : 0029;
	  276 : FFF4;
	  277 : 001D;
	  278 : 0017;
	  279 : FFD3;
	  280 : 0008;
	  281 : FFDA;
	  282 : 0030;
	  283 : 0020;
	  284 : FFD8;
	  285 : FFD9;
	  286 : 000A;
	  287 : FFF0;
	  288 : FFD0;
	  289 : 0004;
	  290 : FFF5;
	  291 : FFD7;
	  292 : 001F;
	  293 : 002B;
	  294 : 001A;
	  295 : 0021;
	  296 : FFE3;
	  297 : FFE8;
	  298 : FFE2;
	  299 : 001B;
	  300 : 002E;
	  301 : 0016;
	  302 : 0027;
	  303 : 000E;
	  304 : FFF4;
	  305 : FFF8;
	  306 : FFD5;
	  307 : FFD0;
	  308 : 0014;
	  309 : FFFA;
	  310 : 0005;
	  311 : 0006;
	  312 : FFE9;
	  313 : FFFE;
	  314 : FFFD;
	  315 : FFF5;
	  316 : 0021;
	  317 : FFFB;
	  318 : 000B;
	  319 : 0029;
	  320 : 0026;
	  321 : 0028;
	  322 : FFE8;
	  323 : FFD0;
	  324 : FFE8;
	  325 : FFE9;
	  326 : 002A;
	  327 : 000F;
	  328 : FFD5;
	  329 : FFDB;
	  330 : FFDD;
	  331 : 000D;
	  332 : 0018;
	  333 : 0025;
	  334 : 002D;
	  335 : FFE1;
	  336 : FFED;
	  337 : FFE5;
	  338 : FFF2;
	  339 : 002A;
	  340 : 0008;
	  341 : 0018;
	  342 : FFFF;
	  343 : FFD0;
	  344 : FFD3;
	  345 : 0004;
	  346 : 0016;
	  347 : FFE3;
	  348 : 0017;
	  349 : 0020;
	  350 : FFF7;
	  351 : 0019;
	  352 : FFF6;
	  353 : 0012;
	  354 : 001B;
	  355 : 0032;
	  356 : FFF0;
	  357 : FFF7;
	  358 : FFDE;
	  359 : FFE2;
	  360 : 0014;
	  361 : 002B;
	  362 : FFF5;
	  363 : FFDF;
	  364 : FFEA;
	  365 : FFFB;
	  366 : FFEB;
	  367 : FFE5;
	  368 : 0018;
	  369 : FFCE;
	  370 : 0004;
	  371 : 001E;
	  372 : FFE8;
	  373 : 000B;
	  374 : 0011;
	  375 : 0010;
	  376 : FFFA;
	  377 : FFF0;
	  378 : 0022;
	  379 : 001A;
	  380 : FFEE;
	  381 : FFD7;
	  382 : FFD4;
	  383 : FFD6;
	  384 : 0008;
	  385 : FFD2;
	  386 : FFEF;
	  387 : 001A;
	  388 : FFEB;
	  389 : 001B;
	  390 : 0019;
	  391 : FFE6;
	  392 : 0017;
	  393 : 0019;
	  394 : FFF5;
	  395 : FFE2;
	  396 : 0002;
	  397 : 002B;
	  398 : 000E;
	  399 : FFDF;
	  400 : 0013;
	  401 : FFF9;
	  402 : 0009;
	  403 : 0018;
	  404 : 0002;
	  405 : 0020;
	  406 : 0017;
	  407 : 000C;
	  408 : FFDC;
	  409 : 0022;
	  410 : 002D;
	  411 : FFDB;
	  412 : FFFF;
	  413 : FFE7;
	  414 : 001A;
	  415 : 0017;
	  416 : FFDB;
	  417 : 0027;
	  418 : FFDF;
	  419 : 001E;
	  420 : FFFC;
	  421 : FFEE;
	  422 : FFDD;
	  423 : FFDE;
	  424 : 0011;
	  425 : 0005;
	  426 : FFD9;
	  427 : FFD8;
	  428 : FFD4;
	  429 : 0019;
	  430 : 0016;
	  431 : FFD3;
	  432 : 0006;
	  433 : FFD5;
	  434 : 0029;
	  435 : 002A;
	  436 : 0014;
	  437 : 002C;
	  438 : 0020;
	  439 : 0022;
	  440 : 0007;
	  441 : FFEC;
	  442 : FFE3;
	  443 : FFEE;
	  444 : 000D;
	  445 : FFDE;
	  446 : FFE7;
	  447 : FFFD;
	  448 : FFE5;
	  449 : 0009;
	  450 : 002B;
	  451 : 0019;
	  452 : 0011;
	  453 : 0008;
	  454 : FFFF;
	  455 : FFE0;
	  456 : 0028;
	  457 : FFE6;
	  458 : FFD6;
	  459 : 001A;
	  460 : FFDF;
	  461 : FFF3;
	  462 : FFD0;
	  463 : FFDB;
	  464 : FFDF;
	  465 : FFD2;
	  466 : 0010;
	  467 : 0023;
	  468 : FFF3;
	  469 : 0026;
	  470 : FFE3;
	  471 : FFEE;
	  472 : FFDC;
	  473 : 000C;
	  474 : FFF8;
	  475 : 000C;
	  476 : 001B;
	  477 : 0005;
	  478 : 000D;
	  479 : 002D;
	  480 : FFEB;
	  481 : FFF2;
	  482 : 0016;
	  483 : 000B;
	  484 : FFDF;
	  485 : FFF3;
	  486 : FFFD;
	  487 : FFF8;
	  488 : FFDF;
	  489 : 002B;
	  490 : 001B;
	  491 : FFFE;
	  492 : 0012;
	  493 : 0029;
	  494 : FFDB;
	  495 : FFE6;
	  496 : 0004;
	  497 : 001F;
	  498 : FFD1;
	  499 : 0032;
	  500 : FFFB;
	  501 : FFF2;
	  502 : FFEB;
	  503 : FFDF;
	  504 : 001E;
	  505 : 002F;
	  506 : FFF7;
	  507 : 002E;
	  508 : 0021;
	  509 : FFFE;
	  510 : 0012;
	  511 : FFF9;
	  512 : 0006;
	  513 : FFD3;
	  514 : 0014;
	  515 : FFD2;
	  516 : 0020;
	  517 : 0021;
	  518 : FFE5;
	  519 : FFEE;
	  520 : FFFE;
	  521 : 000A;
	  522 : FFEA;
	  523 : 0009;
	  524 : FFEB;
	  525 : FFD2;
	  526 : FFCD;
	  527 : FFD7;
	  528 : 001E;
	  529 : 002F;
	  530 : FFF9;
	  531 : 0001;
	  532 : FFDC;
	  533 : 0005;
	  534 : FFDC;
	  535 : 000B;
	  536 : 002C;
	  537 : FFE1;
	  538 : 001B;
	  539 : FFCF;
	  540 : FFF3;
	  541 : FFD8;
	  542 : FFF1;
	  543 : FFDF;
	  544 : FFF3;
	  545 : FFF8;
	  546 : FFEC;
	  547 : 0010;
	  548 : 002B;
	  549 : FFF6;
	  550 : FFE0;
	  551 : FFE9;
	  552 : 0024;
	  553 : 0007;
	  554 : FFFB;
	  555 : FFDC;
	  556 : FFFB;
	  557 : FFE9;
	  558 : 002D;
	  559 : 0027;
	  560 : FFD5;
	  561 : 0002;
	  562 : FFE4;
	  563 : FFF7;
	  564 : 0027;
	  565 : 0003;
	  566 : FFEF;
	  567 : FFE2;
	  568 : 001F;
	  569 : 000D;
	  570 : FFFD;
	  571 : FFE3;
	  572 : FFEF;
	  573 : 002F;
	  574 : 0002;
	  575 : FFF6;
	  576 : 0002;
	  577 : 001D;
	  578 : FFF0;
	  579 : FFDF;
	  580 : 0009;
	  581 : 0011;
	  582 : 0016;
	  583 : 0027;
	  584 : FFF3;
	  585 : FFD5;
	  586 : 002F;
	  587 : FFF9;
	  588 : 000D;
	  589 : 0011;
	  590 : 0005;
	  591 : FFE2;
	  592 : 001A;
	  593 : 001F;
	  594 : 0005;
	  595 : FFFF;
	  596 : FFD8;
	  597 : FFD5;
	  598 : FFF0;
	  599 : FFED;
	  600 : 002E;
	  601 : 001D;
	  602 : 0010;
	  603 : 0002;
	  604 : FFDE;
	  605 : 0031;
	  606 : FFF3;
	  607 : FFD8;
	  608 : FFFF;
	  609 : 0026;
	  610 : 0028;
	  611 : FFCE;
	  612 : 0028;
	  613 : FFE9;
	  614 : FFD1;
	  615 : 0024;
	  616 : 0025;
	  617 : 000A;
	  618 : 0008;
	  619 : 0020;
	  620 : 001D;
	  621 : 0028;
	  622 : 0005;
	  623 : 0030;
	  624 : 0033;
	  625 : FFD9;
	  626 : 0024;
	  627 : 0000;
	  628 : FFF4;
	  629 : 000C;
	  630 : FFD3;
	  631 : 0001;
	  632 : 0026;
	  633 : FFE3;
	  634 : FFF8;
	  635 : 002D;
	  636 : FFF9;
	  637 : FFF1;
	  638 : FFFA;
	  639 : 0002;
	  640 : 000E;
	  641 : 001F;
	  642 : FFFB;
	  643 : 0021;
	  644 : 0003;
	  645 : FFEF;
	  646 : 0010;
	  647 : 0016;
	  648 : 0006;
	  649 : FFD3;
	  650 : FFDE;
	  651 : FFEA;
	  652 : FFEA;
	  653 : 0012;
	  654 : FFCF;
	  655 : 001A;
	  656 : FFE8;
	  657 : FFED;
	  658 : 0003;
	  659 : FFE3;
	  660 : 0027;
	  661 : FFD6;
	  662 : FFFA;
	  663 : 0024;
	  664 : 000C;
	  665 : FFEB;
	  666 : FFF8;
	  667 : 0015;
	  668 : 0030;
	  669 : 0028;
	  670 : FFF0;
	  671 : 0033;
	  672 : FFCD;
	  673 : FFD0;
	  674 : 0021;
	  675 : FFE1;
	  676 : FFD3;
	  677 : FFE5;
	  678 : FFF8;
	  679 : 0018;
	  680 : 000D;
	  681 : FFE5;
	  682 : 0000;
	  683 : 002C;
	  684 : 0020;
	  685 : FFEE;
	  686 : 0031;
	  687 : 0015;
	  688 : FFD3;
	  689 : FFD0;
	  690 : FFDE;
	  691 : 0017;
	  692 : FFE0;
	  693 : 0001;
	  694 : FFD6;
	  695 : 002B;
	  696 : FFF0;
	  697 : 002A;
	  698 : 002E;
	  699 : FFCD;
	  700 : FFFC;
	  701 : FFCF;
	  702 : 002A;
	  703 : 0002;
	  704 : FFD4;
	  705 : FFD8;
	  706 : FFF4;
	  707 : 002D;
	  708 : 0014;
	  709 : 0026;
	  710 : FFF2;
	  711 : FFD1;
	  712 : 0031;
	  713 : FFCF;
	  714 : 002E;
	  715 : FFF3;
	  716 : FFCE;
	  717 : 0013;
	  718 : 0031;
	  719 : 0030;
	  720 : FFDD;
	  721 : FFDF;
	  722 : 0007;
	  723 : 000E;
	  724 : 0019;
	  725 : FFDF;
	  726 : 002F;
	  727 : 000E;
	  728 : 0024;
	  729 : 0004;
	  730 : FFF7;
	  731 : 0031;
	  732 : 0008;
	  733 : 0026;
	  734 : 002E;
	  735 : 0012;
	  736 : 0005;
	  737 : FFCD;
	  738 : FFD1;
	  739 : FFE1;
	  740 : FFE0;
	  741 : FFE7;
	  742 : FFEC;
	  743 : FFF2;
	  744 : FFF8;
	  745 : FFD7;
	  746 : FFD1;
	  747 : 0012;
	  748 : 0004;
	  749 : FFFA;
	  750 : 000E;
	  751 : 0022;
	  752 : FFF9;
	  753 : 000E;
	  754 : 002E;
	  755 : 0023;
	  756 : FFF8;
	  757 : 000F;
	  758 : FFDF;
	  759 : 0006;
	  760 : 0031;
	  761 : 0002;
	  762 : 002C;
	  763 : FFF7;
	  764 : 0033;
	  765 : 0008;
	  766 : FFD1;
	  767 : 0009;
	  768 : FFE9;
	  769 : FFD0;
	  770 : 0021;
	  771 : FFE9;
	  772 : 001E;
	  773 : FFEA;
	  774 : FFE1;
	  775 : 0031;
	  776 : FFF2;
	  777 : 000A;
	  778 : 000B;
	  779 : 0006;
	  780 : 002A;
	  781 : 0012;
	  782 : FFF6;
	  783 : 0025;
	  784 : FFDF;
	  785 : 0005;
	  786 : 002E;
	  787 : 000D;
	  788 : 0020;
	  789 : 0010;
	  790 : 0023;
	  791 : 002E;
	  792 : FFE9;
	  793 : FFDE;
	  794 : FFFE;
	  795 : 0015;
	  796 : FFE4;
	  797 : FFCD;
	  798 : FFF0;
	  799 : 0030;
	  800 : 0014;
	  801 : FFF6;
	  802 : FFE1;
	  803 : FFF1;
	  804 : FFDE;
	  805 : FFD8;
	  806 : 002A;
	  807 : 0033;
	  808 : FFDE;
	  809 : FFD2;
	  810 : FFEF;
	  811 : FFFC;
	  812 : FFE2;
	  813 : FFEC;
	  814 : FFE1;
	  815 : 001C;
	  816 : 0016;
	  817 : 000E;
	  818 : FFF4;
	  819 : 002A;
	  820 : 0030;
	  821 : FFDF;
	  822 : FFE4;
	  823 : 0003;
	  824 : FFD6;
	  825 : FFF9;
	  826 : 0008;
	  827 : 0002;
	  828 : FFEF;
	  829 : 0004;
	  830 : 002F;
	  831 : FFE2;
	  832 : 0010;
	  833 : FFD1;
	  834 : FFD4;
	  835 : 0005;
	  836 : FFD8;
	  837 : FFCF;
	  838 : FFDE;
	  839 : 0007;
	  840 : 0015;
	  841 : FFE2;
	  842 : 0011;
	  843 : FFDF;
	  844 : 000C;
	  845 : FFF7;
	  846 : 0010;
	  847 : 0033;
	  848 : 002D;
	  849 : FFCD;
	  850 : 0027;
	  851 : FFD4;
	  852 : 002E;
	  853 : FFEA;
	  854 : FFF4;
	  855 : FFD6;
	  856 : FFD8;
	  857 : 0017;
	  858 : 002D;
	  859 : 000B;
	  860 : 0016;
	  861 : 001B;
	  862 : FFE8;
	  863 : FFD1;
	  864 : FFCD;
	  865 : FFF1;
	  866 : FFE6;
	  867 : FFD3;
	  868 : FFDF;
	  869 : FFDA;
	  870 : 002A;
	  871 : FFDB;
	  872 : 0004;
	  873 : 000A;
	  874 : 0004;
	  875 : FFD7;
	  876 : FFED;
	  877 : FFD2;
	  878 : FFF5;
	  879 : FFE0;
	  880 : 0006;
	  881 : 0014;
	  882 : 0003;
	  883 : FFF9;
	  884 : FFF4;
	  885 : 0023;
	  886 : FFE3;
	  887 : 0018;
	  888 : 001A;
	  889 : FFF8;
	  890 : FFEB;
	  891 : FFFD;
	  892 : FFD6;
	  893 : FFD2;
	  894 : FFD8;
	  895 : FFE0;
	  896 : 0000;
	  897 : 0024;
	  898 : FFE5;
	  899 : 002D;
	  900 : 002F;
	  901 : 002F;
	  902 : 0023;
	  903 : FFF2;
	  904 : FFD4;
	  905 : 0007;
	  906 : 0006;
	  907 : 0024;
	  908 : 0033;
	  909 : 0001;
	  910 : FFF0;
	  911 : FFE0;
	  912 : FFCD;
	  913 : 0001;
	  914 : 0006;
	  915 : 0021;
	  916 : 0000;
	  917 : 002B;
	  918 : 000D;
	  919 : 0023;
	  920 : FFDC;
	  921 : 0024;
	  922 : 0012;
	  923 : FFDE;
	  924 : FFE0;
	  925 : 002C;
	  926 : FFD0;
	  927 : FFFC;
	  928 : FFED;
	  929 : 0011;
	  930 : 0023;
	  931 : FFF2;
	  932 : FFF9;
	  933 : 0031;
	  934 : 001D;
	  935 : 0029;
	  936 : FFFA;
	  937 : FFE5;
	  938 : FFF7;
	  939 : 0016;
	  940 : FFD8;
	  941 : FFE8;
	  942 : FFD2;
	  943 : FFF9;
	  944 : 0022;
	  945 : FFCF;
	  946 : 0012;
	  947 : 002C;
	  948 : FFE5;
	  949 : 0014;
	  950 : 0031;
	  951 : 002F;
	  952 : FFE5;
	  953 : FFD7;
	  954 : FFDC;
	  955 : 0015;
	  956 : 0017;
	  957 : 0012;
	  958 : FFEF;
	  959 : FFDE;
	  960 : 0008;
	  961 : FFFE;
	  962 : 0017;
	  963 : FFFA;
	  964 : FFEF;
	  965 : FFEB;
	  966 : FFE2;
	  967 : FFE8;
	  968 : FFD7;
	  969 : FFF0;
	  970 : FFD1;
	  971 : FFE0;
	  972 : 0019;
	  973 : FFEE;
	  974 : 0011;
	  975 : 0016;
	  976 : 0008;
	  977 : 002F;
	  978 : FFCF;
	  979 : 0018;
	  980 : 002F;
	  981 : 0025;
	  982 : FFDE;
	  983 : FFEE;
	  984 : FFDE;
	  985 : 000A;
	  986 : 0016;
	  987 : FFED;
	  988 : 0004;
	  989 : 0014;
	  990 : FFF8;
	  991 : 0024;
	  992 : 001C;
	  993 : FFD3;
	  994 : 000C;
	  995 : FFE5;
	  996 : 0006;
	  997 : 002F;
	  998 : 0027;
	  999 : FFF6;
	 1000 : FFEB;
	 1001 : FFE5;
	 1002 : 0003;
	 1003 : FFD8;
	 1004 : 0005;
	 1005 : FFCD;
	 1006 : FFEE;
	 1007 : FFE3;
	 1008 : 0030;
	 1009 : 0017;
	 1010 : FFF1;
	 1011 : FFD6;
	 1012 : 0002;
	 1013 : FFE3;
	 1014 : 0004;
	 1015 : 0022;
	 1016 : 000C;
	 1017 : 000E;
	 1018 : 0004;
	 1019 : 002C;
	 1020 : 002C;
	 1021 : 0001;
	 1022 : FFEC;
	 1023 : FFFC;
	 1024 : FFE0;
	 1025 : 000E;
	 1026 : 0000;
	 1027 : FFD7;
	 1028 : FFE1;
	 1029 : FFFE;
	 1030 : 0028;
	 1031 : 0007;
	 1032 : 0013;
	 1033 : FFF0;
	 1034 : 0007;
	 1035 : FFFB;
	 1036 : 0010;
	 1037 : FFD2;
	 1038 : FFFF;
	 1039 : FFEB;
	 1040 : FFEE;
	 1041 : 002F;
	 1042 : FFE0;
	 1043 : FFED;
	 1044 : 0001;
	 1045 : 0025;
	 1046 : FFF7;
	 1047 : 0019;
	 1048 : 0024;
	 1049 : FFED;
	 1050 : FFF5;
	 1051 : FFF1;
	 1052 : 0022;
	 1053 : FFD1;
	 1054 : FFEC;
	 1055 : 0012;
	 1056 : 0007;
	 1057 : FFF9;
	 1058 : 0004;
	 1059 : FFE1;
	 1060 : FFF9;
	 1061 : 0000;
	 1062 : 0029;
	 1063 : FFE8;
	 1064 : 0026;
	 1065 : 000F;
	 1066 : FFCF;
	 1067 : 0017;
	 1068 : FFD0;
	 1069 : 0033;
	 1070 : 0026;
	 1071 : FFEB;
	 1072 : FFE7;
	 1073 : FFF4;
	 1074 : FFF1;
	 1075 : FFF3;
	 1076 : FFED;
	 1077 : 000C;
	 1078 : FFDE;
	 1079 : 0023;
	 1080 : 0020;
	 1081 : FFFE;
	 1082 : 0024;
	 1083 : FFE6;
	 1084 : FFCF;
	 1085 : 000C;
	 1086 : FFFC;
	 1087 : 0007;
	 1088 : 0029;
	 1089 : 0030;
	 1090 : 000E;
	 1091 : 001B;
	 1092 : FFD5;
	 1093 : FFDD;
	 1094 : 0018;
	 1095 : FFF9;
	 1096 : FFFA;
	 1097 : FFEC;
	 1098 : 000B;
	 1099 : FFE0;
	 1100 : 000D;
	 1101 : FFDF;
	 1102 : FFD3;
	 1103 : FFEF;
	 1104 : FFE4;
	 1105 : 0028;
	 1106 : FFD2;
	 1107 : FFDF;
	 1108 : 0005;
	 1109 : FFFE;
	 1110 : FFD1;
	 1111 : FFCE;
	 1112 : 0032;
	 1113 : 0010;
	 1114 : FFF2;
	 1115 : FFFD;
	 1116 : FFE8;
	 1117 : FFF0;
	 1118 : 000F;
	 1119 : 0027;
	 1120 : FFE0;
	 1121 : 0023;
	 1122 : FFD9;
	 1123 : FFE3;
	 1124 : FFD1;
	 1125 : FFDB;
	 1126 : 002B;
	 1127 : FFFC;
	 1128 : FFD5;
	 1129 : 002F;
	 1130 : 0027;
	 1131 : 001A;
	 1132 : 002C;
	 1133 : FFE3;
	 1134 : 0022;
	 1135 : 0013;
	 1136 : 0026;
	 1137 : 001E;
	 1138 : FFF0;
	 1139 : 001C;
	 1140 : FFE8;
	 1141 : FFEE;
	 1142 : FFD8;
	 1143 : 002D;
	 1144 : FFEB;
	 1145 : 0002;
	 1146 : FFF5;
	 1147 : 002F;
	 1148 : FFEF;
	 1149 : 001D;
	 1150 : 0024;
	 1151 : FFF9;
	 1152 : FFF4;
	 1153 : 0019;
	 1154 : 002A;
	 1155 : 001A;
	 1156 : FFE4;
	 1157 : 0028;
	 1158 : FFF4;
	 1159 : 0008;
	 1160 : 0022;
	 1161 : FFE0;
	 1162 : 001D;
	 1163 : 000A;
	 1164 : 0028;
	 1165 : FFDE;
	 1166 : FFF8;
	 1167 : 0022;
	 1168 : FFCF;
	 1169 : FFD8;
	 1170 : 0032;
	 1171 : FFEA;
	 1172 : 0031;
	 1173 : FFDF;
	 1174 : FFF2;
	 1175 : 001A;
	 1176 : 0010;
	 1177 : 0008;
	 1178 : 0003;
	 1179 : 0023;
	 1180 : FFE5;
	 1181 : FFFA;
	 1182 : FFDD;
	 1183 : 000A;
	 1184 : FFE6;
	 1185 : FFEF;
	 1186 : FFFD;
	 1187 : FFD0;
	 1188 : FFD6;
	 1189 : 0013;
	 1190 : FFF9;
	 1191 : 0025;
	 1192 : 0014;
	 1193 : FFCE;
	 1194 : 000C;
	 1195 : FFD6;
	 1196 : 001D;
	 1197 : 0032;
	 1198 : 0003;
	 1199 : 0013;
	 1200 : FFE5;
	 1201 : FFFA;
	 1202 : 0024;
	 1203 : FFDE;
	 1204 : FFE8;
	 1205 : FFFA;
	 1206 : 0016;
	 1207 : FFF3;
	 1208 : 002C;
	 1209 : FFD6;
	 1210 : FFF3;
	 1211 : 0015;
	 1212 : FFE4;
	 1213 : 0010;
	 1214 : FFDE;
	 1215 : FFD3;
	 1216 : FFD9;
	 1217 : 002C;
	 1218 : 0005;
	 1219 : 001E;
	 1220 : FFEF;
	 1221 : 0009;
	 1222 : FFFF;
	 1223 : 002E;
	 1224 : 0019;
	 1225 : 0018;
	 1226 : FFD2;
	 1227 : 0005;
	 1228 : FFFD;
	 1229 : 002C;
	 1230 : FFE7;
	 1231 : FFE8;
	 1232 : FFF7;
	 1233 : FFE6;
	 1234 : FFDA;
	 1235 : 0025;
	 1236 : 0006;
	 1237 : 0025;
	 1238 : 0022;
	 1239 : FFEA;
	 1240 : 0005;
	 1241 : FFD5;
	 1242 : 002B;
	 1243 : FFF6;
	 1244 : FFF5;
	 1245 : FFEC;
	 1246 : FFFC;
	 1247 : FFE7;
	 1248 : FFF3;
	 1249 : 001F;
	 1250 : 0022;
	 1251 : FFEC;
	 1252 : FFFD;
	 1253 : 0026;
	 1254 : FFD2;
	 1255 : 0028;
	 1256 : FFE3;
	 1257 : 0012;
	 1258 : 0008;
	 1259 : 0005;
	 1260 : 0025;
	 1261 : FFD7;
	 1262 : FFF0;
	 1263 : 0004;
	 1264 : 0020;
	 1265 : FFE3;
	 1266 : 001F;
	 1267 : FFF6;
	 1268 : FFE0;
	 1269 : 001B;
	 1270 : FFD6;
	 1271 : 0002;
	 1272 : FFD3;
	 1273 : FFF1;
	 1274 : 000A;
	 1275 : 0006;
	 1276 : FFF6;
	 1277 : FFF9;
	 1278 : FFE4;
	 1279 : FFFB;
	 1280 : 002E;
	 1281 : 0024;
	 1282 : FFDC;
	 1283 : FFD0;
	 1284 : 002C;
	 1285 : 0003;
	 1286 : 0004;
	 1287 : 001D;
	 1288 : FFED;
	 1289 : FFFE;
	 1290 : 0030;
	 1291 : 0012;
	 1292 : FFDD;
	 1293 : FFDA;
	 1294 : FFE2;
	 1295 : 001B;
	 1296 : FFEB;
	 1297 : FFCF;
	 1298 : 002D;
	 1299 : FFDE;
	 1300 : FFCE;
	 1301 : FFE5;
	 1302 : FFE5;
	 1303 : FFF8;
	 1304 : 002B;
	 1305 : 0027;
	 1306 : FFFC;
	 1307 : FFF7;
	 1308 : 0006;
	 1309 : FFE6;
	 1310 : FFD2;
	 1311 : 002D;
	 1312 : FFE0;
	 1313 : FFE1;
	 1314 : FFFD;
	 1315 : FFFF;
	 1316 : FFCF;
	 1317 : FFDC;
	 1318 : FFF4;
	 1319 : 0013;
	 1320 : FFE4;
	 1321 : FFF8;
	 1322 : 0006;
	 1323 : 0028;
	 1324 : FFEE;
	 1325 : FFDA;
	 1326 : FFFF;
	 1327 : 0019;
	 1328 : FFD8;
	 1329 : FFF8;
	 1330 : FFCF;
	 1331 : FFD0;
	 1332 : FFFE;
	 1333 : FFEB;
	 1334 : 0023;
	 1335 : 000A;
	 1336 : FFFB;
	 1337 : FFF7;
	 1338 : 0000;
	 1339 : FFD1;
	 1340 : 0028;
	 1341 : 0033;
	 1342 : FFDF;
	 1343 : FFD9;
	 1344 : FFDC;
	 1345 : 0010;
	 1346 : 0011;
	 1347 : 0024;
	 1348 : 001A;
	 1349 : FFFB;
	 1350 : 000C;
	 1351 : 0013;
	 1352 : 0001;
	 1353 : FFFE;
	 1354 : 000F;
	 1355 : 0006;
	 1356 : 000F;
	 1357 : 000C;
	 1358 : 0016;
	 1359 : 000F;
	 1360 : 0002;
	 1361 : 0013;
	 1362 : FFFB;
	 1363 : FFE6;
	 1364 : FFCD;
	 1365 : 0006;
	 1366 : 0009;
	 1367 : 0030;
	 1368 : FFF2;
	 1369 : FFF5;
	 1370 : FFE1;
	 1371 : FFD4;
	 1372 : 001C;
	 1373 : FFE6;
	 1374 : 000B;
	 1375 : 0013;
	 1376 : FFFD;
	 1377 : 0027;
	 1378 : FFFA;
	 1379 : FFEA;
	 1380 : 0029;
	 1381 : 0025;
	 1382 : FFDE;
	 1383 : FFCF;
	 1384 : FFD6;
	 1385 : FFEA;
	 1386 : 0030;
	 1387 : 0006;
	 1388 : FFF3;
	 1389 : 0028;
	 1390 : FFFB;
	 1391 : FFED;
	 1392 : 002D;
	 1393 : 0024;
	 1394 : 0023;
	 1395 : 0001;
	 1396 : 001E;
	 1397 : FFDF;
	 1398 : 0007;
	 1399 : 0032;
	 1400 : FFEB;
	 1401 : 001E;
	 1402 : FFFF;
	 1403 : FFD1;
	 1404 : 001B;
	 1405 : FFDE;
	 1406 : 000D;
	 1407 : FFD6;
	 1408 : 002E;
	 1409 : FFEB;
	 1410 : FFE4;
	 1411 : FFDA;
	 1412 : 002E;
	 1413 : 0016;
	 1414 : 0019;
	 1415 : 0000;
	 1416 : FFFD;
	 1417 : FFD8;
	 1418 : 0006;
	 1419 : FFE6;
	 1420 : 0031;
	 1421 : 001E;
	 1422 : FFF7;
	 1423 : FFDC;
	 1424 : 001D;
	 1425 : FFD9;
	 1426 : FFE0;
	 1427 : FFE2;
	 1428 : 0006;
	 1429 : 001D;
	 1430 : FFED;
	 1431 : FFD5;
	 1432 : FFFC;
	 1433 : 0019;
	 1434 : FFE3;
	 1435 : FFE3;
	 1436 : 002E;
	 1437 : 002F;
	 1438 : 0032;
	 1439 : 0020;
	 1440 : FFE0;
	 1441 : FFE3;
	 1442 : FFF0;
	 1443 : FFED;
	 1444 : 002F;
	 1445 : 001E;
	 1446 : 0017;
	 1447 : FFE0;
	 1448 : 002A;
	 1449 : 0022;
	 1450 : FFDE;
	 1451 : 0026;
	 1452 : FFE9;
	 1453 : FFD5;
	 1454 : 0010;
	 1455 : 0010;
	 1456 : FFD7;
	 1457 : FFED;
	 1458 : 0032;
	 1459 : 0012;
	 1460 : 0018;
	 1461 : FFE3;
	 1462 : FFD5;
	 1463 : FFE9;
	 1464 : FFE6;
	 1465 : FFE5;
	 1466 : FFE1;
	 1467 : 0008;
	 1468 : FFEE;
	 1469 : 0021;
	 1470 : FFE0;
	 1471 : FFFC;
	 1472 : FFCE;
	 1473 : FFFE;
	 1474 : FFD3;
	 1475 : 0031;
	 1476 : 001E;
	 1477 : FFFF;
	 1478 : FFD6;
	 1479 : 0009;
	 1480 : 001A;
	 1481 : FFE0;
	 1482 : 0007;
	 1483 : 0020;
	 1484 : 001B;
	 1485 : 001F;
	 1486 : 0027;
	 1487 : 002D;
	 1488 : FFF6;
	 1489 : 0007;
	 1490 : 001E;
	 1491 : 0014;
	 1492 : 0033;
	 1493 : FFCE;
	 1494 : FFF1;
	 1495 : FFEA;
	 1496 : FFE8;
	 1497 : FFE4;
	 1498 : 0015;
	 1499 : FFD5;
	 1500 : 0019;
	 1501 : 0014;
	 1502 : FFE6;
	 1503 : FFE7;
	 1504 : 000D;
	 1505 : 001B;
	 1506 : 0027;
	 1507 : 0024;
	 1508 : 0030;
	 1509 : 0008;
	 1510 : 002A;
	 1511 : 0020;
	 1512 : 0028;
	 1513 : FFCE;
	 1514 : 0030;
	 1515 : FFFD;
	 1516 : 001F;
	 1517 : FFDA;
	 1518 : FFF5;
	 1519 : FFE9;
	 1520 : FFEB;
	 1521 : FFD9;
	 1522 : 001F;
	 1523 : FFCE;
	 1524 : FFED;
	 1525 : FFDF;
	 1526 : 0009;
	 1527 : FFE7;
	 1528 : FFE7;
	 1529 : FFFF;
	 1530 : 0010;
	 1531 : FFD9;
	 1532 : FFDF;
	 1533 : FFE6;
	 1534 : 0031;
	 1535 : FFF5;
	 1536 : 000A;
	 1537 : FFE6;
	 1538 : FFFF;
	 1539 : FFD4;
	 1540 : FFD0;
	 1541 : FFFD;
	 1542 : FFF6;
	 1543 : FFDB;
	 1544 : 0013;
	 1545 : 0032;
	 1546 : FFF5;
	 1547 : 000D;
	 1548 : 002F;
	 1549 : 0022;
	 1550 : FFFC;
	 1551 : 0018;
	 1552 : FFDA;
	 1553 : 0001;
	 1554 : FFE9;
	 1555 : FFDD;
	 1556 : FFF8;
	 1557 : FFDA;
	 1558 : 0014;
	 1559 : FFFC;
	 1560 : 0003;
	 1561 : FFDC;
	 1562 : FFDB;
	 1563 : 0009;
	 1564 : 0032;
	 1565 : FFD7;
	 1566 : FFEA;
	 1567 : 0026;
	 1568 : FFD4;
	 1569 : 0026;
	 1570 : 0002;
	 1571 : FFF7;
	 1572 : FFED;
	 1573 : FFEB;
	 1574 : FFEC;
	 1575 : 0027;
	 1576 : 0017;
	 1577 : 0011;
	 1578 : 001F;
	 1579 : FFE7;
	 1580 : 000C;
	 1581 : FFFC;
	 1582 : 001D;
	 1583 : FFEC;
	 1584 : 000F;
	 1585 : 0027;
	 1586 : FFF6;
	 1587 : FFD4;
	 1588 : 0002;
	 1589 : FFF0;
	 1590 : 0012;
	 1591 : 002E;
	 1592 : FFFF;
	 1593 : FFFD;
	 1594 : 0010;
	 1595 : FFD7;
	 1596 : FFE7;
	 1597 : 002B;
	 1598 : 0011;
	 1599 : FFCE;
	 1600 : FFE2;
	 1601 : 0013;
	 1602 : 001B;
	 1603 : 0023;
	 1604 : FFEB;
	 1605 : 002C;
	 1606 : 0005;
	 1607 : 0014;
	 1608 : 000A;
	 1609 : FFD9;
	 1610 : 002F;
	 1611 : FFD9;
	 1612 : FFE7;
	 1613 : 0020;
	 1614 : 000C;
	 1615 : 0023;
	 1616 : 0002;
	 1617 : FFF3;
	 1618 : 002B;
	 1619 : FFD1;
	 1620 : 0024;
	 1621 : FFE4;
	 1622 : 0024;
	 1623 : FFDB;
	 1624 : 0008;
	 1625 : 0028;
	 1626 : FFFD;
	 1627 : 0019;
	 1628 : 001F;
	 1629 : 0018;
	 1630 : 002C;
	 1631 : FFFB;
	 1632 : FFDF;
	 1633 : FFD2;
	 1634 : FFE6;
	 1635 : FFDB;
	 1636 : 0006;
	 1637 : FFE0;
	 1638 : FFD1;
	 1639 : FFD0;
	 1640 : 0022;
	 1641 : 0009;
	 1642 : FFF1;
	 1643 : 0028;
	 1644 : FFD4;
	 1645 : 0031;
	 1646 : 000C;
	 1647 : FFE0;
	 1648 : 0012;
	 1649 : 001B;
	 1650 : FFF9;
	 1651 : 0025;
	 1652 : FFDC;
	 1653 : FFE9;
	 1654 : FFD6;
	 1655 : FFE2;
	 1656 : FFE5;
	 1657 : 002B;
	 1658 : FFD5;
	 1659 : FFF9;
	 1660 : 0003;
	 1661 : 0029;
	 1662 : 0033;
	 1663 : 001A;
	 1664 : 0030;
	 1665 : 001D;
	 1666 : 002F;
	 1667 : 0015;
	 1668 : FFD5;
	 1669 : FFF6;
	 1670 : 000F;
	 1671 : FFF1;
	 1672 : FFE9;
	 1673 : 0008;
	 1674 : 002C;
	 1675 : FFD0;
	 1676 : 001C;
	 1677 : 0017;
	 1678 : 0030;
	 1679 : 002C;
	 1680 : 001B;
	 1681 : 0002;
	 1682 : FFE2;
	 1683 : 0005;
	 1684 : 001B;
	 1685 : 0029;
	 1686 : 001E;
	 1687 : FFE1;
	 1688 : 000A;
	 1689 : FFEF;
	 1690 : FFCE;
	 1691 : FFE1;
	 1692 : FFD8;
	 1693 : 0023;
	 1694 : FFE7;
	 1695 : FFEA;
	 1696 : 002F;
	 1697 : FFF4;
	 1698 : FFCE;
	 1699 : FFEA;
	 1700 : FFD9;
	 1701 : FFD7;
	 1702 : FFD5;
	 1703 : 000A;
	 1704 : FFE0;
	 1705 : FFF2;
	 1706 : 0025;
	 1707 : FFF8;
	 1708 : 002B;
	 1709 : 0000;
	 1710 : FFF6;
	 1711 : 001A;
	 1712 : FFD4;
	 1713 : FFD6;
	 1714 : 0010;
	 1715 : FFFF;
	 1716 : 001E;
	 1717 : 002B;
	 1718 : FFF5;
	 1719 : 000A;
	 1720 : 0000;
	 1721 : 0031;
	 1722 : 0022;
	 1723 : 002A;
	 1724 : FFE7;
	 1725 : 001C;
	 1726 : FFE8;
	 1727 : FFE2;
	 1728 : 002D;
	 1729 : FFCF;
	 1730 : 0030;
	 1731 : FFDC;
	 1732 : 0021;
	 1733 : FFE9;
	 1734 : FFF1;
	 1735 : FFE3;
	 1736 : 0009;
	 1737 : FFF0;
	 1738 : 0010;
	 1739 : FFCE;
	 1740 : FFD3;
	 1741 : FFD7;
	 1742 : FFF8;
	 1743 : 0020;
	 1744 : 0028;
	 1745 : FFE6;
	 1746 : 0008;
	 1747 : 001B;
	 1748 : FFEA;
	 1749 : FFF7;
	 1750 : 0002;
	 1751 : FFDB;
	 1752 : FFCF;
	 1753 : FFDC;
	 1754 : 000D;
	 1755 : FFD4;
	 1756 : FFE0;
	 1757 : FFEF;
	 1758 : FFD5;
	 1759 : FFE0;
	 1760 : 002A;
	 1761 : FFCF;
	 1762 : 0010;
	 1763 : FFF4;
	 1764 : 0012;
	 1765 : 0009;
	 1766 : FFE4;
	 1767 : 0024;
	 1768 : FFFF;
	 1769 : 0021;
	 1770 : FFF6;
	 1771 : 0032;
	 1772 : 001C;
	 1773 : 0030;
	 1774 : 0001;
	 1775 : FFFD;
	 1776 : 001A;
	 1777 : 0027;
	 1778 : 0030;
	 1779 : FFEE;
	 1780 : 001F;
	 1781 : FFE2;
	 1782 : 0005;
	 1783 : FFDF;
	 1784 : FFF0;
	 1785 : 002C;
	 1786 : FFDC;
	 1787 : 000E;
	 1788 : 000A;
	 1789 : FFD9;
	 1790 : FFEE;
	 1791 : 0006;
	 1792 : FFE0;
	 1793 : 001F;
	 1794 : 0030;
	 1795 : FFE3;
	 1796 : FFE0;
	 1797 : FFFB;
	 1798 : 0019;
	 1799 : FFEA;
	 1800 : FFCF;
	 1801 : 0004;
	 1802 : 002F;
	 1803 : FFF5;
	 1804 : FFF8;
	 1805 : 0030;
	 1806 : 0014;
	 1807 : 0016;
	 1808 : 0006;
	 1809 : 0031;
	 1810 : 0013;
	 1811 : 0028;
	 1812 : 0014;
	 1813 : 0018;
	 1814 : FFEB;
	 1815 : FFEC;
	 1816 : 001D;
	 1817 : FFEB;
	 1818 : 0006;
	 1819 : FFE6;
	 1820 : 0020;
	 1821 : FFD8;
	 1822 : 0022;
	 1823 : 000B;
	 1824 : FFE0;
	 1825 : 0004;
	 1826 : FFEA;
	 1827 : FFEE;
	 1828 : FFF1;
	 1829 : FFD3;
	 1830 : 0032;
	 1831 : FFD0;
	 1832 : 0011;
	 1833 : FFF3;
	 1834 : 000F;
	 1835 : FFF1;
	 1836 : 0012;
	 1837 : 0017;
	 1838 : 0014;
	 1839 : FFD8;
	 1840 : 0010;
	 1841 : FFE9;
	 1842 : FFD0;
	 1843 : FFF7;
	 1844 : FFF9;
	 1845 : FFFD;
	 1846 : 0015;
	 1847 : FFEC;
	 1848 : FFED;
	 1849 : FFD3;
	 1850 : 0013;
	 1851 : 0007;
	 1852 : FFF1;
	 1853 : 0015;
	 1854 : 0004;
	 1855 : FFFD;
	 1856 : 0001;
	 1857 : 000E;
	 1858 : 0010;
	 1859 : FFEA;
	 1860 : FFDB;
	 1861 : FFDD;
	 1862 : 000E;
	 1863 : 0026;
	 1864 : FFF7;
	 1865 : FFDE;
	 1866 : 001A;
	 1867 : 0022;
	 1868 : 0027;
	 1869 : 000B;
	 1870 : 0025;
	 1871 : FFCE;
	 1872 : FFD8;
	 1873 : FFD6;
	 1874 : 0016;
	 1875 : FFD4;
	 1876 : 0000;
	 1877 : FFFD;
	 1878 : FFED;
	 1879 : 0026;
	 1880 : FFDE;
	 1881 : FFF1;
	 1882 : 001C;
	 1883 : FFD0;
	 1884 : 0012;
	 1885 : 0020;
	 1886 : 002C;
	 1887 : 0027;
	 1888 : FFEE;
	 1889 : 0009;
	 1890 : FFD5;
	 1891 : FFE7;
	 1892 : FFD6;
	 1893 : FFED;
	 1894 : 0026;
	 1895 : FFF0;
	 1896 : 0006;
	 1897 : FFF9;
	 1898 : FFFC;
	 1899 : 0030;
	 1900 : FFEB;
	 1901 : 000D;
	 1902 : FFF8;
	 1903 : FFD3;
	 1904 : FFFF;
	 1905 : 0020;
	 1906 : FFD7;
	 1907 : FFD4;
	 1908 : FFDD;
	 1909 : 001B;
	 1910 : 0017;
	 1911 : 0007;
	 1912 : FFFD;
	 1913 : 0028;
	 1914 : 001B;
	 1915 : 0020;
	 1916 : 0020;
	 1917 : 000F;
	 1918 : FFFC;
	 1919 : 0025;
	 1920 : 002C;
	 1921 : FFCF;
	 1922 : FFD2;
	 1923 : 002F;
	 1924 : FFE9;
	 1925 : 0026;
	 1926 : FFF5;
	 1927 : FFD9;
	 1928 : FFD5;
	 1929 : FFDD;
	 1930 : FFE6;
	 1931 : FFFF;
	 1932 : 0015;
	 1933 : 0032;
	 1934 : FFFA;
	 1935 : 0002;
	 1936 : 0002;
	 1937 : 0004;
	 1938 : 0002;
	 1939 : FFCE;
	 1940 : FFCD;
	 1941 : FFD7;
	 1942 : FFD7;
	 1943 : 0015;
	 1944 : FFE2;
	 1945 : 0028;
	 1946 : 002C;
	 1947 : 0031;
	 1948 : 002D;
	 1949 : FFE9;
	 1950 : 0001;
	 1951 : FFDF;
	 1952 : 001F;
	 1953 : 0028;
	 1954 : 0024;
	 1955 : FFF9;
	 1956 : 001A;
	 1957 : FFD7;
	 1958 : FFD1;
	 1959 : 001A;
	 1960 : FFF8;
	 1961 : 0033;
	 1962 : FFD7;
	 1963 : 0024;
	 1964 : FFFE;
	 1965 : 0022;
	 1966 : 0020;
	 1967 : 002B;
	 1968 : FFEB;
	 1969 : 002E;
	 1970 : FFDC;
	 1971 : FFD5;
	 1972 : FFF9;
	 1973 : 0022;
	 1974 : FFFD;
	 1975 : 0022;
	 1976 : 0018;
	 1977 : FFE2;
	 1978 : 002E;
	 1979 : FFD3;
	 1980 : 0029;
	 1981 : FFEC;
	 1982 : 0000;
	 1983 : FFF8;
	 1984 : FFDE;
	 1985 : FFF1;
	 1986 : FFE1;
	 1987 : FFE2;
	 1988 : FFE0;
	 1989 : FFFF;
	 1990 : 001F;
	 1991 : 0007;
	 1992 : 0028;
	 1993 : 000E;
	 1994 : 0013;
	 1995 : 0011;
	 1996 : FFFB;
	 1997 : 0013;
	 1998 : FFD4;
	 1999 : 0025;
	 2000 : 001C;
	 2001 : FFE6;
	 2002 : 001B;
	 2003 : FFCE;
	 2004 : FFE3;
	 2005 : FFD3;
	 2006 : 001D;
	 2007 : 001A;
	 2008 : 0020;
	 2009 : FFCD;
	 2010 : 0000;
	 2011 : 0015;
	 2012 : FFDD;
	 2013 : 000F;
	 2014 : FFD5;
	 2015 : FFDF;
	 2016 : FFFE;
	 2017 : 0010;
	 2018 : FFDC;
	 2019 : FFE0;
	 2020 : FFE2;
	 2021 : FFE5;
	 2022 : FFE4;
	 2023 : FFF5;
	 2024 : 0010;
	 2025 : FFFA;
	 2026 : 001C;
	 2027 : 0016;
	 2028 : FFDA;
	 2029 : FFD2;
	 2030 : 0027;
	 2031 : FFD5;
	 2032 : FFDC;
	 2033 : FFCF;
	 2034 : 000D;
	 2035 : 0008;
	 2036 : 0032;
	 2037 : 0028;
	 2038 : FFF7;
	 2039 : FFF3;
	 2040 : FFEB;
	 2041 : FFDC;
	 2042 : FFDB;
	 2043 : FFDA;
	 2044 : FFD8;
	 2045 : FFE5;
	 2046 : FFEC;
	 2047 : 002F;
	 2048 : 0008;
	 2049 : 0032;
	 2050 : FFF3;
	 2051 : FFFC;
	 2052 : FFEE;
	 2053 : FFE0;
	 2054 : FFDB;
	 2055 : 002E;
	 2056 : 0032;
	 2057 : FFD1;
	 2058 : FFDC;
	 2059 : FFF8;
	 2060 : FFE0;
	 2061 : FFF2;
	 2062 : FFDA;
	 2063 : FFFC;
	 2064 : FFE9;
	 2065 : FFF1;
	 2066 : FFD6;
	 2067 : FFF9;
	 2068 : 0031;
	 2069 : FFEE;
	 2070 : 0027;
	 2071 : 0023;
	 2072 : 002E;
	 2073 : 001E;
	 2074 : 0010;
	 2075 : 0025;
	 2076 : FFD5;
	 2077 : FFFC;
	 2078 : 0032;
	 2079 : 001C;
	 2080 : 002F;
	 2081 : 001D;
	 2082 : 0026;
	 2083 : 0015;
	 2084 : 001B;
	 2085 : 0002;
	 2086 : 002B;
	 2087 : 0021;
	 2088 : 0023;
	 2089 : 0012;
	 2090 : FFEC;
	 2091 : FFD0;
	 2092 : 002D;
	 2093 : 0009;
	 2094 : FFEB;
	 2095 : FFDC;
	 2096 : 0022;
	 2097 : 0022;
	 2098 : 0020;
	 2099 : 000F;
	 2100 : FFF2;
	 2101 : FFEC;
	 2102 : FFCE;
	 2103 : 0022;
	 2104 : FFD6;
	 2105 : 000D;
	 2106 : 0000;
	 2107 : 0003;
	 2108 : 002C;
	 2109 : FFD0;
	 2110 : 001C;
	 2111 : FFD2;
	 2112 : FFD1;
	 2113 : FFF9;
	 2114 : FFD3;
	 2115 : 001E;
	 2116 : 0003;
	 2117 : FFD0;
	 2118 : FFD1;
	 2119 : 000C;
	 2120 : 001F;
	 2121 : FFFA;
	 2122 : 0006;
	 2123 : 001F;
	 2124 : 000B;
	 2125 : FFE4;
	 2126 : 000C;
	 2127 : 000D;
	 2128 : 0018;
	 2129 : 000C;
	 2130 : 0030;
	 2131 : FFE1;
	 2132 : 002E;
	 2133 : 0004;
	 2134 : 0012;
	 2135 : FFD7;
	 2136 : FFF4;
	 2137 : 001C;
	 2138 : 0015;
	 2139 : FFD1;
	 2140 : 0005;
	 2141 : FFD6;
	 2142 : 0033;
	 2143 : 0029;
	 2144 : FFCF;
	 2145 : 0025;
	 2146 : 002B;
	 2147 : FFF1;
	 2148 : 0016;
	 2149 : FFFA;
	 2150 : 0010;
	 2151 : FFF0;
	 2152 : FFEE;
	 2153 : FFF8;
	 2154 : FFDC;
	 2155 : 0022;
	 2156 : FFF1;
	 2157 : FFF6;
	 2158 : 0028;
	 2159 : 0000;
	 2160 : 0005;
	 2161 : 002F;
	 2162 : 0028;
	 2163 : FFDE;
	 2164 : FFFD;
	 2165 : 0030;
	 2166 : FFF3;
	 2167 : FFF3;
	 2168 : FFE1;
	 2169 : FFD9;
	 2170 : 0019;
	 2171 : 001C;
	 2172 : 0030;
	 2173 : 001C;
	 2174 : FFE6;
	 2175 : FFD1;
	 2176 : 0032;
	 2177 : FFF0;
	 2178 : FFED;
	 2179 : 002A;
	 2180 : 0009;
	 2181 : FFE3;
	 2182 : 0028;
	 2183 : 0033;
	 2184 : FFD6;
	 2185 : 0025;
	 2186 : FFF5;
	 2187 : 0002;
	 2188 : 002A;
	 2189 : 0030;
	 2190 : FFE8;
	 2191 : FFE3;
	 2192 : FFD5;
	 2193 : 0006;
	 2194 : FFCE;
	 2195 : FFF7;
	 2196 : FFD4;
	 2197 : FFF6;
	 2198 : FFD1;
	 2199 : 0022;
	 2200 : FFE2;
	 2201 : FFEE;
	 2202 : 0026;
	 2203 : 0019;
	 2204 : FFE3;
	 2205 : FFD4;
	 2206 : 0016;
	 2207 : FFF5;
	 2208 : 001B;
	 2209 : FFFA;
	 2210 : FFF0;
	 2211 : FFFB;
	 2212 : 0019;
	 2213 : 0029;
	 2214 : FFD2;
	 2215 : 0002;
	 2216 : FFD0;
	 2217 : FFFD;
	 2218 : 0027;
	 2219 : FFF2;
	 2220 : 002C;
	 2221 : 000D;
	 2222 : 002C;
	 2223 : 001A;
	 2224 : FFD7;
	 2225 : FFE4;
	 2226 : FFF5;
	 2227 : FFDE;
	 2228 : FFFF;
	 2229 : FFFD;
	 2230 : 002F;
	 2231 : FFF9;
	 2232 : 001D;
	 2233 : 002D;
	 2234 : 0027;
	 2235 : FFE2;
	 2236 : 0000;
	 2237 : FFF0;
	 2238 : FFF6;
	 2239 : FFF2;
	 2240 : 0021;
	 2241 : FFFB;
	 2242 : 0002;
	 2243 : 0031;
	 2244 : FFD3;
	 2245 : FFFF;
	 2246 : 001C;
	 2247 : FFDC;
	 2248 : 000B;
	 2249 : FFE5;
	 2250 : 0026;
	 2251 : FFEE;
	 2252 : FFEE;
	 2253 : 000A;
	 2254 : FFE0;
	 2255 : FFEA;
	 2256 : FFF7;
	 2257 : FFF1;
	 2258 : 0003;
	 2259 : 000A;
	 2260 : 0007;
	 2261 : 0010;
	 2262 : FFEC;
	 2263 : FFDA;
	 2264 : 001B;
	 2265 : 0024;
	 2266 : FFE7;
	 2267 : FFF6;
	 2268 : 0000;
	 2269 : 0003;
	 2270 : 0010;
	 2271 : FFD1;
	 2272 : 0017;
	 2273 : FFD3;
	 2274 : FFFD;
	 2275 : 0022;
	 2276 : FFFB;
	 2277 : FFDC;
	 2278 : 0032;
	 2279 : 0028;
	 2280 : 001C;
	 2281 : FFF7;
	 2282 : FFE0;
	 2283 : 002D;
	 2284 : 0003;
	 2285 : 0024;
	 2286 : FFF0;
	 2287 : FFEF;
	 2288 : 0032;
	 2289 : 0002;
	 2290 : FFDB;
	 2291 : FFE3;
	 2292 : FFFE;
	 2293 : FFD1;
	 2294 : FFFC;
	 2295 : FFF8;
	 2296 : 001D;
	 2297 : FFF1;
	 2298 : 0031;
	 2299 : FFDF;
	 2300 : 0009;
	 2301 : FFD6;
	 2302 : 0018;
	 2303 : 0033;
	 2304 : 0021;
	 2305 : 0006;
	 2306 : FFFE;
	 2307 : 0022;
	 2308 : 002D;
	 2309 : 0032;
	 2310 : FFF5;
	 2311 : 0032;
	 2312 : FFDD;
	 2313 : FFE7;
	 2314 : FFD6;
	 2315 : FFE9;
	 2316 : 001B;
	 2317 : 0024;
	 2318 : 001D;
	 2319 : 000D;
	 2320 : 0001;
	 2321 : 0015;
	 2322 : FFF5;
	 2323 : 0023;
	 2324 : 0012;
	 2325 : 0014;
	 2326 : 0004;
	 2327 : 0027;
	 2328 : FFE7;
	 2329 : FFF4;
	 2330 : 001C;
	 2331 : FFFF;
	 2332 : 0028;
	 2333 : FFF0;
	 2334 : FFF3;
	 2335 : 0028;
	 2336 : FFFC;
	 2337 : 0002;
	 2338 : FFEF;
	 2339 : FFE9;
	 2340 : 0010;
	 2341 : FFD9;
	 2342 : 0027;
	 2343 : 001D;
	 2344 : FFE0;
	 2345 : 0014;
	 2346 : 000B;
	 2347 : FFE0;
	 2348 : FFE9;
	 2349 : FFF7;
	 2350 : 0014;
	 2351 : 000E;
	 2352 : 0003;
	 2353 : 001B;
	 2354 : 001A;
	 2355 : 000C;
	 2356 : 001D;
	 2357 : FFEF;
	 2358 : 0027;
	 2359 : 000C;
	 2360 : 0021;
	 2361 : 0005;
	 2362 : FFE3;
	 2363 : 0004;
	 2364 : FFF3;
	 2365 : 0014;
	 2366 : FFFE;
	 2367 : 0022;
	 2368 : 0012;
	 2369 : 0013;
	 2370 : FFE3;
	 2371 : 0032;
	 2372 : 0023;
	 2373 : 001E;
	 2374 : FFEF;
	 2375 : 0004;
	 2376 : FFDB;
	 2377 : 0004;
	 2378 : FFDC;
	 2379 : 0005;
	 2380 : 000F;
	 2381 : FFF5;
	 2382 : 0000;
	 2383 : 0026;
	 2384 : FFD8;
	 2385 : 001E;
	 2386 : FFDE;
	 2387 : FFD1;
	 2388 : FFE0;
	 2389 : 001B;
	 2390 : FFF6;
	 2391 : 0026;
	 2392 : 0003;
	 2393 : FFCF;
	 2394 : 0016;
	 2395 : FFD8;
	 2396 : 001E;
	 2397 : FFDE;
	 2398 : FFF0;
	 2399 : 001B;
	 2400 : 002F;
	 2401 : FFF3;
	 2402 : 0022;
	 2403 : FFE0;
	 2404 : 001F;
	 2405 : 0010;
	 2406 : FFE1;
	 2407 : FFEC;
	 2408 : FFDA;
	 2409 : FFF4;
	 2410 : FFE2;
	 2411 : 000F;
	 2412 : 0033;
	 2413 : FFCE;
	 2414 : 0004;
	 2415 : 0008;
	 2416 : 002A;
	 2417 : 0001;
	 2418 : 0004;
	 2419 : FFFD;
	 2420 : FFE8;
	 2421 : FFD3;
	 2422 : FFF7;
	 2423 : FFD2;
	 2424 : 0005;
	 2425 : FFEC;
	 2426 : 0003;
	 2427 : FFDB;
	 2428 : 002C;
	 2429 : 0028;
	 2430 : FFE0;
	 2431 : FFF0;
	 2432 : 000C;
	 2433 : FFD7;
	 2434 : FFF1;
	 2435 : FFE7;
	 2436 : 002B;
	 2437 : 0024;
	 2438 : 0008;
	 2439 : 0002;
	 2440 : 002C;
	 2441 : 002C;
	 2442 : 0030;
	 2443 : FFDA;
	 2444 : FFDD;
	 2445 : 0012;
	 2446 : 0004;
	 2447 : FFCF;
	 2448 : FFD3;
	 2449 : 0028;
	 2450 : 0026;
	 2451 : FFF1;
	 2452 : 0028;
	 2453 : 000A;
	 2454 : 001F;
	 2455 : FFF9;
	 2456 : FFD8;
	 2457 : FFF9;
	 2458 : FFFC;
	 2459 : 0005;
	 2460 : FFD8;
	 2461 : 0032;
	 2462 : FFE6;
	 2463 : FFE1;
	 2464 : 0003;
	 2465 : 0004;
	 2466 : FFFA;
	 2467 : 001C;
	 2468 : 0002;
	 2469 : 000B;
	 2470 : 0017;
	 2471 : FFCF;
	 2472 : 0007;
	 2473 : 0027;
	 2474 : FFCF;
	 2475 : FFF6;
	 2476 : 002C;
	 2477 : FFF1;
	 2478 : FFFC;
	 2479 : 0031;
	 2480 : FFE1;
	 2481 : FFD3;
	 2482 : 0025;
	 2483 : 0026;
	 2484 : FFFD;
	 2485 : 0001;
	 2486 : 0022;
	 2487 : 0018;
	 2488 : FFE8;
	 2489 : FFCF;
	 2490 : FFFE;
	 2491 : 0025;
	 2492 : 0029;
	 2493 : 002F;
	 2494 : 0027;
	 2495 : 0008;
	 2496 : FFFA;
	 2497 : 001C;
	 2498 : 0019;
	 2499 : 0004;
	 2500 : FFD6;
	 2501 : 002C;
	 2502 : FFFB;
	 2503 : FFF2;
	 2504 : 000D;
	 2505 : 0012;
	 2506 : FFE2;
	 2507 : 0023;
	 2508 : FFEA;
	 2509 : FFE0;
	 2510 : FFF6;
	 2511 : 0018;
	 2512 : 0030;
	 2513 : 0020;
	 2514 : 002D;
	 2515 : FFDB;
	 2516 : FFD4;
	 2517 : 0006;
	 2518 : FFEB;
	 2519 : 0022;
	 2520 : 0012;
	 2521 : 0030;
	 2522 : FFE7;
	 2523 : FFFF;
	 2524 : 0000;
	 2525 : FFE5;
	 2526 : 0009;
	 2527 : FFFA;
	 2528 : FFFB;
	 2529 : FFF2;
	 2530 : FFCF;
	 2531 : 0002;
	 2532 : FFEF;
	 2533 : FFCD;
	 2534 : FFEC;
	 2535 : FFE9;
	 2536 : FFF5;
	 2537 : FFDA;
	 2538 : 0001;
	 2539 : 0014;
	 2540 : 000D;
	 2541 : 001F;
	 2542 : FFFB;
	 2543 : 0002;
	 2544 : 0020;
	 2545 : FFF9;
	 2546 : 0015;
	 2547 : FFF9;
	 2548 : FFF8;
	 2549 : 001B;
	 2550 : FFDF;
	 2551 : FFEF;
	 2552 : FFE4;
	 2553 : FFF2;
	 2554 : FFE4;
	 2555 : 0008;
	 2556 : 001F;
	 2557 : 001D;
	 2558 : FFF2;
	 2559 : 0032;
	 2560 : 000A;
	 2561 : FFF6;
	 2562 : 0022;
	 2563 : 0018;
	 2564 : 001A;
	 2565 : FFE1;
	 2566 : FFFD;
	 2567 : 0025;
	 2568 : 0000;
	 2569 : 0013;
	 2570 : 0009;
	 2571 : 0023;
	 2572 : FFEA;
	 2573 : 0008;
	 2574 : FFD9;
	 2575 : 0013;
	 2576 : 0018;
	 2577 : FFD1;
	 2578 : 0012;
	 2579 : FFF7;
	 2580 : FFDA;
	 2581 : FFF8;
	 2582 : FFE1;
	 2583 : FFF7;
	 2584 : FFF4;
	 2585 : 0018;
	 2586 : 001C;
	 2587 : 000B;
	 2588 : FFCF;
	 2589 : 002C;
	 2590 : 0013;
	 2591 : FFD0;
	 2592 : 0021;
	 2593 : FFE1;
	 2594 : 0008;
	 2595 : FFFD;
	 2596 : FFF8;
	 2597 : 0028;
	 2598 : FFFA;
	 2599 : FFD5;
	 2600 : 002E;
	 2601 : 002B;
	 2602 : 0013;
	 2603 : FFFD;
	 2604 : FFD6;
	 2605 : 001E;
	 2606 : FFD5;
	 2607 : FFD4;
	 2608 : 0004;
	 2609 : FFDD;
	 2610 : FFCE;
	 2611 : FFF8;
	 2612 : FFDB;
	 2613 : FFDD;
	 2614 : FFD5;
	 2615 : FFE2;
	 2616 : 0016;
	 2617 : 0020;
	 2618 : FFFB;
	 2619 : 0001;
	 2620 : FFD0;
	 2621 : FFD4;
	 2622 : FFE7;
	 2623 : 0004;
	 2624 : 0019;
	 2625 : 000B;
	 2626 : FFF5;
	 2627 : FFD9;
	 2628 : 001D;
	 2629 : FFF2;
	 2630 : 0018;
	 2631 : 0001;
	 2632 : 0018;
	 2633 : 002A;
	 2634 : 002B;
	 2635 : 0004;
	 2636 : 0001;
	 2637 : FFE8;
	 2638 : 002D;
	 2639 : FFFC;
	 2640 : FFDA;
	 2641 : FFF9;
	 2642 : FFDA;
	 2643 : 0000;
	 2644 : 0006;
	 2645 : FFEF;
	 2646 : FFD4;
	 2647 : 002D;
	 2648 : 001C;
	 2649 : 0023;
	 2650 : FFF2;
	 2651 : 001B;
	 2652 : FFFF;
	 2653 : FFE1;
	 2654 : FFDA;
	 2655 : FFF0;
	 2656 : FFDB;
	 2657 : 0033;
	 2658 : FFD2;
	 2659 : FFFA;
	 2660 : FFFB;
	 2661 : FFEC;
	 2662 : 0007;
	 2663 : FFDC;
	 2664 : 001D;
	 2665 : FFEF;
	 2666 : 0009;
	 2667 : 0016;
	 2668 : 0028;
	 2669 : 0022;
	 2670 : 000B;
	 2671 : FFF5;
	 2672 : 0000;
	 2673 : 001C;
	 2674 : 0027;
	 2675 : FFD7;
	 2676 : FFF4;
	 2677 : 001C;
	 2678 : FFF9;
	 2679 : FFEF;
	 2680 : FFF7;
	 2681 : 000B;
	 2682 : 0033;
	 2683 : FFFF;
	 2684 : FFE2;
	 2685 : FFDD;
	 2686 : FFD1;
	 2687 : 0006;
	 2688 : 0005;
	 2689 : FFE2;
	 2690 : 0014;
	 2691 : 0019;
	 2692 : FFE7;
	 2693 : FFF0;
	 2694 : 0032;
	 2695 : FFF3;
	 2696 : 001B;
	 2697 : FFFB;
	 2698 : 001E;
	 2699 : 001C;
	 2700 : 0011;
	 2701 : 0024;
	 2702 : 002D;
	 2703 : 0008;
	 2704 : FFE5;
	 2705 : FFF6;
	 2706 : 001A;
	 2707 : 000F;
	 2708 : FFDF;
	 2709 : FFD2;
	 2710 : 0013;
	 2711 : FFE7;
	 2712 : 0000;
	 2713 : 0019;
	 2714 : 0006;
	 2715 : FFD5;
	 2716 : FFE0;
	 2717 : FFE3;
	 2718 : FFE7;
	 2719 : 0007;
	 2720 : 0000;
	 2721 : FFE2;
	 2722 : FFD4;
	 2723 : FFDE;
	 2724 : 0032;
	 2725 : FFFD;
	 2726 : 0026;
	 2727 : 0024;
	 2728 : 0001;
	 2729 : 0015;
	 2730 : FFE1;
	 2731 : 0013;
	 2732 : FFE9;
	 2733 : 0022;
	 2734 : FFD5;
	 2735 : 001C;
	 2736 : FFD7;
	 2737 : 0027;
	 2738 : FFEC;
	 2739 : 0010;
	 2740 : FFFF;
	 2741 : FFF2;
	 2742 : 000F;
	 2743 : 002E;
	 2744 : FFD1;
	 2745 : 002B;
	 2746 : 000B;
	 2747 : 001F;
	 2748 : FFF4;
	 2749 : FFFD;
	 2750 : 0026;
	 2751 : FFF7;
	 2752 : 0004;
	 2753 : FFCF;
	 2754 : FFDD;
	 2755 : 000F;
	 2756 : 0016;
	 2757 : 0008;
	 2758 : FFDB;
	 2759 : FFFA;
	 2760 : FFF1;
	 2761 : 0000;
	 2762 : 0026;
	 2763 : 001C;
	 2764 : FFD5;
	 2765 : 0028;
	 2766 : FFFD;
	 2767 : 0019;
	 2768 : FFDB;
	 2769 : 0011;
	 2770 : FFE5;
	 2771 : FFFA;
	 2772 : FFCF;
	 2773 : FFDC;
	 2774 : FFD6;
	 2775 : FFE5;
	 2776 : FFD7;
	 2777 : 0014;
	 2778 : FFD0;
	 2779 : 000C;
	 2780 : FFDB;
	 2781 : 002E;
	 2782 : 002C;
	 2783 : FFE4;
	 2784 : 000C;
	 2785 : FFD0;
	 2786 : 002C;
	 2787 : 0002;
	 2788 : FFD1;
	 2789 : FFF0;
	 2790 : FFD5;
	 2791 : FFF5;
	 2792 : 0011;
	 2793 : FFFD;
	 2794 : FFF4;
	 2795 : FFD9;
	 2796 : FFE6;
	 2797 : FFD7;
	 2798 : 001F;
	 2799 : FFDB;
	 2800 : 000A;
	 2801 : FFF0;
	 2802 : FFE4;
	 2803 : 000E;
	 2804 : FFFC;
	 2805 : FFF6;
	 2806 : 000A;
	 2807 : FFFF;
	 2808 : FFEC;
	 2809 : 0006;
	 2810 : 0011;
	 2811 : FFD0;
	 2812 : FFFD;
	 2813 : FFD3;
	 2814 : FFE0;
	 2815 : 0006;
	 2816 : 0025;
	 2817 : 0027;
	 2818 : FFD4;
	 2819 : FFF8;
	 2820 : 0008;
	 2821 : FFDC;
	 2822 : 001B;
	 2823 : 0019;
	 2824 : 0029;
	 2825 : FFCE;
	 2826 : FFE3;
	 2827 : 0022;
	 2828 : 0011;
	 2829 : 0028;
	 2830 : FFD3;
	 2831 : 000A;
	 2832 : 0007;
	 2833 : FFD0;
	 2834 : 0001;
	 2835 : 000B;
	 2836 : FFE0;
	 2837 : FFE9;
	 2838 : 000E;
	 2839 : FFFD;
	 2840 : 0025;
	 2841 : FFF0;
	 2842 : FFE8;
	 2843 : 0032;
	 2844 : 002A;
	 2845 : FFD0;
	 2846 : 001C;
	 2847 : FFD8;
	 2848 : FFD0;
	 2849 : FFE9;
	 2850 : FFE8;
	 2851 : 0021;
	 2852 : 0016;
	 2853 : 0031;
	 2854 : 0016;
	 2855 : FFF8;
	 2856 : 0014;
	 2857 : 0033;
	 2858 : 0016;
	 2859 : 001B;
	 2860 : 002D;
	 2861 : FFD8;
	 2862 : 0015;
	 2863 : 0024;
	 2864 : 002F;
	 2865 : FFE2;
	 2866 : 0000;
	 2867 : 0012;
	 2868 : FFE6;
	 2869 : 000A;
	 2870 : FFE7;
	 2871 : FFEF;
	 2872 : FFFA;
	 2873 : 0003;
	 2874 : FFFB;
	 2875 : FFFF;
	 2876 : FFEB;
	 2877 : FFDD;
	 2878 : FFD2;
	 2879 : FFE1;
	 2880 : 0008;
	 2881 : 001D;
	 2882 : FFDE;
	 2883 : FFD8;
	 2884 : 001A;
	 2885 : FFEC;
	 2886 : 002E;
	 2887 : 0016;
	 2888 : FFEE;
	 2889 : FFEA;
	 2890 : 0002;
	 2891 : FFD5;
	 2892 : FFD9;
	 2893 : FFDF;
	 2894 : 001C;
	 2895 : 0001;
	 2896 : FFCE;
	 2897 : 0012;
	 2898 : FFF8;
	 2899 : 0001;
	 2900 : FFE3;
	 2901 : 0005;
	 2902 : 0031;
	 2903 : FFD4;
	 2904 : FFEA;
	 2905 : FFE6;
	 2906 : FFE6;
	 2907 : FFF4;
	 2908 : 0021;
	 2909 : 002A;
	 2910 : FFE2;
	 2911 : 0004;
	 2912 : 000E;
	 2913 : 0002;
	 2914 : FFF9;
	 2915 : FFE0;
	 2916 : FFFF;
	 2917 : FFF6;
	 2918 : 001E;
	 2919 : 001B;
	 2920 : FFDB;
	 2921 : FFD6;
	 2922 : 002A;
	 2923 : 0004;
	 2924 : 0025;
	 2925 : FFD3;
	 2926 : 0003;
	 2927 : 0004;
	 2928 : 0025;
	 2929 : FFD7;
	 2930 : FFE5;
	 2931 : FFF6;
	 2932 : 0025;
	 2933 : 002D;
	 2934 : 0032;
	 2935 : 002F;
	 2936 : FFCD;
	 2937 : FFD2;
	 2938 : FFDC;
	 2939 : FFF1;
	 2940 : 0022;
	 2941 : 0028;
	 2942 : FFE0;
	 2943 : 000C;
	 2944 : 002B;
	 2945 : FFFC;
	 2946 : FFD7;
	 2947 : FFFC;
	 2948 : FFF3;
	 2949 : 0008;
	 2950 : FFFA;
	 2951 : FFCF;
	 2952 : 0033;
	 2953 : 0004;
	 2954 : FFFD;
	 2955 : 002F;
	 2956 : FFDD;
	 2957 : FFE0;
	 2958 : 0020;
	 2959 : FFE8;
	 2960 : 001F;
	 2961 : FFE9;
	 2962 : FFD0;
	 2963 : 0002;
	 2964 : FFE1;
	 2965 : 001A;
	 2966 : 000E;
	 2967 : 002B;
	 2968 : 001D;
	 2969 : FFDF;
	 2970 : 001F;
	 2971 : 000F;
	 2972 : 0011;
	 2973 : 0022;
	 2974 : 0008;
	 2975 : FFFD;
	 2976 : 000E;
	 2977 : FFEB;
	 2978 : FFDF;
	 2979 : 000C;
	 2980 : FFE5;
	 2981 : FFD5;
	 2982 : FFCD;
	 2983 : 000B;
	 2984 : FFF2;
	 2985 : 001A;
	 2986 : FFF3;
	 2987 : FFFF;
	 2988 : FFF6;
	 2989 : 000F;
	 2990 : FFF1;
	 2991 : 002F;
	 2992 : 002D;
	 2993 : 0024;
	 2994 : 002B;
	 2995 : FFFB;
	 2996 : 0004;
	 2997 : 0019;
	 2998 : 0014;
	 2999 : 0028;
	 3000 : 0016;
	 3001 : 0033;
	 3002 : FFF0;
	 3003 : 0022;
	 3004 : 0014;
	 3005 : 0014;
	 3006 : FFEE;
	 3007 : 001D;
	 3008 : 0029;
	 3009 : FFE3;
	 3010 : 000D;
	 3011 : FFF5;
	 3012 : 0032;
	 3013 : FFFE;
	 3014 : FFE4;
	 3015 : FFF4;
	 3016 : 0010;
	 3017 : FFD5;
	 3018 : 000B;
	 3019 : 002C;
	 3020 : 0024;
	 3021 : FFD4;
	 3022 : 0033;
	 3023 : 0014;
	 3024 : FFDD;
	 3025 : FFCE;
	 3026 : FFDE;
	 3027 : 0023;
	 3028 : FFCF;
	 3029 : FFE5;
	 3030 : 001A;
	 3031 : 0009;
	 3032 : 001D;
	 3033 : 0019;
	 3034 : FFD2;
	 3035 : 0028;
	 3036 : FFE4;
	 3037 : 0005;
	 3038 : 000F;
	 3039 : FFDE;
	 3040 : 0031;
	 3041 : FFFF;
	 3042 : FFD3;
	 3043 : 002D;
	 3044 : 0009;
	 3045 : 0014;
	 3046 : 0003;
	 3047 : 0022;
	 3048 : FFD0;
	 3049 : FFE8;
	 3050 : FFFD;
	 3051 : FFD5;
	 3052 : 0015;
	 3053 : FFF5;
	 3054 : FFE9;
	 3055 : FFCD;
	 3056 : 0017;
	 3057 : 0022;
	 3058 : FFF5;
	 3059 : 0007;
	 3060 : FFE4;
	 3061 : 000D;
	 3062 : FFCE;
	 3063 : FFFF;
	 3064 : 000F;
	 3065 : 002B;
	 3066 : FFF4;
	 3067 : 001B;
	 3068 : 000A;
	 3069 : 002C;
	 3070 : FFF6;
	 3071 : FFED;
	 3072 : 0028;
	 3073 : FFD2;
	 3074 : FFDB;
	 3075 : FFD5;
	 3076 : 0023;
	 3077 : FFCE;
	 3078 : 0025;
	 3079 : FFFB;
	 3080 : FFCD;
	 3081 : FFF6;
	 3082 : FFE0;
	 3083 : 000D;
	 3084 : 0012;
	 3085 : FFFF;
	 3086 : FFD1;
	 3087 : 0010;
	 3088 : 0023;
	 3089 : 0017;
	 3090 : 0022;
	 3091 : FFE1;
	 3092 : 0028;
	 3093 : FFEE;
	 3094 : FFCE;
	 3095 : 0023;
	 3096 : 002D;
	 3097 : 0010;
	 3098 : FFE4;
	 3099 : FFE7;
	 3100 : FFFD;
	 3101 : 0029;
	 3102 : FFDC;
	 3103 : 0021;
	 3104 : FFEB;
	 3105 : 0020;
	 3106 : 002B;
	 3107 : FFF9;
	 3108 : FFF2;
	 3109 : 001F;
	 3110 : 0003;
	 3111 : 0013;
	 3112 : 000D;
	 3113 : FFDC;
	 3114 : 0023;
	 3115 : FFE1;
	 3116 : 002C;
	 3117 : FFE6;
	 3118 : 0018;
	 3119 : FFEA;
	 3120 : FFED;
	 3121 : FFED;
	 3122 : 0019;
	 3123 : 0006;
	 3124 : 0027;
	 3125 : FFEC;
	 3126 : 0014;
	 3127 : 001A;
	 3128 : FFDC;
	 3129 : FFF6;
	 3130 : FFFE;
	 3131 : FFF1;
	 3132 : FFEE;
	 3133 : 0013;
	 3134 : FFE3;
	 3135 : 0015;
	 3136 : 002D;
	 3137 : 0007;
	 3138 : 000B;
	 3139 : FFD4;
	 3140 : 0025;
	 3141 : FFEA;
	 3142 : 000C;
	 3143 : 0031;
	 3144 : 000A;
	 3145 : 0017;
	 3146 : FFFA;
	 3147 : FFD3;
	 3148 : 001E;
	 3149 : FFD0;
	 3150 : 0015;
	 3151 : FFCF;
	 3152 : 0025;
	 3153 : FFDD;
	 3154 : 0001;
	 3155 : 000A;
	 3156 : FFFC;
	 3157 : FFF0;
	 3158 : FFFD;
	 3159 : FFED;
	 3160 : FFFA;
	 3161 : FFF2;
	 3162 : 0007;
	 3163 : FFE5;
	 3164 : 0032;
	 3165 : 0000;
	 3166 : FFE1;
	 3167 : FFFE;
	 3168 : 0026;
	 3169 : FFCF;
	 3170 : 0012;
	 3171 : 0005;
	 3172 : FFDE;
	 3173 : 0021;
	 3174 : FFF3;
	 3175 : FFEB;
	 3176 : 0022;
	 3177 : 000E;
	 3178 : 0029;
	 3179 : 000D;
	 3180 : 0019;
	 3181 : 0022;
	 3182 : FFD2;
	 3183 : 001C;
	 3184 : 000C;
	 3185 : FFD4;
	 3186 : 0001;
	 3187 : FFD5;
	 3188 : 0018;
	 3189 : 0005;
	 3190 : 002E;
	 3191 : FFE0;
	 3192 : 000B;
	 3193 : FFE2;
	 3194 : 000C;
	 3195 : 0017;
	 3196 : 0017;
	 3197 : 0020;
	 3198 : 0024;
	 3199 : FFD5;
	 3200 : FFF0;
	 3201 : 0013;
	 3202 : 0000;
	 3203 : FFE0;
	 3204 : 0005;
	 3205 : FFF7;
	 3206 : FFF5;
	 3207 : 0020;
	 3208 : FFF7;
	 3209 : FFD0;
	 3210 : FFD3;
	 3211 : 0024;
	 3212 : 002F;
	 3213 : 0013;
	 3214 : FFF2;
	 3215 : 002D;
	 3216 : 0011;
	 3217 : 0023;
	 3218 : 001B;
	 3219 : FFF4;
	 3220 : FFFE;
	 3221 : FFE0;
	 3222 : FFEB;
	 3223 : 001C;
	 3224 : 0028;
	 3225 : 0017;
	 3226 : FFFC;
	 3227 : FFD6;
	 3228 : FFD3;
	 3229 : FFF3;
	 3230 : FFFC;
	 3231 : 000B;
	 3232 : FFCD;
	 3233 : 0032;
	 3234 : FFF2;
	 3235 : 0024;
	 3236 : 0004;
	 3237 : FFDA;
	 3238 : 001E;
	 3239 : 0015;
	 3240 : 0003;
	 3241 : 0001;
	 3242 : FFD6;
	 3243 : 0010;
	 3244 : 002A;
	 3245 : FFD6;
	 3246 : FFE8;
	 3247 : 0029;
	 3248 : FFEA;
	 3249 : 0010;
	 3250 : 0004;
	 3251 : 000A;
	 3252 : FFF7;
	 3253 : FFEC;
	 3254 : FFD2;
	 3255 : 0019;
	 3256 : 0019;
	 3257 : 0011;
	 3258 : 000F;
	 3259 : FFE6;
	 3260 : FFCF;
	 3261 : 0020;
	 3262 : FFFF;
	 3263 : FFEC;
	 3264 : FFD7;
	 3265 : FFD3;
	 3266 : FFF1;
	 3267 : 001F;
	 3268 : 002B;
	 3269 : 0029;
	 3270 : 002B;
	 3271 : 002A;
	 3272 : 0003;
	 3273 : FFE3;
	 3274 : 001F;
	 3275 : FFE3;
	 3276 : FFE8;
	 3277 : FFE5;
	 3278 : 0002;
	 3279 : FFEE;
	 3280 : FFDD;
	 3281 : FFFB;
	 3282 : 0026;
	 3283 : 0007;
	 3284 : 0027;
	 3285 : FFE1;
	 3286 : FFDE;
	 3287 : 0008;
	 3288 : FFFC;
	 3289 : 0010;
	 3290 : 001E;
	 3291 : 001A;
	 3292 : 002D;
	 3293 : FFF6;
	 3294 : FFE2;
	 3295 : 0005;
	 3296 : FFD8;
	 3297 : FFEA;
	 3298 : FFE2;
	 3299 : FFF5;
	 3300 : FFD8;
	 3301 : FFD0;
	 3302 : 0010;
	 3303 : 000B;
	 3304 : 0015;
	 3305 : 0010;
	 3306 : FFD9;
	 3307 : FFEB;
	 3308 : FFDA;
	 3309 : 0023;
	 3310 : 0019;
	 3311 : FFE1;
	 3312 : FFF0;
	 3313 : 0030;
	 3314 : 000A;
	 3315 : 001F;
	 3316 : FFE8;
	 3317 : FFE2;
	 3318 : 001D;
	 3319 : 0013;
	 3320 : 0013;
	 3321 : 0005;
	 3322 : 0007;
	 3323 : 0018;
	 3324 : FFE8;
	 3325 : FFF1;
	 3326 : 0026;
	 3327 : FFEC;
	 3328 : 0005;
	 3329 : 0015;
	 3330 : 0033;
	 3331 : FFF9;
	 3332 : FFF9;
	 3333 : 0023;
	 3334 : 001F;
	 3335 : 0018;
	 3336 : FFFC;
	 3337 : FFEE;
	 3338 : 000B;
	 3339 : 0027;
	 3340 : 0027;
	 3341 : FFD8;
	 3342 : FFF9;
	 3343 : FFFC;
	 3344 : 0031;
	 3345 : 0012;
	 3346 : FFF7;
	 3347 : FFCF;
	 3348 : 0007;
	 3349 : FFD7;
	 3350 : 0022;
	 3351 : 001A;
	 3352 : FFFC;
	 3353 : FFF9;
	 3354 : 0029;
	 3355 : FFEA;
	 3356 : FFE6;
	 3357 : 002D;
	 3358 : 0020;
	 3359 : 0021;
	 3360 : FFE1;
	 3361 : FFDB;
	 3362 : FFCF;
	 3363 : FFE5;
	 3364 : 001C;
	 3365 : FFE5;
	 3366 : 0017;
	 3367 : FFE7;
	 3368 : FFF5;
	 3369 : 0031;
	 3370 : FFE6;
	 3371 : FFF3;
	 3372 : FFEC;
	 3373 : FFD8;
	 3374 : FFFF;
	 3375 : FFF4;
	 3376 : 0014;
	 3377 : 0021;
	 3378 : 0005;
	 3379 : FFD0;
	 3380 : 000C;
	 3381 : FFD2;
	 3382 : 000C;
	 3383 : 0013;
	 3384 : FFE1;
	 3385 : 0021;
	 3386 : 002A;
	 3387 : 0020;
	 3388 : FFEC;
	 3389 : 0009;
	 3390 : 002A;
	 3391 : FFEE;
	 3392 : 0021;
	 3393 : FFCE;
	 3394 : FFCD;
	 3395 : 001B;
	 3396 : 001B;
	 3397 : 001E;
	 3398 : 002C;
	 3399 : FFD9;
	 3400 : FFE5;
	 3401 : 0029;
	 3402 : FFDF;
	 3403 : 0013;
	 3404 : 0003;
	 3405 : FFD5;
	 3406 : FFEA;
	 3407 : 0002;
	 3408 : 0024;
	 3409 : 0015;
	 3410 : 000C;
	 3411 : 0000;
	 3412 : FFEB;
	 3413 : FFD9;
	 3414 : FFF7;
	 3415 : FFD0;
	 3416 : FFE2;
	 3417 : FFF9;
	 3418 : FFF8;
	 3419 : FFD1;
	 3420 : 0009;
	 3421 : 0005;
	 3422 : FFD5;
	 3423 : 002D;
	 3424 : FFD7;
	 3425 : 0024;
	 3426 : FFCD;
	 3427 : 0027;
	 3428 : FFCF;
	 3429 : 001A;
	 3430 : FFF2;
	 3431 : 0018;
	 3432 : FFF6;
	 3433 : FFD4;
	 3434 : 001B;
	 3435 : FFD4;
	 3436 : 002B;
	 3437 : FFD2;
	 3438 : FFFE;
	 3439 : 0017;
	 3440 : FFF5;
	 3441 : FFE3;
	 3442 : 001B;
	 3443 : 001D;
	 3444 : 002B;
	 3445 : FFF3;
	 3446 : 0001;
	 3447 : FFF2;
	 3448 : FFE7;
	 3449 : 001A;
	 3450 : FFF0;
	 3451 : FFF9;
	 3452 : FFF6;
	 3453 : 0016;
	 3454 : 002B;
	 3455 : 0011;
	 3456 : FFFD;
	 3457 : 001D;
	 3458 : 000E;
	 3459 : FFD3;
	 3460 : FFD7;
	 3461 : FFD1;
	 3462 : FFFC;
	 3463 : 0021;
	 3464 : FFED;
	 3465 : FFF4;
	 3466 : 002A;
	 3467 : 0022;
	 3468 : 0011;
	 3469 : FFE8;
	 3470 : FFD9;
	 3471 : FFCE;
	 3472 : FFD8;
	 3473 : FFEB;
	 3474 : 0005;
	 3475 : FFD3;
	 3476 : FFDB;
	 3477 : FFDF;
	 3478 : 000E;
	 3479 : 000C;
	 3480 : 0005;
	 3481 : FFE6;
	 3482 : FFF3;
	 3483 : FFD7;
	 3484 : FFE4;
	 3485 : 0029;
	 3486 : 0031;
	 3487 : 000F;
	 3488 : 002B;
	 3489 : 000F;
	 3490 : FFD0;
	 3491 : 0033;
	 3492 : FFD7;
	 3493 : 0013;
	 3494 : FFE7;
	 3495 : FFF5;
	 3496 : 000F;
	 3497 : FFF9;
	 3498 : FFE6;
	 3499 : FFEF;
	 3500 : FFF0;
	 3501 : 002F;
	 3502 : 001F;
	 3503 : FFFC;
	 3504 : FFE1;
	 3505 : 0020;
	 3506 : FFDD;
	 3507 : FFE2;
	 3508 : FFF2;
	 3509 : 0027;
	 3510 : FFDA;
	 3511 : FFD9;
	 3512 : FFFF;
	 3513 : FFE9;
	 3514 : 0007;
	 3515 : FFFB;
	 3516 : FFF9;
	 3517 : FFD8;
	 3518 : FFDB;
	 3519 : 0021;
	 3520 : 0028;
	 3521 : FFE5;
	 3522 : FFD8;
	 3523 : FFD2;
	 3524 : 000B;
	 3525 : 0016;
	 3526 : FFF3;
	 3527 : 0012;
	 3528 : 0016;
	 3529 : 002D;
	 3530 : FFD3;
	 3531 : FFE0;
	 3532 : FFD4;
	 3533 : 0026;
	 3534 : 001E;
	 3535 : 0008;
	 3536 : FFD5;
	 3537 : FFE9;
	 3538 : FFEB;
	 3539 : 0006;
	 3540 : FFE7;
	 3541 : FFD4;
	 3542 : 0018;
	 3543 : FFEB;
	 3544 : FFFB;
	 3545 : FFDA;
	 3546 : 001F;
	 3547 : 0007;
	 3548 : 0029;
	 3549 : 0000;
	 3550 : 002D;
	 3551 : 0028;
	 3552 : 0008;
	 3553 : 002C;
	 3554 : FFEE;
	 3555 : FFF2;
	 3556 : FFD1;
	 3557 : 0009;
	 3558 : 0017;
	 3559 : 001C;
	 3560 : FFDC;
	 3561 : FFFA;
	 3562 : FFDF;
	 3563 : 0011;
	 3564 : FFDD;
	 3565 : 0029;
	 3566 : FFE4;
	 3567 : FFEB;
	 3568 : 0024;
	 3569 : FFFC;
	 3570 : FFCF;
	 3571 : FFFF;
	 3572 : FFD5;
	 3573 : 0032;
	 3574 : 0009;
	 3575 : FFE7;
	 3576 : 0007;
	 3577 : FFD5;
	 3578 : 001F;
	 3579 : 002C;
	 3580 : 0026;
	 3581 : FFF0;
	 3582 : FFEE;
	 3583 : FFD0;
	 3584 : 0010;
	 3585 : 0004;
	 3586 : FFFC;
	 3587 : 002A;
	 3588 : FFDE;
	 3589 : FFCE;
	 3590 : FFD4;
	 3591 : FFE4;
	 3592 : FFD0;
	 3593 : 0000;
	 3594 : FFED;
	 3595 : FFDF;
	 3596 : 001A;
	 3597 : FFE2;
	 3598 : 0013;
	 3599 : FFF1;
	 3600 : 0001;
	 3601 : 002C;
	 3602 : FFD1;
	 3603 : 0000;
	 3604 : 0024;
	 3605 : 0009;
	 3606 : FFE9;
	 3607 : FFF6;
	 3608 : 0012;
	 3609 : 0028;
	 3610 : FFD1;
	 3611 : FFD4;
	 3612 : FFEE;
	 3613 : FFE5;
	 3614 : FFE8;
	 3615 : FFE3;
	 3616 : FFE1;
	 3617 : FFDA;
	 3618 : 002C;
	 3619 : FFDC;
	 3620 : FFE2;
	 3621 : FFE6;
	 3622 : 002C;
	 3623 : 001A;
	 3624 : 001E;
	 3625 : FFD8;
	 3626 : 0022;
	 3627 : FFF7;
	 3628 : FFE8;
	 3629 : 0008;
	 3630 : 0021;
	 3631 : 001D;
	 3632 : 0028;
	 3633 : 002C;
	 3634 : FFE5;
	 3635 : FFF8;
	 3636 : FFCE;
	 3637 : 0027;
	 3638 : FFDD;
	 3639 : 0025;
	 3640 : FFEF;
	 3641 : FFF2;
	 3642 : FFD1;
	 3643 : FFEE;
	 3644 : 0028;
	 3645 : FFCF;
	 3646 : FFF6;
	 3647 : FFD0;
	 3648 : FFF3;
	 3649 : FFDE;
	 3650 : FFE7;
	 3651 : 0027;
	 3652 : FFF9;
	 3653 : FFE9;
	 3654 : 0009;
	 3655 : FFDB;
	 3656 : FFE7;
	 3657 : 0005;
	 3658 : FFE5;
	 3659 : 0012;
	 3660 : FFFF;
	 3661 : 001C;
	 3662 : 002E;
	 3663 : FFD9;
	 3664 : FFEF;
	 3665 : FFEE;
	 3666 : FFDC;
	 3667 : 0020;
	 3668 : 001B;
	 3669 : FFFE;
	 3670 : 0004;
	 3671 : FFD3;
	 3672 : 0006;
	 3673 : 001E;
	 3674 : 0008;
	 3675 : FFE8;
	 3676 : 0011;
	 3677 : FFF2;
	 3678 : 0005;
	 3679 : FFFF;
	 3680 : FFF4;
	 3681 : 0016;
	 3682 : 0027;
	 3683 : FFCD;
	 3684 : 002C;
	 3685 : 0001;
	 3686 : 0015;
	 3687 : 0024;
	 3688 : FFFD;
	 3689 : 0022;
	 3690 : FFDF;
	 3691 : FFDD;
	 3692 : 0010;
	 3693 : 0026;
	 3694 : 0028;
	 3695 : 000F;
	 3696 : 0003;
	 3697 : FFEF;
	 3698 : 0031;
	 3699 : FFEE;
	 3700 : 0019;
	 3701 : 0003;
	 3702 : 000B;
	 3703 : FFF5;
	 3704 : 0030;
	 3705 : 0007;
	 3706 : 002D;
	 3707 : FFCE;
	 3708 : 0007;
	 3709 : 0016;
	 3710 : 0019;
	 3711 : 0029;
	 3712 : FFCD;
	 3713 : FFCD;
	 3714 : FFFD;
	 3715 : FFD0;
	 3716 : 0031;
	 3717 : FFE4;
	 3718 : FFFD;
	 3719 : FFD3;
	 3720 : 0002;
	 3721 : FFF4;
	 3722 : FFD1;
	 3723 : FFEF;
	 3724 : FFF5;
	 3725 : 0032;
	 3726 : FFE2;
	 3727 : 0005;
	 3728 : 0032;
	 3729 : 001E;
	 3730 : 0033;
	 3731 : 0030;
	 3732 : FFFF;
	 3733 : 0014;
	 3734 : FFD8;
	 3735 : FFFA;
	 3736 : 0020;
	 3737 : 0001;
	 3738 : 0015;
	 3739 : 0019;
	 3740 : FFE7;
	 3741 : 0026;
	 3742 : FFFC;
	 3743 : FFE2;
	 3744 : 0025;
	 3745 : FFF8;
	 3746 : 001A;
	 3747 : 0005;
	 3748 : FFF4;
	 3749 : 0020;
	 3750 : 0009;
	 3751 : FFF5;
	 3752 : FFD8;
	 3753 : 0028;
	 3754 : FFD0;
	 3755 : 0025;
	 3756 : FFF2;
	 3757 : 000E;
	 3758 : 002B;
	 3759 : FFDC;
	 3760 : 0007;
	 3761 : 001B;
	 3762 : 001A;
	 3763 : 0003;
	 3764 : 000D;
	 3765 : 001A;
	 3766 : 0023;
	 3767 : 001B;
	 3768 : FFF1;
	 3769 : 0033;
	 3770 : FFF9;
	 3771 : FFCF;
	 3772 : FFF2;
	 3773 : FFDA;
	 3774 : FFD9;
	 3775 : FFEA;
	 3776 : FFD2;
	 3777 : 0013;
	 3778 : FFD4;
	 3779 : FFE2;
	 3780 : FFD6;
	 3781 : FFD3;
	 3782 : FFE8;
	 3783 : 0007;
	 3784 : 0030;
	 3785 : 0026;
	 3786 : 0026;
	 3787 : FFDF;
	 3788 : FFE8;
	 3789 : FFD5;
	 3790 : 001D;
	 3791 : FFD4;
	 3792 : 0006;
	 3793 : FFE6;
	 3794 : FFE6;
	 3795 : 0032;
	 3796 : 001A;
	 3797 : 0023;
	 3798 : 0007;
	 3799 : 0026;
	 3800 : 000F;
	 3801 : 002E;
	 3802 : FFEA;
	 3803 : 000A;
	 3804 : 0013;
	 3805 : FFF5;
	 3806 : 0027;
	 3807 : 0031;
	 3808 : FFFF;
	 3809 : FFF5;
	 3810 : FFFD;
	 3811 : 0024;
	 3812 : 000F;
	 3813 : FFD1;
	 3814 : 0004;
	 3815 : FFCF;
	 3816 : 001D;
	 3817 : FFEE;
	 3818 : FFFD;
	 3819 : 001F;
	 3820 : FFD2;
	 3821 : FFDD;
	 3822 : FFF6;
	 3823 : FFE4;
	 3824 : FFEF;
	 3825 : 0033;
	 3826 : 0021;
	 3827 : 0027;
	 3828 : 002D;
	 3829 : FFF0;
	 3830 : FFEB;
	 3831 : FFE5;
	 3832 : 0022;
	 3833 : 0012;
	 3834 : FFE5;
	 3835 : FFF3;
	 3836 : 0001;
	 3837 : 0003;
	 3838 : 0028;
	 3839 : FFF4;
	 3840 : 002A;
	 3841 : FFFA;
	 3842 : 0019;
	 3843 : 002C;
	 3844 : 002A;
	 3845 : FFD3;
	 3846 : FFE2;
	 3847 : FFFE;
	 3848 : FFF9;
	 3849 : 000E;
	 3850 : 002E;
	 3851 : FFD8;
	 3852 : FFFB;
	 3853 : FFE1;
	 3854 : 0028;
	 3855 : 0030;
	 3856 : FFFE;
	 3857 : FFD7;
	 3858 : 001D;
	 3859 : 0014;
	 3860 : FFF1;
	 3861 : 0028;
	 3862 : 0031;
	 3863 : 0006;
	 3864 : 0007;
	 3865 : FFEB;
	 3866 : 0009;
	 3867 : FFFA;
	 3868 : FFEC;
	 3869 : FFD4;
	 3870 : FFE7;
	 3871 : FFE1;
	 3872 : 0004;
	 3873 : 000A;
	 3874 : 000B;
	 3875 : FFF5;
	 3876 : FFF8;
	 3877 : 0022;
	 3878 : FFFE;
	 3879 : 0032;
	 3880 : FFFA;
	 3881 : 000F;
	 3882 : FFD2;
	 3883 : 0010;
	 3884 : 0024;
	 3885 : 002D;
	 3886 : 0033;
	 3887 : FFEA;
	 3888 : 0008;
	 3889 : FFFB;
	 3890 : 0007;
	 3891 : FFDD;
	 3892 : 0024;
	 3893 : 002A;
	 3894 : FFFB;
	 3895 : FFEA;
	 3896 : FFDB;
	 3897 : 0013;
	 3898 : FFED;
	 3899 : 002A;
	 3900 : 0012;
	 3901 : 000F;
	 3902 : 0006;
	 3903 : FFD1;
	 3904 : 002C;
	 3905 : 000D;
	 3906 : 0033;
	 3907 : 0004;
	 3908 : 0016;
	 3909 : FFD3;
	 3910 : 000D;
	 3911 : 001B;
	 3912 : 001D;
	 3913 : 001C;
	 3914 : FFE4;
	 3915 : 0031;
	 3916 : 0033;
	 3917 : FFD5;
	 3918 : 002D;
	 3919 : FFEA;
	 3920 : 0013;
	 3921 : FFEF;
	 3922 : 0030;
	 3923 : FFD7;
	 3924 : 0000;
	 3925 : FFF9;
	 3926 : FFEE;
	 3927 : 000F;
	 3928 : FFDA;
	 3929 : 0016;
	 3930 : 0031;
	 3931 : 001F;
	 3932 : 0025;
	 3933 : FFF2;
	 3934 : FFEE;
	 3935 : 0002;
	 3936 : FFD1;
	 3937 : 002E;
	 3938 : FFDC;
	 3939 : 0029;
	 3940 : FFD5;
	 3941 : 0021;
	 3942 : FFDC;
	 3943 : FFD1;
	 3944 : 0016;
	 3945 : FFE9;
	 3946 : 0016;
	 3947 : 0006;
	 3948 : FFD8;
	 3949 : 002C;
	 3950 : FFFB;
	 3951 : 0018;
	 3952 : 0000;
	 3953 : 000B;
	 3954 : FFEC;
	 3955 : FFE1;
	 3956 : 0004;
	 3957 : FFFA;
	 3958 : FFF5;
	 3959 : 0012;
	 3960 : 0014;
	 3961 : FFD2;
	 3962 : FFEF;
	 3963 : FFF7;
	 3964 : FFD7;
	 3965 : FFE5;
	 3966 : FFD2;
	 3967 : 0033;
	 3968 : 0018;
	 3969 : FFD6;
	 3970 : FFCF;
	 3971 : 0016;
	 3972 : FFFA;
	 3973 : 001D;
	 3974 : 002B;
	 3975 : 000A;
	 3976 : FFE0;
	 3977 : 001D;
	 3978 : 002F;
	 3979 : 0008;
	 3980 : 0013;
	 3981 : FFEF;
	 3982 : FFF4;
	 3983 : 0018;
	 3984 : 002C;
	 3985 : 000D;
	 3986 : 001E;
	 3987 : FFDE;
	 3988 : FFE3;
	 3989 : 0003;
	 3990 : FFDF;
	 3991 : 000E;
	 3992 : FFEB;
	 3993 : 001E;
	 3994 : 0020;
	 3995 : FFFC;
	 3996 : FFDF;
	 3997 : 000F;
	 3998 : 0032;
	 3999 : 000D;
	 4000 : FFD0;
	 4001 : FFCF;
	 4002 : FFEE;
	 4003 : FFE1;
	 4004 : 0020;
	 4005 : 0023;
	 4006 : FFE7;
	 4007 : FFEE;
	 4008 : FFE5;
	 4009 : 002A;
	 4010 : 0000;
	 4011 : 0010;
	 4012 : FFF7;
	 4013 : 000D;
	 4014 : FFF4;
	 4015 : FFF0;
	 4016 : 000E;
	 4017 : 0009;
	 4018 : FFEB;
	 4019 : FFDC;
	 4020 : FFF3;
	 4021 : FFF7;
	 4022 : 000D;
	 4023 : 002A;
	 4024 : FFD1;
	 4025 : FFE6;
	 4026 : FFE1;
	 4027 : 0000;
	 4028 : FFF9;
	 4029 : 0017;
	 4030 : FFE6;
	 4031 : 000A;
	 4032 : 0027;
	 4033 : 002A;
	 4034 : 002F;
	 4035 : 001C;
	 4036 : 002A;
	 4037 : FFE5;
	 4038 : FFE1;
	 4039 : FFCD;
	 4040 : 0015;
	 4041 : 002D;
	 4042 : FFE0;
	 4043 : 000E;
	 4044 : 0019;
	 4045 : 002C;
	 4046 : 000F;
	 4047 : 0030;
	 4048 : FFF0;
	 4049 : FFF1;
	 4050 : 0004;
	 4051 : FFF4;
	 4052 : FFCD;
	 4053 : 0018;
	 4054 : 001A;
	 4055 : 0019;
	 4056 : FFF0;
	 4057 : 0002;
	 4058 : FFF2;
	 4059 : FFCE;
	 4060 : 0006;
	 4061 : FFD9;
	 4062 : FFD5;
	 4063 : 001A;
	 4064 : FFCE;
	 4065 : 002F;
	 4066 : 0002;
	 4067 : 0031;
	 4068 : FFD3;
	 4069 : 0009;
	 4070 : FFF1;
	 4071 : 0023;
	 4072 : FFF2;
	 4073 : FFE7;
	 4074 : 0025;
	 4075 : FFF3;
	 4076 : FFCF;
	 4077 : FFF5;
	 4078 : 0010;
	 4079 : FFE7;
	 4080 : FFF9;
	 4081 : FFD3;
	 4082 : 0009;
	 4083 : 001A;
	 4084 : FFF7;
	 4085 : FFF8;
	 4086 : FFD6;
	 4087 : FFE1;
	 4088 : FFDD;
	 4089 : FFFE;
	 4090 : 0003;
	 4091 : 002E;
	 4092 : FFD4;
	 4093 : 000A;
	 4094 : 0003;
	 4095 : 0002;
END;
