DEPTH = 4096;
WIDTH = 16;
ADDRESS_RADIX = UNS;
DATA_RADIX = HEX;

CONTENT BEGIN
	    0 : 0026;
	    1 : FFE2;
	    2 : FFD1;
	    3 : 0012;
	    4 : FFF0;
	    5 : FFCF;
	    6 : FFE7;
	    7 : FFEC;
	    8 : 000C;
	    9 : FFDE;
	   10 : FFF7;
	   11 : FFFE;
	   12 : FFFC;
	   13 : 0031;
	   14 : FFD1;
	   15 : 002E;
	   16 : 0008;
	   17 : 001E;
	   18 : FFF9;
	   19 : FFFB;
	   20 : 0027;
	   21 : 0029;
	   22 : FFE5;
	   23 : FFE1;
	   24 : 0000;
	   25 : 0029;
	   26 : FFEE;
	   27 : 0010;
	   28 : 0015;
	   29 : 001D;
	   30 : 0007;
	   31 : FFF6;
	   32 : 0030;
	   33 : 000B;
	   34 : 0017;
	   35 : FFF0;
	   36 : 0011;
	   37 : FFE7;
	   38 : FFE6;
	   39 : 0016;
	   40 : 0002;
	   41 : 0013;
	   42 : FFE8;
	   43 : 000A;
	   44 : FFFA;
	   45 : 000A;
	   46 : FFEB;
	   47 : 0016;
	   48 : 001F;
	   49 : FFE7;
	   50 : FFEC;
	   51 : 0011;
	   52 : 0014;
	   53 : 0015;
	   54 : 0013;
	   55 : FFF5;
	   56 : FFF5;
	   57 : FFE7;
	   58 : FFDD;
	   59 : 0014;
	   60 : FFD6;
	   61 : 002D;
	   62 : 0021;
	   63 : 0025;
	   64 : 002A;
	   65 : FFF7;
	   66 : 0024;
	   67 : FFDD;
	   68 : FFCF;
	   69 : 001D;
	   70 : FFD4;
	   71 : 0032;
	   72 : 0012;
	   73 : 001A;
	   74 : FFE6;
	   75 : 0012;
	   76 : FFD1;
	   77 : 0023;
	   78 : FFDE;
	   79 : 0014;
	   80 : FFE4;
	   81 : FFD4;
	   82 : FFFE;
	   83 : FFDE;
	   84 : 0017;
	   85 : FFE5;
	   86 : FFF0;
	   87 : 0007;
	   88 : FFEA;
	   89 : FFF4;
	   90 : 0020;
	   91 : FFDF;
	   92 : FFD5;
	   93 : FFEE;
	   94 : FFF8;
	   95 : 0004;
	   96 : FFF3;
	   97 : 001E;
	   98 : FFD1;
	   99 : FFF9;
	  100 : FFF4;
	  101 : 000F;
	  102 : 0030;
	  103 : 0001;
	  104 : 0032;
	  105 : FFEC;
	  106 : FFD0;
	  107 : FFDE;
	  108 : FFF5;
	  109 : FFED;
	  110 : FFD7;
	  111 : FFF9;
	  112 : FFEF;
	  113 : FFD9;
	  114 : FFEB;
	  115 : 0028;
	  116 : FFEC;
	  117 : 0016;
	  118 : 000B;
	  119 : FFF9;
	  120 : FFE5;
	  121 : FFF3;
	  122 : 0009;
	  123 : FFF1;
	  124 : FFE3;
	  125 : FFD9;
	  126 : 0027;
	  127 : FFFA;
	  128 : 000D;
	  129 : FFFF;
	  130 : 0026;
	  131 : 0005;
	  132 : FFFE;
	  133 : 002B;
	  134 : 0016;
	  135 : FFD8;
	  136 : FFDF;
	  137 : 001D;
	  138 : 0022;
	  139 : 0005;
	  140 : 0006;
	  141 : 000E;
	  142 : FFFA;
	  143 : 0012;
	  144 : FFD8;
	  145 : 002F;
	  146 : 001A;
	  147 : 000D;
	  148 : FFED;
	  149 : FFDD;
	  150 : FFF7;
	  151 : 0011;
	  152 : 000E;
	  153 : FFF4;
	  154 : 000C;
	  155 : 0020;
	  156 : FFCF;
	  157 : FFFB;
	  158 : 001A;
	  159 : 0005;
	  160 : 0010;
	  161 : 0002;
	  162 : 0032;
	  163 : FFD2;
	  164 : FFFF;
	  165 : FFD6;
	  166 : FFDD;
	  167 : FFF4;
	  168 : FFDD;
	  169 : 002F;
	  170 : 002E;
	  171 : FFEF;
	  172 : 000E;
	  173 : 0003;
	  174 : 0020;
	  175 : 000D;
	  176 : FFCD;
	  177 : 001B;
	  178 : 0019;
	  179 : 0001;
	  180 : 0029;
	  181 : 002A;
	  182 : 0002;
	  183 : 000B;
	  184 : 0033;
	  185 : FFEB;
	  186 : FFEE;
	  187 : FFE0;
	  188 : 0029;
	  189 : 0019;
	  190 : FFD8;
	  191 : 0031;
	  192 : 0018;
	  193 : 0024;
	  194 : FFD2;
	  195 : 0001;
	  196 : 0014;
	  197 : 0004;
	  198 : 0011;
	  199 : 0021;
	  200 : FFF3;
	  201 : 0024;
	  202 : FFDD;
	  203 : FFE9;
	  204 : FFD1;
	  205 : FFF2;
	  206 : FFF4;
	  207 : 001F;
	  208 : 0010;
	  209 : FFFA;
	  210 : 0010;
	  211 : FFD2;
	  212 : FFDF;
	  213 : 000D;
	  214 : 000E;
	  215 : 001C;
	  216 : FFF6;
	  217 : 0017;
	  218 : 0013;
	  219 : 002F;
	  220 : FFE3;
	  221 : 0005;
	  222 : 000A;
	  223 : 0033;
	  224 : FFE1;
	  225 : 0002;
	  226 : FFF0;
	  227 : 0003;
	  228 : FFE5;
	  229 : FFD2;
	  230 : 0007;
	  231 : FFEF;
	  232 : FFDF;
	  233 : FFEE;
	  234 : FFD2;
	  235 : 002E;
	  236 : 0008;
	  237 : 0020;
	  238 : FFF8;
	  239 : 0029;
	  240 : FFFE;
	  241 : 0008;
	  242 : FFFF;
	  243 : 0018;
	  244 : 0007;
	  245 : FFE9;
	  246 : FFDC;
	  247 : 000B;
	  248 : FFFF;
	  249 : FFD7;
	  250 : FFF5;
	  251 : 0002;
	  252 : 0021;
	  253 : FFD5;
	  254 : FFF0;
	  255 : 0021;
	  256 : 000F;
	  257 : FFEA;
	  258 : 0023;
	  259 : FFFF;
	  260 : 0000;
	  261 : 0031;
	  262 : 002E;
	  263 : FFF2;
	  264 : FFDB;
	  265 : FFEE;
	  266 : FFD0;
	  267 : FFCF;
	  268 : FFF5;
	  269 : 002D;
	  270 : 0026;
	  271 : 0001;
	  272 : 0007;
	  273 : FFCD;
	  274 : FFE3;
	  275 : FFCF;
	  276 : 001A;
	  277 : FFDC;
	  278 : 0026;
	  279 : 000F;
	  280 : FFE4;
	  281 : FFDD;
	  282 : 000D;
	  283 : 0029;
	  284 : 0016;
	  285 : FFF0;
	  286 : 0009;
	  287 : FFED;
	  288 : 0033;
	  289 : 0019;
	  290 : 000C;
	  291 : FFF8;
	  292 : 000C;
	  293 : FFF0;
	  294 : FFD0;
	  295 : FFF5;
	  296 : 002C;
	  297 : 000D;
	  298 : FFD5;
	  299 : 0027;
	  300 : FFE8;
	  301 : FFE6;
	  302 : FFEB;
	  303 : 0008;
	  304 : 0005;
	  305 : FFFF;
	  306 : 0016;
	  307 : FFED;
	  308 : 001D;
	  309 : FFDF;
	  310 : 001D;
	  311 : 0011;
	  312 : 0013;
	  313 : FFFE;
	  314 : 0011;
	  315 : FFD5;
	  316 : 0024;
	  317 : FFD2;
	  318 : FFDC;
	  319 : 0008;
	  320 : 0019;
	  321 : FFD5;
	  322 : 002B;
	  323 : 0030;
	  324 : 000B;
	  325 : FFFE;
	  326 : 0019;
	  327 : FFEE;
	  328 : FFFF;
	  329 : 002B;
	  330 : 002F;
	  331 : 002C;
	  332 : FFE8;
	  333 : FFE5;
	  334 : FFEB;
	  335 : FFFA;
	  336 : FFED;
	  337 : FFF3;
	  338 : 000C;
	  339 : 001B;
	  340 : 0018;
	  341 : 0020;
	  342 : FFD0;
	  343 : FFD2;
	  344 : 001E;
	  345 : 0003;
	  346 : 0008;
	  347 : FFD2;
	  348 : FFE7;
	  349 : 000E;
	  350 : 0025;
	  351 : 002B;
	  352 : 0000;
	  353 : 0005;
	  354 : 0022;
	  355 : 0004;
	  356 : 0002;
	  357 : 0029;
	  358 : 001E;
	  359 : 002A;
	  360 : FFE3;
	  361 : 0002;
	  362 : 0023;
	  363 : FFD8;
	  364 : 001E;
	  365 : FFE0;
	  366 : 0020;
	  367 : 000B;
	  368 : FFE1;
	  369 : FFFD;
	  370 : 0013;
	  371 : 000E;
	  372 : FFF9;
	  373 : 0029;
	  374 : 0002;
	  375 : 0001;
	  376 : FFD3;
	  377 : 002B;
	  378 : FFDF;
	  379 : 0003;
	  380 : 001F;
	  381 : FFE3;
	  382 : 0003;
	  383 : FFE5;
	  384 : 001B;
	  385 : 0007;
	  386 : 0024;
	  387 : 0028;
	  388 : 000F;
	  389 : 0017;
	  390 : 0005;
	  391 : FFF4;
	  392 : 000F;
	  393 : 002A;
	  394 : FFF7;
	  395 : FFED;
	  396 : FFF5;
	  397 : FFF9;
	  398 : FFD4;
	  399 : 0000;
	  400 : FFFF;
	  401 : 0009;
	  402 : FFF2;
	  403 : 000C;
	  404 : 0027;
	  405 : 002F;
	  406 : 0009;
	  407 : FFD1;
	  408 : 0030;
	  409 : 0015;
	  410 : FFEF;
	  411 : FFDC;
	  412 : FFDB;
	  413 : FFDE;
	  414 : FFD1;
	  415 : 0029;
	  416 : 0004;
	  417 : 0014;
	  418 : 0022;
	  419 : 001E;
	  420 : 0027;
	  421 : 0030;
	  422 : FFFA;
	  423 : 002E;
	  424 : 0017;
	  425 : FFD4;
	  426 : 0013;
	  427 : 0013;
	  428 : 002A;
	  429 : FFF3;
	  430 : 0009;
	  431 : FFCE;
	  432 : FFEF;
	  433 : FFD3;
	  434 : 0002;
	  435 : 0021;
	  436 : FFE2;
	  437 : 0003;
	  438 : FFE2;
	  439 : FFD9;
	  440 : 0001;
	  441 : FFD5;
	  442 : 0009;
	  443 : FFD0;
	  444 : FFD8;
	  445 : 0005;
	  446 : 0009;
	  447 : FFD0;
	  448 : 0008;
	  449 : 0023;
	  450 : 0017;
	  451 : FFDA;
	  452 : 0009;
	  453 : 0012;
	  454 : FFD1;
	  455 : 0024;
	  456 : 002A;
	  457 : 0024;
	  458 : 0021;
	  459 : 0019;
	  460 : 000E;
	  461 : 0012;
	  462 : 001F;
	  463 : 0011;
	  464 : FFEE;
	  465 : FFF3;
	  466 : 0029;
	  467 : FFCF;
	  468 : 0014;
	  469 : 002F;
	  470 : 0015;
	  471 : 0033;
	  472 : 0013;
	  473 : FFD0;
	  474 : 0021;
	  475 : FFEA;
	  476 : FFFA;
	  477 : FFED;
	  478 : FFE8;
	  479 : FFF9;
	  480 : FFF4;
	  481 : 000E;
	  482 : 0020;
	  483 : FFEB;
	  484 : FFE3;
	  485 : 0011;
	  486 : 0011;
	  487 : 0029;
	  488 : FFCE;
	  489 : 0024;
	  490 : 0002;
	  491 : 000C;
	  492 : FFD6;
	  493 : FFF9;
	  494 : FFE4;
	  495 : FFE7;
	  496 : 0000;
	  497 : 0020;
	  498 : 0019;
	  499 : 0009;
	  500 : 0004;
	  501 : FFF9;
	  502 : 0030;
	  503 : 0006;
	  504 : FFE7;
	  505 : FFE4;
	  506 : 000B;
	  507 : 0002;
	  508 : FFCE;
	  509 : 0022;
	  510 : 0015;
	  511 : 0011;
	  512 : FFD4;
	  513 : FFF2;
	  514 : 002D;
	  515 : 0025;
	  516 : FFEA;
	  517 : FFDD;
	  518 : FFFB;
	  519 : FFF1;
	  520 : 0013;
	  521 : 0030;
	  522 : FFF2;
	  523 : FFD3;
	  524 : 0029;
	  525 : FFD1;
	  526 : 002E;
	  527 : 0011;
	  528 : 002D;
	  529 : FFE1;
	  530 : FFD1;
	  531 : FFFF;
	  532 : FFFB;
	  533 : FFEF;
	  534 : 002F;
	  535 : 0021;
	  536 : 0011;
	  537 : FFDD;
	  538 : 0018;
	  539 : 0017;
	  540 : FFF8;
	  541 : 002B;
	  542 : FFDE;
	  543 : FFE8;
	  544 : FFD3;
	  545 : 001E;
	  546 : 000C;
	  547 : FFED;
	  548 : FFDE;
	  549 : FFD1;
	  550 : FFDE;
	  551 : FFFB;
	  552 : FFE6;
	  553 : FFE7;
	  554 : 0026;
	  555 : 0002;
	  556 : 0017;
	  557 : FFD0;
	  558 : FFF2;
	  559 : FFFE;
	  560 : FFE0;
	  561 : FFD9;
	  562 : 0026;
	  563 : 002D;
	  564 : FFD5;
	  565 : FFF1;
	  566 : 002F;
	  567 : FFD5;
	  568 : 000F;
	  569 : 0030;
	  570 : 0031;
	  571 : FFFD;
	  572 : FFDD;
	  573 : FFE1;
	  574 : 0028;
	  575 : 002A;
	  576 : 000B;
	  577 : 001B;
	  578 : 0019;
	  579 : 0011;
	  580 : 0022;
	  581 : 0013;
	  582 : 0003;
	  583 : FFE5;
	  584 : 0019;
	  585 : FFFD;
	  586 : FFEB;
	  587 : 001F;
	  588 : 0014;
	  589 : 002D;
	  590 : FFDE;
	  591 : 000F;
	  592 : FFE6;
	  593 : 0029;
	  594 : FFD7;
	  595 : 0010;
	  596 : 001E;
	  597 : FFF1;
	  598 : 002F;
	  599 : 0024;
	  600 : FFEB;
	  601 : FFCE;
	  602 : FFEB;
	  603 : FFEA;
	  604 : 0028;
	  605 : 0030;
	  606 : FFD4;
	  607 : FFFD;
	  608 : 0005;
	  609 : FFD6;
	  610 : FFF3;
	  611 : FFED;
	  612 : 0004;
	  613 : 0011;
	  614 : 0015;
	  615 : FFDB;
	  616 : 0020;
	  617 : 0012;
	  618 : 0028;
	  619 : FFFB;
	  620 : 0028;
	  621 : 0025;
	  622 : FFFA;
	  623 : FFF4;
	  624 : 002C;
	  625 : 0016;
	  626 : 002C;
	  627 : 001E;
	  628 : 000B;
	  629 : FFD9;
	  630 : FFEB;
	  631 : 0030;
	  632 : FFEE;
	  633 : FFD6;
	  634 : 0015;
	  635 : 0018;
	  636 : FFEA;
	  637 : FFEB;
	  638 : FFFD;
	  639 : FFCF;
	  640 : 001E;
	  641 : FFED;
	  642 : 0024;
	  643 : 001F;
	  644 : 0011;
	  645 : FFEE;
	  646 : 0002;
	  647 : FFFA;
	  648 : FFF0;
	  649 : 0024;
	  650 : FFFE;
	  651 : 0022;
	  652 : FFD8;
	  653 : FFDB;
	  654 : 0031;
	  655 : 0009;
	  656 : 0001;
	  657 : 0002;
	  658 : FFE3;
	  659 : 0016;
	  660 : FFD5;
	  661 : 0008;
	  662 : 0007;
	  663 : 002A;
	  664 : 0003;
	  665 : FFDB;
	  666 : 0007;
	  667 : FFD6;
	  668 : FFE2;
	  669 : FFD0;
	  670 : 0001;
	  671 : FFD5;
	  672 : FFFD;
	  673 : 002C;
	  674 : 0017;
	  675 : FFD5;
	  676 : FFE4;
	  677 : 0012;
	  678 : 0028;
	  679 : FFD0;
	  680 : 0020;
	  681 : 0006;
	  682 : 0005;
	  683 : 002F;
	  684 : 0019;
	  685 : 0024;
	  686 : FFF1;
	  687 : 0006;
	  688 : 000C;
	  689 : FFEE;
	  690 : 0007;
	  691 : FFE5;
	  692 : FFDB;
	  693 : FFF3;
	  694 : 0019;
	  695 : 002B;
	  696 : FFFC;
	  697 : 000F;
	  698 : FFD7;
	  699 : 0029;
	  700 : 0007;
	  701 : 001D;
	  702 : 001E;
	  703 : FFE7;
	  704 : 0003;
	  705 : 002F;
	  706 : FFD6;
	  707 : 0013;
	  708 : 002F;
	  709 : FFEC;
	  710 : 0025;
	  711 : 002C;
	  712 : 0019;
	  713 : FFE4;
	  714 : FFEF;
	  715 : FFD0;
	  716 : 0022;
	  717 : 0024;
	  718 : 000E;
	  719 : FFF1;
	  720 : FFD5;
	  721 : 001A;
	  722 : 0017;
	  723 : 002A;
	  724 : 0018;
	  725 : 0022;
	  726 : 0019;
	  727 : 000D;
	  728 : FFF9;
	  729 : 0029;
	  730 : 000F;
	  731 : FFF6;
	  732 : FFD5;
	  733 : FFEB;
	  734 : 0004;
	  735 : FFE9;
	  736 : FFE3;
	  737 : 0003;
	  738 : FFDE;
	  739 : 001F;
	  740 : FFFE;
	  741 : 0008;
	  742 : FFDC;
	  743 : FFEE;
	  744 : FFF7;
	  745 : 0020;
	  746 : 001C;
	  747 : FFE4;
	  748 : 000C;
	  749 : FFE6;
	  750 : 0032;
	  751 : 002E;
	  752 : 0006;
	  753 : 0014;
	  754 : 001F;
	  755 : 0017;
	  756 : 0014;
	  757 : 002F;
	  758 : 000A;
	  759 : 000E;
	  760 : 0024;
	  761 : 0011;
	  762 : 0018;
	  763 : FFE5;
	  764 : FFF3;
	  765 : FFDC;
	  766 : 0001;
	  767 : FFFB;
	  768 : 0033;
	  769 : 000B;
	  770 : 001D;
	  771 : FFEF;
	  772 : 0022;
	  773 : 000C;
	  774 : 0014;
	  775 : FFEB;
	  776 : 0005;
	  777 : 000E;
	  778 : 0009;
	  779 : 002B;
	  780 : 0029;
	  781 : 0030;
	  782 : 0011;
	  783 : 0030;
	  784 : 0022;
	  785 : FFE9;
	  786 : FFF9;
	  787 : FFE5;
	  788 : FFCD;
	  789 : FFE0;
	  790 : FFCD;
	  791 : 0017;
	  792 : FFF8;
	  793 : FFED;
	  794 : 001B;
	  795 : 0022;
	  796 : 0031;
	  797 : 000F;
	  798 : FFFC;
	  799 : FFEC;
	  800 : FFE4;
	  801 : FFE3;
	  802 : FFF7;
	  803 : 0032;
	  804 : FFCD;
	  805 : FFE1;
	  806 : FFE0;
	  807 : 0016;
	  808 : FFF1;
	  809 : FFFC;
	  810 : FFDC;
	  811 : FFF6;
	  812 : FFD7;
	  813 : 0003;
	  814 : FFD7;
	  815 : 001E;
	  816 : 0007;
	  817 : 0017;
	  818 : FFF8;
	  819 : FFF4;
	  820 : FFD7;
	  821 : 0002;
	  822 : 0001;
	  823 : FFFD;
	  824 : 0019;
	  825 : 0022;
	  826 : 001A;
	  827 : FFDC;
	  828 : 000C;
	  829 : FFD5;
	  830 : 0014;
	  831 : FFF4;
	  832 : FFDA;
	  833 : 0025;
	  834 : 000C;
	  835 : FFF1;
	  836 : FFD0;
	  837 : 0004;
	  838 : 002B;
	  839 : 000A;
	  840 : 0030;
	  841 : FFDB;
	  842 : 0007;
	  843 : 001F;
	  844 : 0003;
	  845 : FFD6;
	  846 : 0008;
	  847 : 000B;
	  848 : 0017;
	  849 : 001B;
	  850 : 001C;
	  851 : 0011;
	  852 : FFE3;
	  853 : FFF6;
	  854 : 001C;
	  855 : 002E;
	  856 : FFD5;
	  857 : 0004;
	  858 : FFED;
	  859 : FFE4;
	  860 : 0001;
	  861 : 000B;
	  862 : FFCE;
	  863 : 001D;
	  864 : 0021;
	  865 : 0030;
	  866 : FFDF;
	  867 : 000A;
	  868 : FFF8;
	  869 : FFEF;
	  870 : 0007;
	  871 : 001D;
	  872 : FFCF;
	  873 : 0030;
	  874 : 0020;
	  875 : 001A;
	  876 : 001B;
	  877 : FFF5;
	  878 : 001A;
	  879 : FFF4;
	  880 : 0029;
	  881 : FFDF;
	  882 : FFEB;
	  883 : 0005;
	  884 : FFED;
	  885 : FFF8;
	  886 : FFFF;
	  887 : 0024;
	  888 : 0002;
	  889 : FFF2;
	  890 : FFE6;
	  891 : FFF7;
	  892 : 0002;
	  893 : 0019;
	  894 : FFD9;
	  895 : FFE3;
	  896 : FFF4;
	  897 : FFF2;
	  898 : FFF5;
	  899 : 001E;
	  900 : FFEE;
	  901 : 0000;
	  902 : 000D;
	  903 : FFE5;
	  904 : 0016;
	  905 : 0005;
	  906 : FFFB;
	  907 : 0020;
	  908 : FFE6;
	  909 : 0027;
	  910 : 0006;
	  911 : 000B;
	  912 : 0026;
	  913 : 0021;
	  914 : 000A;
	  915 : 001A;
	  916 : FFF9;
	  917 : 0005;
	  918 : FFD3;
	  919 : FFD6;
	  920 : 0022;
	  921 : FFD3;
	  922 : FFDE;
	  923 : 001E;
	  924 : FFCD;
	  925 : FFEA;
	  926 : 0009;
	  927 : 000A;
	  928 : 001C;
	  929 : 0001;
	  930 : 0001;
	  931 : 0017;
	  932 : 0000;
	  933 : 000B;
	  934 : 0029;
	  935 : FFF6;
	  936 : FFF4;
	  937 : FFCD;
	  938 : 000C;
	  939 : FFD0;
	  940 : 0000;
	  941 : 001F;
	  942 : 0005;
	  943 : FFE8;
	  944 : 001D;
	  945 : FFE8;
	  946 : 0018;
	  947 : 000B;
	  948 : FFDE;
	  949 : 0029;
	  950 : FFE1;
	  951 : 0032;
	  952 : FFCE;
	  953 : FFE8;
	  954 : FFE1;
	  955 : FFCE;
	  956 : 0018;
	  957 : 0014;
	  958 : 001E;
	  959 : FFE7;
	  960 : FFFA;
	  961 : 0010;
	  962 : FFFA;
	  963 : 0014;
	  964 : 000E;
	  965 : FFD9;
	  966 : 001D;
	  967 : 0017;
	  968 : 0010;
	  969 : FFDD;
	  970 : FFE8;
	  971 : FFF5;
	  972 : FFE9;
	  973 : FFE4;
	  974 : 001F;
	  975 : 000E;
	  976 : 0007;
	  977 : FFE4;
	  978 : 002B;
	  979 : FFE0;
	  980 : 001E;
	  981 : 0030;
	  982 : 0017;
	  983 : 0032;
	  984 : 000F;
	  985 : FFE3;
	  986 : FFE2;
	  987 : FFEE;
	  988 : FFCE;
	  989 : 0013;
	  990 : FFE8;
	  991 : 0020;
	  992 : FFF2;
	  993 : FFFE;
	  994 : 0030;
	  995 : FFE6;
	  996 : 0017;
	  997 : 001A;
	  998 : FFE3;
	  999 : 0000;
	 1000 : FFF1;
	 1001 : 001C;
	 1002 : 000D;
	 1003 : FFFE;
	 1004 : 001D;
	 1005 : FFE5;
	 1006 : 001A;
	 1007 : 0025;
	 1008 : 0027;
	 1009 : 001D;
	 1010 : FFF7;
	 1011 : 0031;
	 1012 : FFF4;
	 1013 : 000E;
	 1014 : FFDD;
	 1015 : 0031;
	 1016 : 0015;
	 1017 : 001A;
	 1018 : FFD4;
	 1019 : 001B;
	 1020 : 001C;
	 1021 : 0012;
	 1022 : FFEB;
	 1023 : FFFF;
	 1024 : FFD8;
	 1025 : FFFD;
	 1026 : FFE6;
	 1027 : FFF1;
	 1028 : FFDD;
	 1029 : FFE4;
	 1030 : FFD5;
	 1031 : 002B;
	 1032 : 0003;
	 1033 : FFF5;
	 1034 : 0004;
	 1035 : 000D;
	 1036 : 002B;
	 1037 : FFDF;
	 1038 : FFEB;
	 1039 : 0031;
	 1040 : FFF3;
	 1041 : FFCF;
	 1042 : FFDC;
	 1043 : FFCF;
	 1044 : 0032;
	 1045 : FFE9;
	 1046 : 002B;
	 1047 : 0033;
	 1048 : 000A;
	 1049 : FFD0;
	 1050 : FFD5;
	 1051 : FFFE;
	 1052 : FFF6;
	 1053 : 000B;
	 1054 : FFFA;
	 1055 : 002C;
	 1056 : 0004;
	 1057 : 0014;
	 1058 : 0029;
	 1059 : FFDC;
	 1060 : FFE4;
	 1061 : FFD8;
	 1062 : FFDB;
	 1063 : 0001;
	 1064 : FFEE;
	 1065 : FFF8;
	 1066 : 0031;
	 1067 : FFDD;
	 1068 : 0004;
	 1069 : FFD7;
	 1070 : FFED;
	 1071 : 0003;
	 1072 : 002E;
	 1073 : FFF5;
	 1074 : FFD3;
	 1075 : FFF5;
	 1076 : FFDC;
	 1077 : FFE4;
	 1078 : 000C;
	 1079 : FFD4;
	 1080 : FFFC;
	 1081 : 000B;
	 1082 : FFF8;
	 1083 : FFCF;
	 1084 : 0032;
	 1085 : FFF2;
	 1086 : 001D;
	 1087 : FFEE;
	 1088 : FFFD;
	 1089 : FFF5;
	 1090 : FFF0;
	 1091 : FFCF;
	 1092 : FFF2;
	 1093 : 0028;
	 1094 : 0013;
	 1095 : FFDC;
	 1096 : 0009;
	 1097 : 0028;
	 1098 : 0014;
	 1099 : FFDC;
	 1100 : 0026;
	 1101 : FFEC;
	 1102 : FFFB;
	 1103 : 0003;
	 1104 : 0024;
	 1105 : 002C;
	 1106 : 002C;
	 1107 : FFCE;
	 1108 : 002B;
	 1109 : FFD2;
	 1110 : FFE8;
	 1111 : 0002;
	 1112 : FFFE;
	 1113 : 000B;
	 1114 : FFFE;
	 1115 : 002C;
	 1116 : FFE5;
	 1117 : FFE9;
	 1118 : 002B;
	 1119 : FFD5;
	 1120 : 000B;
	 1121 : 0013;
	 1122 : 0001;
	 1123 : 0014;
	 1124 : FFDE;
	 1125 : 0024;
	 1126 : FFDB;
	 1127 : FFF6;
	 1128 : FFD5;
	 1129 : 0005;
	 1130 : 0011;
	 1131 : 002D;
	 1132 : 0019;
	 1133 : 0004;
	 1134 : 002C;
	 1135 : FFFE;
	 1136 : 0006;
	 1137 : 000A;
	 1138 : FFF7;
	 1139 : 0023;
	 1140 : FFE0;
	 1141 : 0006;
	 1142 : 0017;
	 1143 : 0029;
	 1144 : 0027;
	 1145 : 0001;
	 1146 : 000F;
	 1147 : FFF5;
	 1148 : FFFD;
	 1149 : 002A;
	 1150 : 002C;
	 1151 : 0028;
	 1152 : FFDB;
	 1153 : 0024;
	 1154 : 002E;
	 1155 : FFF2;
	 1156 : 0002;
	 1157 : 001D;
	 1158 : 0006;
	 1159 : 0033;
	 1160 : FFFB;
	 1161 : 0016;
	 1162 : 001E;
	 1163 : FFFF;
	 1164 : 0025;
	 1165 : 0005;
	 1166 : FFF7;
	 1167 : FFD8;
	 1168 : FFF5;
	 1169 : 0018;
	 1170 : 002B;
	 1171 : FFE7;
	 1172 : FFF1;
	 1173 : FFDD;
	 1174 : 0014;
	 1175 : 002F;
	 1176 : 000E;
	 1177 : 000C;
	 1178 : 0005;
	 1179 : FFD6;
	 1180 : 0018;
	 1181 : 000A;
	 1182 : 0011;
	 1183 : 0029;
	 1184 : 001D;
	 1185 : 001D;
	 1186 : 002C;
	 1187 : 0032;
	 1188 : 0008;
	 1189 : FFD8;
	 1190 : FFFC;
	 1191 : 001D;
	 1192 : FFD0;
	 1193 : FFD3;
	 1194 : FFD4;
	 1195 : 0018;
	 1196 : 0000;
	 1197 : FFF3;
	 1198 : FFD8;
	 1199 : 0018;
	 1200 : FFEE;
	 1201 : FFE8;
	 1202 : 0010;
	 1203 : 0006;
	 1204 : FFF2;
	 1205 : 000E;
	 1206 : FFE9;
	 1207 : 001E;
	 1208 : FFE4;
	 1209 : FFDD;
	 1210 : 001D;
	 1211 : 0015;
	 1212 : FFE0;
	 1213 : FFD9;
	 1214 : 0023;
	 1215 : 001C;
	 1216 : FFEE;
	 1217 : 0010;
	 1218 : FFDA;
	 1219 : 0001;
	 1220 : FFCF;
	 1221 : FFF5;
	 1222 : FFD4;
	 1223 : FFFD;
	 1224 : FFF8;
	 1225 : FFFA;
	 1226 : FFD1;
	 1227 : FFF2;
	 1228 : 001A;
	 1229 : FFF3;
	 1230 : 0016;
	 1231 : FFF3;
	 1232 : FFF8;
	 1233 : 0007;
	 1234 : 002E;
	 1235 : FFD8;
	 1236 : FFD0;
	 1237 : 000B;
	 1238 : 002E;
	 1239 : 0032;
	 1240 : FFFE;
	 1241 : FFFD;
	 1242 : 000F;
	 1243 : 0006;
	 1244 : 000E;
	 1245 : 0026;
	 1246 : 0019;
	 1247 : 0000;
	 1248 : FFFC;
	 1249 : 000E;
	 1250 : FFFB;
	 1251 : FFFC;
	 1252 : FFCE;
	 1253 : FFDF;
	 1254 : FFFF;
	 1255 : 0021;
	 1256 : FFE9;
	 1257 : 0002;
	 1258 : FFF0;
	 1259 : FFD8;
	 1260 : 002F;
	 1261 : 0024;
	 1262 : FFD5;
	 1263 : 0017;
	 1264 : FFF0;
	 1265 : 0033;
	 1266 : FFEC;
	 1267 : FFE5;
	 1268 : 0007;
	 1269 : 0022;
	 1270 : FFE1;
	 1271 : 0015;
	 1272 : FFD3;
	 1273 : 002B;
	 1274 : FFD5;
	 1275 : 002A;
	 1276 : FFFF;
	 1277 : FFFB;
	 1278 : 0030;
	 1279 : 0032;
	 1280 : 000F;
	 1281 : FFDA;
	 1282 : 0001;
	 1283 : 0003;
	 1284 : 0001;
	 1285 : 0007;
	 1286 : FFCF;
	 1287 : 0016;
	 1288 : 0016;
	 1289 : FFD9;
	 1290 : 0007;
	 1291 : 0007;
	 1292 : 0013;
	 1293 : FFD6;
	 1294 : 000D;
	 1295 : FFEA;
	 1296 : 0001;
	 1297 : 001C;
	 1298 : 0015;
	 1299 : FFD9;
	 1300 : 0009;
	 1301 : 0030;
	 1302 : FFDD;
	 1303 : 0024;
	 1304 : 0015;
	 1305 : 001C;
	 1306 : FFEA;
	 1307 : FFEA;
	 1308 : 002A;
	 1309 : FFF2;
	 1310 : FFD3;
	 1311 : 000A;
	 1312 : FFDA;
	 1313 : 001E;
	 1314 : 000F;
	 1315 : 0026;
	 1316 : 001D;
	 1317 : FFD8;
	 1318 : FFF4;
	 1319 : 001C;
	 1320 : FFF8;
	 1321 : 0030;
	 1322 : 0018;
	 1323 : FFCE;
	 1324 : 0027;
	 1325 : FFD7;
	 1326 : FFDB;
	 1327 : 0018;
	 1328 : 0025;
	 1329 : 0004;
	 1330 : FFEA;
	 1331 : FFF1;
	 1332 : FFF0;
	 1333 : FFEE;
	 1334 : FFE6;
	 1335 : 000B;
	 1336 : 0029;
	 1337 : FFEC;
	 1338 : FFE0;
	 1339 : 0023;
	 1340 : 0019;
	 1341 : 002C;
	 1342 : FFDE;
	 1343 : FFDC;
	 1344 : 0004;
	 1345 : 000C;
	 1346 : FFFE;
	 1347 : 000A;
	 1348 : FFDF;
	 1349 : FFFE;
	 1350 : 0010;
	 1351 : FFF9;
	 1352 : 0012;
	 1353 : FFFB;
	 1354 : FFEF;
	 1355 : FFEC;
	 1356 : FFF7;
	 1357 : FFCF;
	 1358 : 0011;
	 1359 : 0023;
	 1360 : FFF1;
	 1361 : FFD2;
	 1362 : 0032;
	 1363 : FFE8;
	 1364 : FFDA;
	 1365 : FFF3;
	 1366 : 0018;
	 1367 : FFEB;
	 1368 : 0008;
	 1369 : FFF7;
	 1370 : FFD9;
	 1371 : FFEF;
	 1372 : 0017;
	 1373 : 000B;
	 1374 : FFD9;
	 1375 : FFDE;
	 1376 : 000E;
	 1377 : 0020;
	 1378 : FFF1;
	 1379 : 000A;
	 1380 : FFDE;
	 1381 : FFED;
	 1382 : FFCF;
	 1383 : 001B;
	 1384 : FFF6;
	 1385 : 0020;
	 1386 : 0015;
	 1387 : 0022;
	 1388 : FFEA;
	 1389 : FFE0;
	 1390 : 0030;
	 1391 : 0016;
	 1392 : 0022;
	 1393 : FFCE;
	 1394 : FFF1;
	 1395 : 0019;
	 1396 : FFD5;
	 1397 : 0007;
	 1398 : FFF9;
	 1399 : FFCF;
	 1400 : FFE5;
	 1401 : FFEA;
	 1402 : FFD8;
	 1403 : 000D;
	 1404 : FFE6;
	 1405 : FFE9;
	 1406 : 0029;
	 1407 : FFFD;
	 1408 : FFF5;
	 1409 : 0017;
	 1410 : 002A;
	 1411 : FFCF;
	 1412 : FFFB;
	 1413 : 000B;
	 1414 : FFED;
	 1415 : 001C;
	 1416 : 0030;
	 1417 : 002D;
	 1418 : FFE8;
	 1419 : FFE4;
	 1420 : 002F;
	 1421 : FFFC;
	 1422 : FFE2;
	 1423 : 0015;
	 1424 : FFEA;
	 1425 : FFE8;
	 1426 : 0027;
	 1427 : FFDD;
	 1428 : FFD3;
	 1429 : FFE8;
	 1430 : 000B;
	 1431 : FFD9;
	 1432 : FFFD;
	 1433 : 000D;
	 1434 : 0024;
	 1435 : FFE4;
	 1436 : 0020;
	 1437 : FFE5;
	 1438 : 0012;
	 1439 : FFF9;
	 1440 : FFD9;
	 1441 : 0016;
	 1442 : FFE3;
	 1443 : FFDF;
	 1444 : FFF1;
	 1445 : 0010;
	 1446 : FFE5;
	 1447 : FFE0;
	 1448 : FFCE;
	 1449 : FFFD;
	 1450 : FFF9;
	 1451 : FFE5;
	 1452 : FFD2;
	 1453 : FFF9;
	 1454 : 001E;
	 1455 : 0016;
	 1456 : 0025;
	 1457 : FFCE;
	 1458 : 0030;
	 1459 : FFF0;
	 1460 : 0032;
	 1461 : FFE7;
	 1462 : FFFD;
	 1463 : FFF1;
	 1464 : FFF1;
	 1465 : 0023;
	 1466 : 0019;
	 1467 : 0032;
	 1468 : 000C;
	 1469 : FFFC;
	 1470 : FFD6;
	 1471 : 0033;
	 1472 : 0005;
	 1473 : 0015;
	 1474 : FFF6;
	 1475 : 0005;
	 1476 : 002D;
	 1477 : FFDE;
	 1478 : FFEB;
	 1479 : FFDC;
	 1480 : 001E;
	 1481 : FFD3;
	 1482 : FFD5;
	 1483 : FFEB;
	 1484 : 0001;
	 1485 : FFF6;
	 1486 : FFD1;
	 1487 : 002F;
	 1488 : 002E;
	 1489 : FFE9;
	 1490 : 0018;
	 1491 : 0008;
	 1492 : FFE5;
	 1493 : FFE8;
	 1494 : FFFF;
	 1495 : FFF8;
	 1496 : FFEB;
	 1497 : 001F;
	 1498 : FFFE;
	 1499 : 0010;
	 1500 : FFE0;
	 1501 : 0003;
	 1502 : FFED;
	 1503 : 0003;
	 1504 : 001D;
	 1505 : 001C;
	 1506 : FFF1;
	 1507 : 0014;
	 1508 : 002D;
	 1509 : 000D;
	 1510 : FFDC;
	 1511 : 0012;
	 1512 : FFD8;
	 1513 : 0026;
	 1514 : 0002;
	 1515 : FFF4;
	 1516 : FFD3;
	 1517 : FFF4;
	 1518 : 0029;
	 1519 : FFCF;
	 1520 : FFFD;
	 1521 : 002C;
	 1522 : FFF5;
	 1523 : FFF9;
	 1524 : 0008;
	 1525 : FFFC;
	 1526 : FFDE;
	 1527 : FFCF;
	 1528 : 000B;
	 1529 : 002B;
	 1530 : FFD8;
	 1531 : FFE2;
	 1532 : FFF3;
	 1533 : 0020;
	 1534 : FFE8;
	 1535 : 0027;
	 1536 : FFD2;
	 1537 : 002D;
	 1538 : 0006;
	 1539 : 0010;
	 1540 : FFF2;
	 1541 : 001D;
	 1542 : FFDE;
	 1543 : FFD2;
	 1544 : FFF5;
	 1545 : 0024;
	 1546 : 001A;
	 1547 : 0002;
	 1548 : 0007;
	 1549 : FFDA;
	 1550 : 0023;
	 1551 : 001D;
	 1552 : 0010;
	 1553 : FFFD;
	 1554 : 0030;
	 1555 : 0027;
	 1556 : 000F;
	 1557 : FFF3;
	 1558 : 000C;
	 1559 : 0008;
	 1560 : FFF5;
	 1561 : FFEC;
	 1562 : FFF6;
	 1563 : 0008;
	 1564 : FFF9;
	 1565 : FFE8;
	 1566 : 001B;
	 1567 : 0003;
	 1568 : FFD4;
	 1569 : FFF3;
	 1570 : 0027;
	 1571 : 001A;
	 1572 : FFEE;
	 1573 : 002D;
	 1574 : FFD5;
	 1575 : 002F;
	 1576 : FFE6;
	 1577 : FFCE;
	 1578 : FFF9;
	 1579 : FFF2;
	 1580 : 0004;
	 1581 : 001E;
	 1582 : 0023;
	 1583 : FFF6;
	 1584 : FFF9;
	 1585 : FFDC;
	 1586 : FFD2;
	 1587 : 000E;
	 1588 : FFD3;
	 1589 : 0018;
	 1590 : 0004;
	 1591 : FFE1;
	 1592 : 0004;
	 1593 : FFE0;
	 1594 : FFFA;
	 1595 : 001F;
	 1596 : FFFC;
	 1597 : FFDC;
	 1598 : 0017;
	 1599 : FFE0;
	 1600 : 0018;
	 1601 : FFFE;
	 1602 : FFFB;
	 1603 : 0024;
	 1604 : 0015;
	 1605 : FFD0;
	 1606 : FFEB;
	 1607 : 0026;
	 1608 : FFCF;
	 1609 : 0005;
	 1610 : 0017;
	 1611 : 000C;
	 1612 : 001B;
	 1613 : 0017;
	 1614 : 0014;
	 1615 : 0021;
	 1616 : 000F;
	 1617 : FFF6;
	 1618 : FFFD;
	 1619 : 0016;
	 1620 : 0027;
	 1621 : FFE9;
	 1622 : FFF0;
	 1623 : 002C;
	 1624 : 0008;
	 1625 : FFDF;
	 1626 : 0011;
	 1627 : 0032;
	 1628 : 0021;
	 1629 : 0019;
	 1630 : FFE2;
	 1631 : 0027;
	 1632 : 0003;
	 1633 : 0028;
	 1634 : FFEF;
	 1635 : FFD3;
	 1636 : FFFE;
	 1637 : FFE8;
	 1638 : 0016;
	 1639 : 002F;
	 1640 : 0014;
	 1641 : 0028;
	 1642 : FFFB;
	 1643 : 001C;
	 1644 : 0023;
	 1645 : 0016;
	 1646 : 0001;
	 1647 : 000D;
	 1648 : 0015;
	 1649 : FFE7;
	 1650 : 0020;
	 1651 : 002E;
	 1652 : FFFC;
	 1653 : 0015;
	 1654 : 0018;
	 1655 : 0011;
	 1656 : 0005;
	 1657 : 0027;
	 1658 : FFFB;
	 1659 : FFD3;
	 1660 : 0023;
	 1661 : 0012;
	 1662 : 0024;
	 1663 : FFDB;
	 1664 : FFD0;
	 1665 : 002C;
	 1666 : FFDC;
	 1667 : 0020;
	 1668 : 0021;
	 1669 : 0015;
	 1670 : FFDA;
	 1671 : 0011;
	 1672 : 0028;
	 1673 : FFF8;
	 1674 : FFF7;
	 1675 : FFFA;
	 1676 : FFD5;
	 1677 : 0028;
	 1678 : 0026;
	 1679 : 0033;
	 1680 : 0009;
	 1681 : 001A;
	 1682 : FFE2;
	 1683 : 0011;
	 1684 : 000F;
	 1685 : 0029;
	 1686 : 0022;
	 1687 : 002D;
	 1688 : 0026;
	 1689 : 0026;
	 1690 : FFD3;
	 1691 : 0023;
	 1692 : 000B;
	 1693 : FFF4;
	 1694 : FFD3;
	 1695 : 0012;
	 1696 : FFEE;
	 1697 : FFFD;
	 1698 : 0013;
	 1699 : 002A;
	 1700 : 0021;
	 1701 : FFFB;
	 1702 : FFF5;
	 1703 : FFE5;
	 1704 : FFF3;
	 1705 : FFD8;
	 1706 : 0030;
	 1707 : 0008;
	 1708 : FFDA;
	 1709 : FFF1;
	 1710 : 0005;
	 1711 : 0003;
	 1712 : FFD0;
	 1713 : 002E;
	 1714 : FFE9;
	 1715 : FFCE;
	 1716 : FFD5;
	 1717 : 0008;
	 1718 : FFDB;
	 1719 : FFD1;
	 1720 : FFF4;
	 1721 : 000D;
	 1722 : FFD8;
	 1723 : FFED;
	 1724 : FFF8;
	 1725 : FFDD;
	 1726 : 0001;
	 1727 : FFD6;
	 1728 : FFD2;
	 1729 : 0002;
	 1730 : FFE6;
	 1731 : FFD7;
	 1732 : FFF8;
	 1733 : 002B;
	 1734 : 0017;
	 1735 : 0020;
	 1736 : 0026;
	 1737 : 0030;
	 1738 : 001B;
	 1739 : 000B;
	 1740 : FFF2;
	 1741 : FFDF;
	 1742 : 0013;
	 1743 : 0033;
	 1744 : FFFD;
	 1745 : 0017;
	 1746 : FFFF;
	 1747 : FFF9;
	 1748 : FFF7;
	 1749 : 0000;
	 1750 : FFF2;
	 1751 : 0019;
	 1752 : 0026;
	 1753 : 0027;
	 1754 : FFE4;
	 1755 : 0029;
	 1756 : FFF0;
	 1757 : FFEC;
	 1758 : 0017;
	 1759 : FFEC;
	 1760 : FFD2;
	 1761 : FFF3;
	 1762 : 0017;
	 1763 : FFEE;
	 1764 : 000D;
	 1765 : 0010;
	 1766 : 0018;
	 1767 : 0029;
	 1768 : FFF9;
	 1769 : FFDE;
	 1770 : FFED;
	 1771 : FFF9;
	 1772 : 0016;
	 1773 : FFCE;
	 1774 : FFED;
	 1775 : 001D;
	 1776 : 0011;
	 1777 : 0018;
	 1778 : 0020;
	 1779 : 001D;
	 1780 : 0013;
	 1781 : FFFA;
	 1782 : 0032;
	 1783 : 0007;
	 1784 : FFE2;
	 1785 : FFEB;
	 1786 : 0014;
	 1787 : 002B;
	 1788 : FFDF;
	 1789 : FFD5;
	 1790 : 0027;
	 1791 : 002B;
	 1792 : FFE9;
	 1793 : FFF3;
	 1794 : 0010;
	 1795 : FFEF;
	 1796 : 0027;
	 1797 : FFD8;
	 1798 : FFD1;
	 1799 : FFE2;
	 1800 : FFEA;
	 1801 : FFD8;
	 1802 : FFD4;
	 1803 : 001A;
	 1804 : FFDE;
	 1805 : 002A;
	 1806 : FFF2;
	 1807 : 0011;
	 1808 : FFE4;
	 1809 : FFE5;
	 1810 : 0008;
	 1811 : 0006;
	 1812 : 001C;
	 1813 : 001A;
	 1814 : 0011;
	 1815 : FFFB;
	 1816 : 0028;
	 1817 : 000D;
	 1818 : 0032;
	 1819 : 0021;
	 1820 : FFD1;
	 1821 : FFEE;
	 1822 : 0007;
	 1823 : 0017;
	 1824 : 0005;
	 1825 : 001D;
	 1826 : FFEA;
	 1827 : FFE0;
	 1828 : FFD2;
	 1829 : 0008;
	 1830 : 0013;
	 1831 : FFEE;
	 1832 : 000C;
	 1833 : FFD2;
	 1834 : FFD7;
	 1835 : 0015;
	 1836 : FFF2;
	 1837 : 0012;
	 1838 : 0022;
	 1839 : 0024;
	 1840 : FFDE;
	 1841 : FFFF;
	 1842 : 0018;
	 1843 : 001C;
	 1844 : 001D;
	 1845 : FFE4;
	 1846 : FFE1;
	 1847 : 0009;
	 1848 : 0019;
	 1849 : FFED;
	 1850 : FFD8;
	 1851 : 0016;
	 1852 : FFEB;
	 1853 : FFDE;
	 1854 : FFDC;
	 1855 : FFED;
	 1856 : 0009;
	 1857 : FFF2;
	 1858 : FFCF;
	 1859 : FFD7;
	 1860 : FFEB;
	 1861 : 0010;
	 1862 : FFD7;
	 1863 : 0006;
	 1864 : FFD9;
	 1865 : FFE2;
	 1866 : FFDE;
	 1867 : FFD4;
	 1868 : 0012;
	 1869 : FFFC;
	 1870 : 0022;
	 1871 : FFD7;
	 1872 : FFDC;
	 1873 : FFEC;
	 1874 : 001B;
	 1875 : FFEC;
	 1876 : FFF7;
	 1877 : FFEC;
	 1878 : FFD5;
	 1879 : 002D;
	 1880 : 0005;
	 1881 : 001D;
	 1882 : 0010;
	 1883 : 0001;
	 1884 : FFD6;
	 1885 : 000F;
	 1886 : FFDD;
	 1887 : FFF7;
	 1888 : 000D;
	 1889 : 001D;
	 1890 : 0013;
	 1891 : 0012;
	 1892 : FFDC;
	 1893 : FFF0;
	 1894 : FFD1;
	 1895 : 0016;
	 1896 : 002E;
	 1897 : FFE8;
	 1898 : FFD6;
	 1899 : FFFD;
	 1900 : 0025;
	 1901 : 0005;
	 1902 : FFD2;
	 1903 : 0031;
	 1904 : 0022;
	 1905 : FFDA;
	 1906 : 002B;
	 1907 : FFFB;
	 1908 : FFF3;
	 1909 : FFFC;
	 1910 : 0022;
	 1911 : 0010;
	 1912 : FFD3;
	 1913 : 002F;
	 1914 : FFDC;
	 1915 : 0019;
	 1916 : 000E;
	 1917 : FFE0;
	 1918 : FFDE;
	 1919 : 0026;
	 1920 : FFF8;
	 1921 : 0010;
	 1922 : 0000;
	 1923 : 0017;
	 1924 : FFFE;
	 1925 : FFEA;
	 1926 : FFF2;
	 1927 : 0025;
	 1928 : FFFD;
	 1929 : FFE3;
	 1930 : 002D;
	 1931 : 001E;
	 1932 : FFD3;
	 1933 : 0033;
	 1934 : 0014;
	 1935 : FFDD;
	 1936 : FFE5;
	 1937 : 0014;
	 1938 : 001D;
	 1939 : FFE5;
	 1940 : FFE7;
	 1941 : FFEC;
	 1942 : 000A;
	 1943 : FFDE;
	 1944 : FFD7;
	 1945 : 0012;
	 1946 : 001D;
	 1947 : 0000;
	 1948 : FFF2;
	 1949 : FFF9;
	 1950 : FFF5;
	 1951 : 002F;
	 1952 : 001B;
	 1953 : FFE2;
	 1954 : FFF4;
	 1955 : 0005;
	 1956 : 000C;
	 1957 : FFFD;
	 1958 : 0020;
	 1959 : 001B;
	 1960 : 0001;
	 1961 : 0024;
	 1962 : 001A;
	 1963 : 001D;
	 1964 : 002F;
	 1965 : FFE8;
	 1966 : FFE8;
	 1967 : 0028;
	 1968 : 001C;
	 1969 : 002C;
	 1970 : FFD3;
	 1971 : 000D;
	 1972 : FFDC;
	 1973 : 0000;
	 1974 : FFDD;
	 1975 : FFDA;
	 1976 : FFCE;
	 1977 : 000D;
	 1978 : FFF2;
	 1979 : FFD8;
	 1980 : FFEE;
	 1981 : FFDE;
	 1982 : 002D;
	 1983 : FFEE;
	 1984 : FFEF;
	 1985 : 0023;
	 1986 : 000F;
	 1987 : 0016;
	 1988 : 000E;
	 1989 : 002E;
	 1990 : FFE2;
	 1991 : 0032;
	 1992 : 0022;
	 1993 : 0009;
	 1994 : 0011;
	 1995 : 000F;
	 1996 : FFD3;
	 1997 : FFE3;
	 1998 : 002F;
	 1999 : 0004;
	 2000 : FFF4;
	 2001 : 001B;
	 2002 : 0003;
	 2003 : FFCE;
	 2004 : 0018;
	 2005 : 0018;
	 2006 : FFDE;
	 2007 : 002F;
	 2008 : FFE4;
	 2009 : FFFC;
	 2010 : FFD9;
	 2011 : 000B;
	 2012 : FFF3;
	 2013 : FFF1;
	 2014 : 0021;
	 2015 : FFCE;
	 2016 : 001F;
	 2017 : 0007;
	 2018 : 0032;
	 2019 : 0009;
	 2020 : FFD2;
	 2021 : FFD2;
	 2022 : 0027;
	 2023 : 0023;
	 2024 : FFF0;
	 2025 : 000C;
	 2026 : FFFF;
	 2027 : 0030;
	 2028 : 002E;
	 2029 : 0032;
	 2030 : 0026;
	 2031 : 002A;
	 2032 : FFE3;
	 2033 : 0022;
	 2034 : 0015;
	 2035 : 002F;
	 2036 : 0007;
	 2037 : FFD6;
	 2038 : 000A;
	 2039 : 0013;
	 2040 : FFE3;
	 2041 : FFF5;
	 2042 : 000A;
	 2043 : FFF3;
	 2044 : FFF3;
	 2045 : FFDA;
	 2046 : 002D;
	 2047 : 001A;
	 2048 : FFCD;
	 2049 : 001B;
	 2050 : 0019;
	 2051 : FFCE;
	 2052 : FFF3;
	 2053 : 000B;
	 2054 : FFFB;
	 2055 : 001C;
	 2056 : FFF8;
	 2057 : FFDD;
	 2058 : 0031;
	 2059 : FFE6;
	 2060 : 0016;
	 2061 : FFDB;
	 2062 : FFEE;
	 2063 : FFFA;
	 2064 : FFE0;
	 2065 : FFFB;
	 2066 : FFDD;
	 2067 : 0006;
	 2068 : 0011;
	 2069 : FFD3;
	 2070 : 0026;
	 2071 : FFE0;
	 2072 : FFE4;
	 2073 : 0011;
	 2074 : FFFD;
	 2075 : 0000;
	 2076 : FFDA;
	 2077 : 001F;
	 2078 : 000C;
	 2079 : FFDB;
	 2080 : FFF3;
	 2081 : 0020;
	 2082 : 0007;
	 2083 : FFD8;
	 2084 : FFF3;
	 2085 : FFE6;
	 2086 : 0002;
	 2087 : 0023;
	 2088 : FFF9;
	 2089 : FFF9;
	 2090 : 002A;
	 2091 : 0008;
	 2092 : 0007;
	 2093 : FFE8;
	 2094 : 000B;
	 2095 : 0008;
	 2096 : FFF5;
	 2097 : 0032;
	 2098 : 0027;
	 2099 : 001A;
	 2100 : 0004;
	 2101 : FFFC;
	 2102 : FFE0;
	 2103 : FFEC;
	 2104 : 001C;
	 2105 : FFFB;
	 2106 : 0027;
	 2107 : FFDC;
	 2108 : 0001;
	 2109 : 000F;
	 2110 : 0002;
	 2111 : 0028;
	 2112 : 0032;
	 2113 : FFD9;
	 2114 : FFDA;
	 2115 : FFDA;
	 2116 : 0013;
	 2117 : FFF3;
	 2118 : 0018;
	 2119 : FFF6;
	 2120 : 000D;
	 2121 : 001C;
	 2122 : 0005;
	 2123 : 0004;
	 2124 : FFD6;
	 2125 : FFF7;
	 2126 : 0005;
	 2127 : FFFC;
	 2128 : 0029;
	 2129 : 002A;
	 2130 : 0021;
	 2131 : FFF3;
	 2132 : 0016;
	 2133 : FFF5;
	 2134 : FFE5;
	 2135 : FFF0;
	 2136 : FFD4;
	 2137 : FFEF;
	 2138 : FFFC;
	 2139 : 002F;
	 2140 : FFED;
	 2141 : 0029;
	 2142 : FFE4;
	 2143 : FFE0;
	 2144 : 0002;
	 2145 : 0012;
	 2146 : FFD1;
	 2147 : FFE3;
	 2148 : FFFB;
	 2149 : FFEF;
	 2150 : 0016;
	 2151 : 0001;
	 2152 : FFDD;
	 2153 : 0028;
	 2154 : FFEB;
	 2155 : 0018;
	 2156 : 001D;
	 2157 : 002F;
	 2158 : 0000;
	 2159 : 000C;
	 2160 : FFEF;
	 2161 : 0012;
	 2162 : FFFC;
	 2163 : FFFA;
	 2164 : 0024;
	 2165 : FFD2;
	 2166 : 0027;
	 2167 : 0024;
	 2168 : 0001;
	 2169 : FFFF;
	 2170 : FFF2;
	 2171 : 0033;
	 2172 : FFD8;
	 2173 : 0009;
	 2174 : 0013;
	 2175 : 002C;
	 2176 : 001D;
	 2177 : 000F;
	 2178 : FFD9;
	 2179 : FFF3;
	 2180 : FFDB;
	 2181 : 0027;
	 2182 : 001A;
	 2183 : 001A;
	 2184 : 0010;
	 2185 : 0001;
	 2186 : FFDC;
	 2187 : FFEF;
	 2188 : FFDB;
	 2189 : 0017;
	 2190 : FFDD;
	 2191 : 0015;
	 2192 : 0014;
	 2193 : FFFC;
	 2194 : FFDB;
	 2195 : FFED;
	 2196 : FFEE;
	 2197 : 0015;
	 2198 : FFD8;
	 2199 : 0022;
	 2200 : 001B;
	 2201 : FFE0;
	 2202 : 0016;
	 2203 : 0011;
	 2204 : 0019;
	 2205 : FFE0;
	 2206 : FFDD;
	 2207 : FFE5;
	 2208 : FFF2;
	 2209 : 001E;
	 2210 : 0018;
	 2211 : 002C;
	 2212 : FFD3;
	 2213 : FFCE;
	 2214 : 0014;
	 2215 : FFE9;
	 2216 : FFEF;
	 2217 : 0005;
	 2218 : FFD7;
	 2219 : 000F;
	 2220 : FFEE;
	 2221 : 000E;
	 2222 : 0022;
	 2223 : FFDE;
	 2224 : 002C;
	 2225 : 0003;
	 2226 : 002B;
	 2227 : FFE2;
	 2228 : 000B;
	 2229 : FFF6;
	 2230 : 001C;
	 2231 : 000B;
	 2232 : FFFF;
	 2233 : 002A;
	 2234 : FFF3;
	 2235 : FFE3;
	 2236 : 000B;
	 2237 : 000D;
	 2238 : FFFA;
	 2239 : FFFF;
	 2240 : 002F;
	 2241 : 0018;
	 2242 : FFD8;
	 2243 : FFE3;
	 2244 : 0031;
	 2245 : 0017;
	 2246 : 002B;
	 2247 : FFEC;
	 2248 : 0019;
	 2249 : 0016;
	 2250 : FFEB;
	 2251 : 0005;
	 2252 : 000D;
	 2253 : FFFE;
	 2254 : 0022;
	 2255 : 0022;
	 2256 : 0024;
	 2257 : 001F;
	 2258 : FFFF;
	 2259 : FFF4;
	 2260 : 0022;
	 2261 : FFFF;
	 2262 : FFE6;
	 2263 : 0001;
	 2264 : FFDB;
	 2265 : 0014;
	 2266 : FFEF;
	 2267 : FFE7;
	 2268 : 002F;
	 2269 : 001C;
	 2270 : 001D;
	 2271 : 000D;
	 2272 : 0023;
	 2273 : 001B;
	 2274 : 000A;
	 2275 : 002F;
	 2276 : FFE0;
	 2277 : 002D;
	 2278 : FFF6;
	 2279 : 0003;
	 2280 : FFD9;
	 2281 : 0004;
	 2282 : 000B;
	 2283 : 0033;
	 2284 : 0031;
	 2285 : 0030;
	 2286 : FFF0;
	 2287 : 0032;
	 2288 : FFFB;
	 2289 : 0024;
	 2290 : FFE3;
	 2291 : 0001;
	 2292 : 0030;
	 2293 : 002E;
	 2294 : 0013;
	 2295 : 001E;
	 2296 : FFDF;
	 2297 : 0017;
	 2298 : 000C;
	 2299 : FFD6;
	 2300 : FFD8;
	 2301 : FFD8;
	 2302 : 0017;
	 2303 : FFDB;
	 2304 : FFFD;
	 2305 : FFF1;
	 2306 : 0005;
	 2307 : 0015;
	 2308 : 0013;
	 2309 : 0002;
	 2310 : FFFC;
	 2311 : FFF6;
	 2312 : 0025;
	 2313 : FFEF;
	 2314 : FFE7;
	 2315 : 0019;
	 2316 : FFF2;
	 2317 : 0024;
	 2318 : FFEE;
	 2319 : 0015;
	 2320 : FFD1;
	 2321 : FFF4;
	 2322 : FFF0;
	 2323 : 0020;
	 2324 : 0030;
	 2325 : FFFC;
	 2326 : 0021;
	 2327 : 0014;
	 2328 : 0030;
	 2329 : 0020;
	 2330 : FFD5;
	 2331 : 0016;
	 2332 : 0004;
	 2333 : FFCE;
	 2334 : FFE7;
	 2335 : 002B;
	 2336 : 002C;
	 2337 : 001F;
	 2338 : 0031;
	 2339 : 001F;
	 2340 : FFCE;
	 2341 : FFEA;
	 2342 : FFD0;
	 2343 : FFD6;
	 2344 : FFE3;
	 2345 : 0000;
	 2346 : 0024;
	 2347 : 0025;
	 2348 : 000C;
	 2349 : 002C;
	 2350 : 0000;
	 2351 : 0028;
	 2352 : FFFB;
	 2353 : FFE9;
	 2354 : 002B;
	 2355 : FFF5;
	 2356 : 0000;
	 2357 : FFEE;
	 2358 : 0011;
	 2359 : 0033;
	 2360 : FFCF;
	 2361 : 0029;
	 2362 : FFCD;
	 2363 : FFF2;
	 2364 : FFDE;
	 2365 : 001A;
	 2366 : FFD2;
	 2367 : 0005;
	 2368 : FFEB;
	 2369 : FFDA;
	 2370 : 001C;
	 2371 : FFE3;
	 2372 : FFE4;
	 2373 : FFE9;
	 2374 : 0009;
	 2375 : 0010;
	 2376 : FFCF;
	 2377 : FFE6;
	 2378 : FFF9;
	 2379 : FFEF;
	 2380 : 0027;
	 2381 : 001D;
	 2382 : 000D;
	 2383 : FFEF;
	 2384 : 0015;
	 2385 : 0023;
	 2386 : 000A;
	 2387 : 001D;
	 2388 : 001A;
	 2389 : 0007;
	 2390 : FFED;
	 2391 : 0019;
	 2392 : FFE2;
	 2393 : 001D;
	 2394 : 001F;
	 2395 : 0021;
	 2396 : FFFD;
	 2397 : FFE1;
	 2398 : FFD7;
	 2399 : 0019;
	 2400 : 0028;
	 2401 : 000F;
	 2402 : FFDC;
	 2403 : 002D;
	 2404 : 0032;
	 2405 : FFF9;
	 2406 : 000A;
	 2407 : 001C;
	 2408 : 0018;
	 2409 : 0030;
	 2410 : FFD9;
	 2411 : 0008;
	 2412 : 0014;
	 2413 : 0028;
	 2414 : 0026;
	 2415 : 0031;
	 2416 : 0001;
	 2417 : 0022;
	 2418 : FFF9;
	 2419 : FFF8;
	 2420 : FFE7;
	 2421 : 0021;
	 2422 : 0032;
	 2423 : FFE7;
	 2424 : FFD3;
	 2425 : 0020;
	 2426 : 000C;
	 2427 : 002F;
	 2428 : FFE7;
	 2429 : FFD4;
	 2430 : FFFF;
	 2431 : FFD6;
	 2432 : FFE8;
	 2433 : FFDA;
	 2434 : FFE4;
	 2435 : FFD8;
	 2436 : 002E;
	 2437 : FFE9;
	 2438 : FFFA;
	 2439 : 0029;
	 2440 : 0012;
	 2441 : 000C;
	 2442 : 0015;
	 2443 : 0022;
	 2444 : 0027;
	 2445 : 000F;
	 2446 : 0028;
	 2447 : 0004;
	 2448 : FFE9;
	 2449 : 0027;
	 2450 : 0004;
	 2451 : 002A;
	 2452 : FFD1;
	 2453 : FFF6;
	 2454 : 002E;
	 2455 : FFE6;
	 2456 : 002D;
	 2457 : 002E;
	 2458 : 0027;
	 2459 : 0007;
	 2460 : 000F;
	 2461 : 0026;
	 2462 : 001C;
	 2463 : 000D;
	 2464 : 0031;
	 2465 : 0013;
	 2466 : 0031;
	 2467 : FFD3;
	 2468 : FFDB;
	 2469 : FFFB;
	 2470 : FFF4;
	 2471 : 001D;
	 2472 : FFDD;
	 2473 : 0031;
	 2474 : FFED;
	 2475 : FFF9;
	 2476 : FFE9;
	 2477 : 0008;
	 2478 : FFD3;
	 2479 : FFDC;
	 2480 : 0019;
	 2481 : FFE0;
	 2482 : FFE5;
	 2483 : 001E;
	 2484 : FFD6;
	 2485 : FFFA;
	 2486 : FFCF;
	 2487 : FFF0;
	 2488 : 0014;
	 2489 : FFD6;
	 2490 : 0028;
	 2491 : 002A;
	 2492 : FFD8;
	 2493 : 0032;
	 2494 : FFEB;
	 2495 : FFD5;
	 2496 : FFCD;
	 2497 : FFF7;
	 2498 : 000D;
	 2499 : FFEF;
	 2500 : 0022;
	 2501 : 0016;
	 2502 : FFF1;
	 2503 : 0018;
	 2504 : 002D;
	 2505 : FFD6;
	 2506 : FFEC;
	 2507 : FFFC;
	 2508 : 0000;
	 2509 : 0004;
	 2510 : FFEC;
	 2511 : 0011;
	 2512 : 000F;
	 2513 : 0008;
	 2514 : FFD8;
	 2515 : FFFE;
	 2516 : FFF1;
	 2517 : FFFF;
	 2518 : 002B;
	 2519 : FFFE;
	 2520 : FFCE;
	 2521 : FFFA;
	 2522 : 0021;
	 2523 : 001D;
	 2524 : 0001;
	 2525 : FFE6;
	 2526 : FFFC;
	 2527 : 0007;
	 2528 : 0033;
	 2529 : 000F;
	 2530 : 0014;
	 2531 : FFFF;
	 2532 : FFF1;
	 2533 : 0020;
	 2534 : FFFF;
	 2535 : 0033;
	 2536 : FFFC;
	 2537 : FFD4;
	 2538 : 0013;
	 2539 : FFD2;
	 2540 : FFE6;
	 2541 : FFF1;
	 2542 : 0019;
	 2543 : FFFF;
	 2544 : FFD0;
	 2545 : 000C;
	 2546 : FFF7;
	 2547 : 002B;
	 2548 : 0000;
	 2549 : 0015;
	 2550 : FFE3;
	 2551 : 001B;
	 2552 : 0017;
	 2553 : 0029;
	 2554 : FFD0;
	 2555 : FFFB;
	 2556 : 0012;
	 2557 : FFD7;
	 2558 : FFF7;
	 2559 : 002D;
	 2560 : FFF9;
	 2561 : 0032;
	 2562 : FFD3;
	 2563 : 0016;
	 2564 : 0008;
	 2565 : 0000;
	 2566 : 0030;
	 2567 : FFDA;
	 2568 : 0029;
	 2569 : 0014;
	 2570 : FFE7;
	 2571 : 0029;
	 2572 : FFF9;
	 2573 : 0020;
	 2574 : FFF5;
	 2575 : 0024;
	 2576 : 000E;
	 2577 : FFDB;
	 2578 : 000F;
	 2579 : FFE0;
	 2580 : FFF7;
	 2581 : FFDE;
	 2582 : FFCF;
	 2583 : FFE2;
	 2584 : 0004;
	 2585 : FFFE;
	 2586 : 0000;
	 2587 : FFE6;
	 2588 : 0013;
	 2589 : 0015;
	 2590 : FFF1;
	 2591 : 0027;
	 2592 : 000F;
	 2593 : 0016;
	 2594 : FFE9;
	 2595 : FFCD;
	 2596 : 0025;
	 2597 : 0021;
	 2598 : FFD9;
	 2599 : FFF3;
	 2600 : 0011;
	 2601 : 0010;
	 2602 : 0025;
	 2603 : FFDB;
	 2604 : FFF9;
	 2605 : FFD7;
	 2606 : FFF5;
	 2607 : FFCE;
	 2608 : 0029;
	 2609 : 0003;
	 2610 : 0024;
	 2611 : FFD3;
	 2612 : FFE4;
	 2613 : FFE7;
	 2614 : FFF4;
	 2615 : 001F;
	 2616 : FFF4;
	 2617 : FFE2;
	 2618 : FFD3;
	 2619 : FFD5;
	 2620 : 001B;
	 2621 : FFFA;
	 2622 : 0017;
	 2623 : 0013;
	 2624 : FFDB;
	 2625 : FFDB;
	 2626 : 001A;
	 2627 : 0017;
	 2628 : FFF4;
	 2629 : FFD5;
	 2630 : FFCE;
	 2631 : FFEA;
	 2632 : FFCE;
	 2633 : FFE4;
	 2634 : FFF8;
	 2635 : FFD9;
	 2636 : FFD7;
	 2637 : 0029;
	 2638 : 0009;
	 2639 : 002C;
	 2640 : FFF0;
	 2641 : 0012;
	 2642 : FFE2;
	 2643 : 000C;
	 2644 : FFDA;
	 2645 : FFCD;
	 2646 : 002C;
	 2647 : 0006;
	 2648 : 002C;
	 2649 : FFEF;
	 2650 : FFEE;
	 2651 : FFF6;
	 2652 : 0015;
	 2653 : 0007;
	 2654 : 002C;
	 2655 : FFCF;
	 2656 : 0015;
	 2657 : FFEF;
	 2658 : FFDF;
	 2659 : 0001;
	 2660 : 0001;
	 2661 : FFDB;
	 2662 : FFE1;
	 2663 : FFF7;
	 2664 : FFF7;
	 2665 : FFED;
	 2666 : FFDC;
	 2667 : FFCD;
	 2668 : 0030;
	 2669 : 002D;
	 2670 : FFFE;
	 2671 : 0033;
	 2672 : 0012;
	 2673 : FFD4;
	 2674 : FFD9;
	 2675 : 002B;
	 2676 : 000D;
	 2677 : 0023;
	 2678 : 0029;
	 2679 : FFFB;
	 2680 : FFD2;
	 2681 : FFE0;
	 2682 : FFD4;
	 2683 : FFE0;
	 2684 : FFF7;
	 2685 : FFD9;
	 2686 : FFDE;
	 2687 : FFFA;
	 2688 : FFF0;
	 2689 : FFFD;
	 2690 : FFF9;
	 2691 : 000F;
	 2692 : 002D;
	 2693 : FFD8;
	 2694 : FFD7;
	 2695 : 0024;
	 2696 : 0001;
	 2697 : 001B;
	 2698 : FFE3;
	 2699 : 0022;
	 2700 : 002B;
	 2701 : 000E;
	 2702 : FFD8;
	 2703 : 0028;
	 2704 : 001E;
	 2705 : 001A;
	 2706 : FFD1;
	 2707 : 001F;
	 2708 : FFDB;
	 2709 : FFE4;
	 2710 : 0008;
	 2711 : FFE8;
	 2712 : 0011;
	 2713 : 000B;
	 2714 : FFD8;
	 2715 : 0010;
	 2716 : 002B;
	 2717 : FFDD;
	 2718 : 000A;
	 2719 : FFF0;
	 2720 : FFFC;
	 2721 : FFEA;
	 2722 : FFF1;
	 2723 : FFD0;
	 2724 : 0031;
	 2725 : 000D;
	 2726 : 0000;
	 2727 : FFF4;
	 2728 : 0004;
	 2729 : FFF4;
	 2730 : FFF2;
	 2731 : FFFC;
	 2732 : FFE9;
	 2733 : FFDF;
	 2734 : 0006;
	 2735 : 0023;
	 2736 : FFDC;
	 2737 : FFD0;
	 2738 : FFE6;
	 2739 : 0031;
	 2740 : 0022;
	 2741 : 000A;
	 2742 : 002C;
	 2743 : FFFA;
	 2744 : 0031;
	 2745 : FFEB;
	 2746 : FFE5;
	 2747 : 000E;
	 2748 : FFF4;
	 2749 : 000D;
	 2750 : FFEC;
	 2751 : 000C;
	 2752 : FFE9;
	 2753 : FFD2;
	 2754 : 002A;
	 2755 : 0027;
	 2756 : 0030;
	 2757 : 0016;
	 2758 : 0013;
	 2759 : 0006;
	 2760 : FFDA;
	 2761 : FFE0;
	 2762 : FFEA;
	 2763 : 0028;
	 2764 : FFDF;
	 2765 : 002B;
	 2766 : 0002;
	 2767 : 0016;
	 2768 : FFD8;
	 2769 : FFE8;
	 2770 : 002F;
	 2771 : FFE8;
	 2772 : FFEB;
	 2773 : FFE1;
	 2774 : FFDA;
	 2775 : FFE5;
	 2776 : 000F;
	 2777 : FFFB;
	 2778 : 0006;
	 2779 : FFD9;
	 2780 : 001F;
	 2781 : 001D;
	 2782 : FFCF;
	 2783 : FFF4;
	 2784 : FFD4;
	 2785 : 001E;
	 2786 : 0018;
	 2787 : 0029;
	 2788 : FFE5;
	 2789 : FFFC;
	 2790 : FFE0;
	 2791 : FFF3;
	 2792 : 0002;
	 2793 : FFD2;
	 2794 : 0016;
	 2795 : 0004;
	 2796 : 0022;
	 2797 : FFE9;
	 2798 : 0029;
	 2799 : 0033;
	 2800 : 002B;
	 2801 : 001C;
	 2802 : 0020;
	 2803 : 0008;
	 2804 : FFE0;
	 2805 : 0012;
	 2806 : 0016;
	 2807 : 0032;
	 2808 : 0004;
	 2809 : FFE9;
	 2810 : 0013;
	 2811 : 0031;
	 2812 : FFDF;
	 2813 : FFEE;
	 2814 : 0004;
	 2815 : FFDE;
	 2816 : FFCF;
	 2817 : FFEF;
	 2818 : 0025;
	 2819 : FFD1;
	 2820 : FFF9;
	 2821 : 001B;
	 2822 : 002E;
	 2823 : 0032;
	 2824 : FFF8;
	 2825 : 002E;
	 2826 : FFD0;
	 2827 : 0019;
	 2828 : 000F;
	 2829 : FFE6;
	 2830 : 0001;
	 2831 : FFDA;
	 2832 : 0026;
	 2833 : FFF1;
	 2834 : 000D;
	 2835 : FFDD;
	 2836 : FFE2;
	 2837 : 0032;
	 2838 : 001A;
	 2839 : 002F;
	 2840 : FFEB;
	 2841 : FFDE;
	 2842 : 0000;
	 2843 : FFFF;
	 2844 : FFDF;
	 2845 : 0018;
	 2846 : FFF2;
	 2847 : FFE0;
	 2848 : FFEF;
	 2849 : 0007;
	 2850 : 0017;
	 2851 : FFFE;
	 2852 : 0003;
	 2853 : FFDB;
	 2854 : 002A;
	 2855 : 002C;
	 2856 : 0013;
	 2857 : FFCF;
	 2858 : 0004;
	 2859 : 000D;
	 2860 : 0033;
	 2861 : 0033;
	 2862 : 0025;
	 2863 : FFD3;
	 2864 : 002E;
	 2865 : 000C;
	 2866 : 001F;
	 2867 : FFF6;
	 2868 : FFEE;
	 2869 : FFFC;
	 2870 : FFDC;
	 2871 : FFF1;
	 2872 : 0025;
	 2873 : FFD1;
	 2874 : FFDC;
	 2875 : FFDA;
	 2876 : FFF6;
	 2877 : 0033;
	 2878 : FFDF;
	 2879 : FFDC;
	 2880 : 002B;
	 2881 : 0027;
	 2882 : FFD0;
	 2883 : 001A;
	 2884 : 0010;
	 2885 : 001B;
	 2886 : FFFF;
	 2887 : 0032;
	 2888 : FFD1;
	 2889 : FFE5;
	 2890 : FFF5;
	 2891 : FFFB;
	 2892 : 002B;
	 2893 : 0006;
	 2894 : FFD1;
	 2895 : FFF7;
	 2896 : FFF7;
	 2897 : 0030;
	 2898 : 000A;
	 2899 : 000E;
	 2900 : 0016;
	 2901 : 001C;
	 2902 : 000E;
	 2903 : FFE5;
	 2904 : 0026;
	 2905 : 0018;
	 2906 : 0019;
	 2907 : 0033;
	 2908 : 001F;
	 2909 : 0022;
	 2910 : 002E;
	 2911 : FFDC;
	 2912 : 0000;
	 2913 : 0008;
	 2914 : FFEF;
	 2915 : 0023;
	 2916 : 001B;
	 2917 : 0017;
	 2918 : 0033;
	 2919 : FFE7;
	 2920 : 0018;
	 2921 : 0005;
	 2922 : FFED;
	 2923 : FFDD;
	 2924 : 0029;
	 2925 : 000A;
	 2926 : 0021;
	 2927 : 0005;
	 2928 : FFE3;
	 2929 : FFEF;
	 2930 : FFF4;
	 2931 : 0030;
	 2932 : FFCD;
	 2933 : 0032;
	 2934 : 0031;
	 2935 : 0033;
	 2936 : FFFE;
	 2937 : 002F;
	 2938 : FFF5;
	 2939 : FFCF;
	 2940 : FFE4;
	 2941 : 002E;
	 2942 : FFCE;
	 2943 : 0005;
	 2944 : FFD5;
	 2945 : FFEA;
	 2946 : FFD6;
	 2947 : 0025;
	 2948 : 0009;
	 2949 : 0029;
	 2950 : 0013;
	 2951 : 0030;
	 2952 : 0001;
	 2953 : 000E;
	 2954 : 0008;
	 2955 : FFFE;
	 2956 : 0023;
	 2957 : 000F;
	 2958 : 001F;
	 2959 : 001D;
	 2960 : FFE0;
	 2961 : 000F;
	 2962 : FFE1;
	 2963 : 0009;
	 2964 : 0012;
	 2965 : 0033;
	 2966 : FFD0;
	 2967 : FFD6;
	 2968 : FFD5;
	 2969 : FFF6;
	 2970 : 0021;
	 2971 : 0023;
	 2972 : 0018;
	 2973 : 0029;
	 2974 : FFEE;
	 2975 : FFD6;
	 2976 : FFD3;
	 2977 : 0024;
	 2978 : 0018;
	 2979 : 0014;
	 2980 : FFF0;
	 2981 : FFF4;
	 2982 : 002F;
	 2983 : FFD3;
	 2984 : 001C;
	 2985 : FFED;
	 2986 : FFD1;
	 2987 : 0019;
	 2988 : FFEF;
	 2989 : 0017;
	 2990 : 0015;
	 2991 : 0004;
	 2992 : 001C;
	 2993 : 0008;
	 2994 : FFEA;
	 2995 : 0018;
	 2996 : 0009;
	 2997 : FFCE;
	 2998 : 0029;
	 2999 : 0005;
	 3000 : 0026;
	 3001 : 0027;
	 3002 : FFFA;
	 3003 : 0001;
	 3004 : FFF7;
	 3005 : FFFB;
	 3006 : 0028;
	 3007 : 001E;
	 3008 : FFDA;
	 3009 : 000B;
	 3010 : 0033;
	 3011 : 000A;
	 3012 : 001D;
	 3013 : 001C;
	 3014 : FFF1;
	 3015 : FFF3;
	 3016 : 0017;
	 3017 : 0000;
	 3018 : 0007;
	 3019 : 0016;
	 3020 : 001C;
	 3021 : FFE9;
	 3022 : FFDC;
	 3023 : FFEB;
	 3024 : 0001;
	 3025 : FFF0;
	 3026 : 0007;
	 3027 : FFD2;
	 3028 : 0001;
	 3029 : FFF2;
	 3030 : 0004;
	 3031 : FFF8;
	 3032 : FFEA;
	 3033 : 0029;
	 3034 : FFE0;
	 3035 : 0013;
	 3036 : 002B;
	 3037 : 0004;
	 3038 : 0027;
	 3039 : FFDA;
	 3040 : FFFF;
	 3041 : FFFC;
	 3042 : FFCE;
	 3043 : FFFA;
	 3044 : FFF3;
	 3045 : 0011;
	 3046 : 002D;
	 3047 : FFD6;
	 3048 : FFEE;
	 3049 : FFFA;
	 3050 : FFFB;
	 3051 : 001C;
	 3052 : FFFA;
	 3053 : FFD0;
	 3054 : 0016;
	 3055 : 0027;
	 3056 : 0001;
	 3057 : 0008;
	 3058 : FFDD;
	 3059 : FFE3;
	 3060 : FFE5;
	 3061 : FFF9;
	 3062 : 002C;
	 3063 : 0002;
	 3064 : FFE0;
	 3065 : FFE8;
	 3066 : FFF4;
	 3067 : 000D;
	 3068 : FFFA;
	 3069 : FFF5;
	 3070 : 0007;
	 3071 : FFE6;
	 3072 : FFD5;
	 3073 : FFCF;
	 3074 : FFE7;
	 3075 : FFD6;
	 3076 : FFEF;
	 3077 : 001C;
	 3078 : 0016;
	 3079 : 000B;
	 3080 : 0024;
	 3081 : FFEA;
	 3082 : 0027;
	 3083 : FFF6;
	 3084 : FFF6;
	 3085 : FFF6;
	 3086 : FFD7;
	 3087 : 0031;
	 3088 : FFDB;
	 3089 : FFF0;
	 3090 : FFED;
	 3091 : FFD4;
	 3092 : FFDC;
	 3093 : FFD1;
	 3094 : FFEB;
	 3095 : 0026;
	 3096 : FFF0;
	 3097 : FFD9;
	 3098 : 000F;
	 3099 : 0033;
	 3100 : FFE5;
	 3101 : FFE9;
	 3102 : 0030;
	 3103 : FFDF;
	 3104 : 0001;
	 3105 : FFE5;
	 3106 : 002C;
	 3107 : 0031;
	 3108 : 0020;
	 3109 : FFED;
	 3110 : FFF6;
	 3111 : FFE6;
	 3112 : 0028;
	 3113 : 002A;
	 3114 : FFF8;
	 3115 : 0010;
	 3116 : FFDE;
	 3117 : FFF9;
	 3118 : 000D;
	 3119 : FFF4;
	 3120 : FFF1;
	 3121 : FFCD;
	 3122 : 001F;
	 3123 : 0028;
	 3124 : 0030;
	 3125 : 0016;
	 3126 : 0005;
	 3127 : FFE8;
	 3128 : 0033;
	 3129 : 0009;
	 3130 : 0013;
	 3131 : 0013;
	 3132 : 0023;
	 3133 : FFCE;
	 3134 : FFE3;
	 3135 : 0011;
	 3136 : 0028;
	 3137 : 0013;
	 3138 : FFF7;
	 3139 : FFF2;
	 3140 : 0018;
	 3141 : 0019;
	 3142 : 000B;
	 3143 : FFEB;
	 3144 : 002C;
	 3145 : 0005;
	 3146 : 001E;
	 3147 : FFE3;
	 3148 : FFF0;
	 3149 : 0026;
	 3150 : FFD2;
	 3151 : 0001;
	 3152 : FFFE;
	 3153 : 001A;
	 3154 : FFEA;
	 3155 : FFE3;
	 3156 : 002C;
	 3157 : 0007;
	 3158 : FFD8;
	 3159 : FFE1;
	 3160 : 0033;
	 3161 : FFE1;
	 3162 : 000B;
	 3163 : FFF8;
	 3164 : 0027;
	 3165 : 001A;
	 3166 : 000A;
	 3167 : FFCE;
	 3168 : 0027;
	 3169 : FFFA;
	 3170 : 002C;
	 3171 : 0000;
	 3172 : 0014;
	 3173 : FFD4;
	 3174 : 0019;
	 3175 : FFEF;
	 3176 : FFF1;
	 3177 : FFD9;
	 3178 : FFDC;
	 3179 : FFE0;
	 3180 : FFEE;
	 3181 : 0028;
	 3182 : FFF3;
	 3183 : 0017;
	 3184 : FFD5;
	 3185 : 0009;
	 3186 : FFFE;
	 3187 : 0031;
	 3188 : 0023;
	 3189 : FFFB;
	 3190 : 001C;
	 3191 : FFE1;
	 3192 : 0006;
	 3193 : FFD4;
	 3194 : FFF0;
	 3195 : FFE4;
	 3196 : 0016;
	 3197 : FFFF;
	 3198 : 001A;
	 3199 : 0002;
	 3200 : FFD6;
	 3201 : 0018;
	 3202 : 0022;
	 3203 : 0029;
	 3204 : 0007;
	 3205 : 001A;
	 3206 : 001A;
	 3207 : FFDD;
	 3208 : FFDE;
	 3209 : FFD4;
	 3210 : FFEE;
	 3211 : FFFD;
	 3212 : 0033;
	 3213 : FFF9;
	 3214 : 0017;
	 3215 : 0014;
	 3216 : FFE2;
	 3217 : FFD3;
	 3218 : 0005;
	 3219 : 0015;
	 3220 : 0033;
	 3221 : FFF2;
	 3222 : 0029;
	 3223 : FFF4;
	 3224 : 0013;
	 3225 : 000A;
	 3226 : FFD2;
	 3227 : FFD5;
	 3228 : FFCF;
	 3229 : FFF3;
	 3230 : 0019;
	 3231 : FFDE;
	 3232 : 000B;
	 3233 : FFEA;
	 3234 : 001E;
	 3235 : 001F;
	 3236 : 001C;
	 3237 : 0003;
	 3238 : FFEA;
	 3239 : 0020;
	 3240 : FFE0;
	 3241 : FFEA;
	 3242 : FFE0;
	 3243 : 0012;
	 3244 : 0013;
	 3245 : 0010;
	 3246 : FFF7;
	 3247 : FFD7;
	 3248 : 002A;
	 3249 : 0001;
	 3250 : FFF6;
	 3251 : 0009;
	 3252 : FFE1;
	 3253 : FFDA;
	 3254 : FFF6;
	 3255 : FFE4;
	 3256 : FFE6;
	 3257 : 0028;
	 3258 : 0003;
	 3259 : FFFE;
	 3260 : 0013;
	 3261 : 002E;
	 3262 : FFD8;
	 3263 : 0022;
	 3264 : 0009;
	 3265 : FFDC;
	 3266 : FFEB;
	 3267 : FFFE;
	 3268 : 0014;
	 3269 : FFE6;
	 3270 : 0004;
	 3271 : 0013;
	 3272 : FFFB;
	 3273 : 0025;
	 3274 : 0026;
	 3275 : FFFD;
	 3276 : 0030;
	 3277 : FFD5;
	 3278 : FFCD;
	 3279 : FFF4;
	 3280 : 000A;
	 3281 : 000D;
	 3282 : FFFE;
	 3283 : FFDA;
	 3284 : FFDE;
	 3285 : 0024;
	 3286 : 0026;
	 3287 : 0012;
	 3288 : 0011;
	 3289 : 000A;
	 3290 : FFE2;
	 3291 : FFF9;
	 3292 : 0014;
	 3293 : 0004;
	 3294 : FFCF;
	 3295 : 002E;
	 3296 : 0023;
	 3297 : FFE7;
	 3298 : 000C;
	 3299 : 002B;
	 3300 : FFD7;
	 3301 : 0000;
	 3302 : FFFC;
	 3303 : FFF7;
	 3304 : 0022;
	 3305 : FFF4;
	 3306 : FFD3;
	 3307 : FFD4;
	 3308 : FFD1;
	 3309 : FFF7;
	 3310 : 0016;
	 3311 : FFE2;
	 3312 : 000F;
	 3313 : 0013;
	 3314 : FFE7;
	 3315 : 000A;
	 3316 : 0013;
	 3317 : FFFD;
	 3318 : FFEF;
	 3319 : 000C;
	 3320 : 0031;
	 3321 : FFF9;
	 3322 : FFF5;
	 3323 : FFFC;
	 3324 : FFD5;
	 3325 : 0005;
	 3326 : FFEE;
	 3327 : FFD9;
	 3328 : FFFD;
	 3329 : FFCD;
	 3330 : FFF6;
	 3331 : FFD8;
	 3332 : FFCF;
	 3333 : 0021;
	 3334 : 002B;
	 3335 : FFE2;
	 3336 : 0004;
	 3337 : FFE9;
	 3338 : FFFF;
	 3339 : FFFA;
	 3340 : FFE8;
	 3341 : 0015;
	 3342 : FFDA;
	 3343 : FFD2;
	 3344 : 001B;
	 3345 : 0011;
	 3346 : 0000;
	 3347 : FFFD;
	 3348 : 0000;
	 3349 : FFFA;
	 3350 : FFF5;
	 3351 : 0000;
	 3352 : 0003;
	 3353 : 0014;
	 3354 : 0016;
	 3355 : FFF3;
	 3356 : FFF7;
	 3357 : FFF3;
	 3358 : 0004;
	 3359 : FFFB;
	 3360 : 0028;
	 3361 : 0014;
	 3362 : 0029;
	 3363 : 0015;
	 3364 : 0030;
	 3365 : 000E;
	 3366 : 002F;
	 3367 : FFDD;
	 3368 : FFD2;
	 3369 : 0008;
	 3370 : 0032;
	 3371 : FFF8;
	 3372 : FFE3;
	 3373 : 0002;
	 3374 : 000F;
	 3375 : FFED;
	 3376 : 0016;
	 3377 : 0031;
	 3378 : 0029;
	 3379 : FFEB;
	 3380 : FFEE;
	 3381 : FFF3;
	 3382 : FFF5;
	 3383 : FFD7;
	 3384 : 001B;
	 3385 : FFF2;
	 3386 : 0027;
	 3387 : 002C;
	 3388 : FFCF;
	 3389 : 0032;
	 3390 : 0016;
	 3391 : 0002;
	 3392 : FFF5;
	 3393 : 0002;
	 3394 : FFEE;
	 3395 : 000D;
	 3396 : FFD6;
	 3397 : 000C;
	 3398 : FFE9;
	 3399 : FFCF;
	 3400 : 0005;
	 3401 : 0008;
	 3402 : FFF8;
	 3403 : FFD4;
	 3404 : 0028;
	 3405 : 000B;
	 3406 : FFD9;
	 3407 : 0001;
	 3408 : 0000;
	 3409 : FFD3;
	 3410 : 000B;
	 3411 : 0020;
	 3412 : 0019;
	 3413 : FFE2;
	 3414 : 0025;
	 3415 : FFF0;
	 3416 : 002E;
	 3417 : FFD4;
	 3418 : FFFF;
	 3419 : 000A;
	 3420 : FFE6;
	 3421 : 001C;
	 3422 : 000D;
	 3423 : FFCF;
	 3424 : 000B;
	 3425 : FFFF;
	 3426 : FFE1;
	 3427 : 0033;
	 3428 : 0029;
	 3429 : FFEB;
	 3430 : 0004;
	 3431 : FFED;
	 3432 : 001C;
	 3433 : 002C;
	 3434 : FFF2;
	 3435 : 001F;
	 3436 : 0000;
	 3437 : FFF5;
	 3438 : 002D;
	 3439 : 0001;
	 3440 : FFFD;
	 3441 : 0012;
	 3442 : FFE8;
	 3443 : FFEE;
	 3444 : 002C;
	 3445 : 0012;
	 3446 : 0021;
	 3447 : FFE9;
	 3448 : 0004;
	 3449 : 0030;
	 3450 : FFED;
	 3451 : FFDD;
	 3452 : 0001;
	 3453 : FFF5;
	 3454 : FFDD;
	 3455 : 0028;
	 3456 : 0032;
	 3457 : 0007;
	 3458 : 001C;
	 3459 : 0025;
	 3460 : 0015;
	 3461 : FFD1;
	 3462 : FFDD;
	 3463 : FFD4;
	 3464 : FFCE;
	 3465 : FFEC;
	 3466 : FFF5;
	 3467 : FFE5;
	 3468 : FFD3;
	 3469 : 0003;
	 3470 : FFE9;
	 3471 : 001E;
	 3472 : FFCE;
	 3473 : 0023;
	 3474 : 002F;
	 3475 : 0016;
	 3476 : 0018;
	 3477 : 002C;
	 3478 : FFE2;
	 3479 : 0033;
	 3480 : 001C;
	 3481 : 0017;
	 3482 : FFF2;
	 3483 : 0005;
	 3484 : 0010;
	 3485 : 000C;
	 3486 : 0015;
	 3487 : FFD5;
	 3488 : FFF1;
	 3489 : FFF9;
	 3490 : FFE7;
	 3491 : FFDE;
	 3492 : FFDB;
	 3493 : FFF2;
	 3494 : FFFF;
	 3495 : FFD3;
	 3496 : 002E;
	 3497 : 001B;
	 3498 : 0018;
	 3499 : FFDF;
	 3500 : 000B;
	 3501 : 0003;
	 3502 : 0031;
	 3503 : 0019;
	 3504 : 0008;
	 3505 : 0024;
	 3506 : FFDD;
	 3507 : FFCE;
	 3508 : 0013;
	 3509 : FFD7;
	 3510 : FFD9;
	 3511 : 0019;
	 3512 : FFE9;
	 3513 : 000D;
	 3514 : 002B;
	 3515 : FFED;
	 3516 : FFE3;
	 3517 : FFD8;
	 3518 : FFDA;
	 3519 : FFD3;
	 3520 : FFD6;
	 3521 : FFF9;
	 3522 : FFEE;
	 3523 : 0015;
	 3524 : 0026;
	 3525 : 001D;
	 3526 : 0003;
	 3527 : FFD7;
	 3528 : 0015;
	 3529 : FFF2;
	 3530 : FFD6;
	 3531 : 0023;
	 3532 : FFEF;
	 3533 : FFE3;
	 3534 : 0026;
	 3535 : 0029;
	 3536 : FFF0;
	 3537 : FFF1;
	 3538 : 0008;
	 3539 : 0018;
	 3540 : FFD3;
	 3541 : 000A;
	 3542 : 002E;
	 3543 : FFE8;
	 3544 : 002A;
	 3545 : 002E;
	 3546 : FFE8;
	 3547 : 001A;
	 3548 : FFE5;
	 3549 : 0018;
	 3550 : 001E;
	 3551 : FFE6;
	 3552 : 0016;
	 3553 : 0020;
	 3554 : FFF2;
	 3555 : FFDE;
	 3556 : FFD6;
	 3557 : 0008;
	 3558 : 0031;
	 3559 : 0021;
	 3560 : FFF9;
	 3561 : 0004;
	 3562 : FFE9;
	 3563 : FFDD;
	 3564 : FFFE;
	 3565 : FFFC;
	 3566 : 0002;
	 3567 : 002E;
	 3568 : 000B;
	 3569 : 000B;
	 3570 : FFDA;
	 3571 : 0033;
	 3572 : 001C;
	 3573 : 0027;
	 3574 : FFF7;
	 3575 : 0000;
	 3576 : 0002;
	 3577 : FFE1;
	 3578 : 0013;
	 3579 : 0029;
	 3580 : FFDE;
	 3581 : FFD6;
	 3582 : 0018;
	 3583 : FFE9;
	 3584 : 000D;
	 3585 : 0014;
	 3586 : FFEE;
	 3587 : 0020;
	 3588 : 0005;
	 3589 : 0026;
	 3590 : 001B;
	 3591 : 0026;
	 3592 : FFCF;
	 3593 : FFE6;
	 3594 : FFD6;
	 3595 : FFFA;
	 3596 : 0028;
	 3597 : FFFD;
	 3598 : 0024;
	 3599 : FFEE;
	 3600 : FFF0;
	 3601 : 0029;
	 3602 : FFF8;
	 3603 : 001E;
	 3604 : FFE5;
	 3605 : 002E;
	 3606 : 0008;
	 3607 : 001B;
	 3608 : FFD6;
	 3609 : FFFF;
	 3610 : 0029;
	 3611 : 0027;
	 3612 : FFD2;
	 3613 : FFEC;
	 3614 : FFFA;
	 3615 : FFDE;
	 3616 : 0018;
	 3617 : FFE0;
	 3618 : FFF0;
	 3619 : 0011;
	 3620 : FFFE;
	 3621 : 0018;
	 3622 : 002F;
	 3623 : FFD9;
	 3624 : 0015;
	 3625 : FFE4;
	 3626 : FFF7;
	 3627 : FFD0;
	 3628 : FFDB;
	 3629 : FFEE;
	 3630 : FFF0;
	 3631 : 0029;
	 3632 : 0019;
	 3633 : 0030;
	 3634 : 000A;
	 3635 : FFE6;
	 3636 : FFEE;
	 3637 : FFEE;
	 3638 : FFEE;
	 3639 : 0012;
	 3640 : 0003;
	 3641 : FFF4;
	 3642 : FFDC;
	 3643 : FFCF;
	 3644 : FFE3;
	 3645 : FFD8;
	 3646 : 001D;
	 3647 : FFD8;
	 3648 : 0017;
	 3649 : FFF4;
	 3650 : FFD4;
	 3651 : 0020;
	 3652 : 0008;
	 3653 : FFE5;
	 3654 : 0028;
	 3655 : FFD1;
	 3656 : FFE1;
	 3657 : 001A;
	 3658 : 0015;
	 3659 : FFEA;
	 3660 : FFD3;
	 3661 : 0025;
	 3662 : FFED;
	 3663 : FFE1;
	 3664 : 0002;
	 3665 : 002A;
	 3666 : FFD1;
	 3667 : 001B;
	 3668 : 0007;
	 3669 : FFF8;
	 3670 : 0019;
	 3671 : 0030;
	 3672 : FFE4;
	 3673 : FFDC;
	 3674 : 002A;
	 3675 : 0011;
	 3676 : FFFA;
	 3677 : 0008;
	 3678 : 0019;
	 3679 : 001C;
	 3680 : 002B;
	 3681 : FFF9;
	 3682 : FFEB;
	 3683 : 000E;
	 3684 : FFF7;
	 3685 : 000A;
	 3686 : FFF8;
	 3687 : FFDC;
	 3688 : FFFD;
	 3689 : 0014;
	 3690 : 001F;
	 3691 : FFFF;
	 3692 : FFDE;
	 3693 : FFF7;
	 3694 : 001D;
	 3695 : FFF7;
	 3696 : 0014;
	 3697 : 0001;
	 3698 : FFE6;
	 3699 : 001E;
	 3700 : FFD5;
	 3701 : 0003;
	 3702 : FFE2;
	 3703 : FFD4;
	 3704 : 0000;
	 3705 : 0000;
	 3706 : 0015;
	 3707 : 0019;
	 3708 : 0017;
	 3709 : FFF7;
	 3710 : 000D;
	 3711 : 0008;
	 3712 : FFF8;
	 3713 : 000A;
	 3714 : 002E;
	 3715 : FFE1;
	 3716 : 002A;
	 3717 : FFD2;
	 3718 : FFEC;
	 3719 : FFEA;
	 3720 : 000D;
	 3721 : FFDA;
	 3722 : 0027;
	 3723 : 0022;
	 3724 : 0010;
	 3725 : FFFC;
	 3726 : 002C;
	 3727 : 0022;
	 3728 : 0000;
	 3729 : 0015;
	 3730 : 0007;
	 3731 : 0009;
	 3732 : FFEF;
	 3733 : FFFC;
	 3734 : FFD5;
	 3735 : FFF1;
	 3736 : 0014;
	 3737 : 002E;
	 3738 : 002F;
	 3739 : 0006;
	 3740 : 000B;
	 3741 : FFE0;
	 3742 : 0014;
	 3743 : FFD4;
	 3744 : FFEA;
	 3745 : 0011;
	 3746 : FFED;
	 3747 : FFD2;
	 3748 : 0022;
	 3749 : FFED;
	 3750 : FFD3;
	 3751 : FFD4;
	 3752 : FFE7;
	 3753 : FFDF;
	 3754 : 001C;
	 3755 : FFEE;
	 3756 : 001F;
	 3757 : FFDF;
	 3758 : FFFF;
	 3759 : 0013;
	 3760 : 0010;
	 3761 : 000A;
	 3762 : 002C;
	 3763 : FFE4;
	 3764 : FFFF;
	 3765 : 0027;
	 3766 : FFD5;
	 3767 : FFD3;
	 3768 : FFE5;
	 3769 : 000E;
	 3770 : FFE7;
	 3771 : FFE0;
	 3772 : FFFC;
	 3773 : 000C;
	 3774 : FFE6;
	 3775 : FFEC;
	 3776 : 000C;
	 3777 : 002E;
	 3778 : 0012;
	 3779 : 001D;
	 3780 : FFF2;
	 3781 : FFE9;
	 3782 : FFFB;
	 3783 : 001F;
	 3784 : FFFC;
	 3785 : 0024;
	 3786 : 0032;
	 3787 : FFD4;
	 3788 : FFD1;
	 3789 : FFDC;
	 3790 : FFF4;
	 3791 : FFDA;
	 3792 : 0026;
	 3793 : FFCF;
	 3794 : FFED;
	 3795 : FFE0;
	 3796 : 002C;
	 3797 : 0011;
	 3798 : 002A;
	 3799 : 0030;
	 3800 : 0000;
	 3801 : FFE5;
	 3802 : FFE1;
	 3803 : FFE4;
	 3804 : 0015;
	 3805 : FFD1;
	 3806 : FFD2;
	 3807 : 000B;
	 3808 : 000F;
	 3809 : 0011;
	 3810 : FFF3;
	 3811 : 001F;
	 3812 : 0003;
	 3813 : FFD8;
	 3814 : 001E;
	 3815 : 002E;
	 3816 : FFD3;
	 3817 : FFF5;
	 3818 : FFFF;
	 3819 : FFDC;
	 3820 : 0026;
	 3821 : FFEA;
	 3822 : 001D;
	 3823 : 0012;
	 3824 : 000A;
	 3825 : FFE0;
	 3826 : FFE3;
	 3827 : FFD2;
	 3828 : FFE5;
	 3829 : FFF0;
	 3830 : 0022;
	 3831 : FFF2;
	 3832 : 001A;
	 3833 : FFFA;
	 3834 : 001D;
	 3835 : 0031;
	 3836 : FFE5;
	 3837 : 0025;
	 3838 : 000C;
	 3839 : 0020;
	 3840 : 0010;
	 3841 : FFF8;
	 3842 : FFE4;
	 3843 : FFD4;
	 3844 : 0004;
	 3845 : 0032;
	 3846 : 0018;
	 3847 : FFEE;
	 3848 : 0022;
	 3849 : 001C;
	 3850 : FFEA;
	 3851 : FFCE;
	 3852 : FFD9;
	 3853 : 0027;
	 3854 : 0022;
	 3855 : FFEB;
	 3856 : FFEA;
	 3857 : 001E;
	 3858 : 002D;
	 3859 : 001D;
	 3860 : 000B;
	 3861 : FFE6;
	 3862 : 0003;
	 3863 : FFE5;
	 3864 : 0020;
	 3865 : FFF4;
	 3866 : 0022;
	 3867 : FFF4;
	 3868 : 0021;
	 3869 : FFEF;
	 3870 : FFFA;
	 3871 : 000C;
	 3872 : FFD4;
	 3873 : 002E;
	 3874 : 0008;
	 3875 : 0001;
	 3876 : 0023;
	 3877 : 0025;
	 3878 : 0002;
	 3879 : 002C;
	 3880 : FFD3;
	 3881 : FFD8;
	 3882 : 000A;
	 3883 : FFF1;
	 3884 : FFFC;
	 3885 : FFEE;
	 3886 : FFF6;
	 3887 : 0021;
	 3888 : 000A;
	 3889 : 0033;
	 3890 : 001D;
	 3891 : FFE9;
	 3892 : FFE8;
	 3893 : FFEF;
	 3894 : 0023;
	 3895 : FFD0;
	 3896 : FFE4;
	 3897 : 0029;
	 3898 : 000E;
	 3899 : FFE4;
	 3900 : FFE3;
	 3901 : 0025;
	 3902 : 0028;
	 3903 : FFE7;
	 3904 : FFF8;
	 3905 : 0022;
	 3906 : 001C;
	 3907 : 0020;
	 3908 : 0002;
	 3909 : 002A;
	 3910 : FFEE;
	 3911 : FFDD;
	 3912 : 0015;
	 3913 : 0004;
	 3914 : 0024;
	 3915 : FFD5;
	 3916 : 0023;
	 3917 : FFEB;
	 3918 : 0010;
	 3919 : FFD1;
	 3920 : 000B;
	 3921 : 0016;
	 3922 : FFF3;
	 3923 : FFE3;
	 3924 : 0004;
	 3925 : 0022;
	 3926 : FFEE;
	 3927 : FFE7;
	 3928 : FFE9;
	 3929 : 002E;
	 3930 : FFF2;
	 3931 : FFCD;
	 3932 : 001D;
	 3933 : 0014;
	 3934 : FFDA;
	 3935 : 0032;
	 3936 : 000B;
	 3937 : 0000;
	 3938 : FFF4;
	 3939 : 0029;
	 3940 : FFE6;
	 3941 : FFEA;
	 3942 : FFD9;
	 3943 : 001B;
	 3944 : 000A;
	 3945 : 000B;
	 3946 : FFE3;
	 3947 : 000F;
	 3948 : 001B;
	 3949 : FFF1;
	 3950 : 001F;
	 3951 : FFF1;
	 3952 : 001A;
	 3953 : FFD0;
	 3954 : 0005;
	 3955 : 0030;
	 3956 : 0031;
	 3957 : FFEA;
	 3958 : FFFA;
	 3959 : FFD3;
	 3960 : 0026;
	 3961 : 0007;
	 3962 : FFF4;
	 3963 : FFD8;
	 3964 : 002E;
	 3965 : 0003;
	 3966 : FFEA;
	 3967 : FFF1;
	 3968 : FFE9;
	 3969 : 000A;
	 3970 : 002C;
	 3971 : 0025;
	 3972 : FFFC;
	 3973 : 0021;
	 3974 : FFF8;
	 3975 : FFE7;
	 3976 : 0032;
	 3977 : FFEC;
	 3978 : FFEE;
	 3979 : 0032;
	 3980 : FFDB;
	 3981 : 001B;
	 3982 : 002D;
	 3983 : 0001;
	 3984 : FFCD;
	 3985 : FFF3;
	 3986 : FFD8;
	 3987 : FFF7;
	 3988 : 001E;
	 3989 : FFFA;
	 3990 : FFF9;
	 3991 : 0006;
	 3992 : 0008;
	 3993 : 0024;
	 3994 : FFEC;
	 3995 : 0021;
	 3996 : 0007;
	 3997 : FFEC;
	 3998 : FFEB;
	 3999 : FFF2;
	 4000 : 000D;
	 4001 : FFE4;
	 4002 : 002B;
	 4003 : 0008;
	 4004 : 002B;
	 4005 : FFD2;
	 4006 : FFF0;
	 4007 : FFCF;
	 4008 : FFE9;
	 4009 : 0025;
	 4010 : FFD1;
	 4011 : FFF9;
	 4012 : FFD9;
	 4013 : FFF7;
	 4014 : 0023;
	 4015 : 000D;
	 4016 : 0018;
	 4017 : FFF1;
	 4018 : 002E;
	 4019 : 0015;
	 4020 : FFF8;
	 4021 : FFF8;
	 4022 : 002B;
	 4023 : 0008;
	 4024 : 0015;
	 4025 : FFF8;
	 4026 : FFE4;
	 4027 : 0017;
	 4028 : 000B;
	 4029 : 0000;
	 4030 : 000D;
	 4031 : FFE2;
	 4032 : 001E;
	 4033 : 002E;
	 4034 : 0028;
	 4035 : FFEE;
	 4036 : FFF6;
	 4037 : 0020;
	 4038 : 000A;
	 4039 : 0005;
	 4040 : 002C;
	 4041 : 0004;
	 4042 : 0002;
	 4043 : FFD1;
	 4044 : FFD4;
	 4045 : FFCE;
	 4046 : 002A;
	 4047 : FFF7;
	 4048 : FFFD;
	 4049 : 0023;
	 4050 : 000B;
	 4051 : 000B;
	 4052 : FFEB;
	 4053 : 0022;
	 4054 : FFDE;
	 4055 : FFD2;
	 4056 : FFE0;
	 4057 : FFE8;
	 4058 : FFEA;
	 4059 : 0011;
	 4060 : FFE3;
	 4061 : 0012;
	 4062 : FFD6;
	 4063 : FFDC;
	 4064 : 0001;
	 4065 : 002B;
	 4066 : 0025;
	 4067 : 0030;
	 4068 : 000F;
	 4069 : 0012;
	 4070 : 000D;
	 4071 : 000D;
	 4072 : FFDC;
	 4073 : 0004;
	 4074 : FFF4;
	 4075 : FFFA;
	 4076 : 0002;
	 4077 : FFDA;
	 4078 : FFF2;
	 4079 : FFD3;
	 4080 : 0031;
	 4081 : FFD9;
	 4082 : FFE7;
	 4083 : 0028;
	 4084 : FFFE;
	 4085 : FFDB;
	 4086 : FFF4;
	 4087 : FFD9;
	 4088 : FFE1;
	 4089 : FFD2;
	 4090 : FFFA;
	 4091 : 001F;
	 4092 : 0009;
	 4093 : 000B;
	 4094 : FFE1;
	 4095 : FFF0;
END;
