DEPTH = 4096;
WIDTH = 16;
ADDRESS_RADIX = UNS;
DATA_RADIX = HEX;

CONTENT BEGIN
	    0 : FFEF;
	    1 : FFE2;
	    2 : FFF3;
	    3 : FFED;
	    4 : 0012;
	    5 : FFEA;
	    6 : 0008;
	    7 : FFD4;
	    8 : FFE0;
	    9 : FFF7;
	   10 : 002D;
	   11 : FFF3;
	   12 : 0011;
	   13 : FFE7;
	   14 : FFDA;
	   15 : FFD3;
	   16 : FFEC;
	   17 : FFDD;
	   18 : FFDF;
	   19 : 001B;
	   20 : FFCE;
	   21 : 0006;
	   22 : FFF4;
	   23 : 0001;
	   24 : 0006;
	   25 : FFED;
	   26 : FFEB;
	   27 : 0018;
	   28 : 0026;
	   29 : FFE1;
	   30 : FFD7;
	   31 : 0029;
	   32 : FFF1;
	   33 : 0005;
	   34 : FFF2;
	   35 : FFDA;
	   36 : 0009;
	   37 : 0003;
	   38 : FFE2;
	   39 : FFFB;
	   40 : 001E;
	   41 : 0009;
	   42 : FFD7;
	   43 : 0005;
	   44 : 0015;
	   45 : 001E;
	   46 : 000D;
	   47 : FFDC;
	   48 : 0016;
	   49 : 0012;
	   50 : FFCF;
	   51 : FFF7;
	   52 : FFEF;
	   53 : 0011;
	   54 : FFE3;
	   55 : 0009;
	   56 : 002A;
	   57 : 001E;
	   58 : 002B;
	   59 : 0031;
	   60 : FFCE;
	   61 : 000D;
	   62 : FFF7;
	   63 : 0025;
	   64 : FFE7;
	   65 : 0031;
	   66 : 000C;
	   67 : 001E;
	   68 : FFD6;
	   69 : FFE0;
	   70 : 001A;
	   71 : FFCF;
	   72 : 0020;
	   73 : FFCE;
	   74 : 0010;
	   75 : FFF2;
	   76 : 000B;
	   77 : 0014;
	   78 : FFF0;
	   79 : FFD8;
	   80 : FFD4;
	   81 : 0009;
	   82 : 0002;
	   83 : 0019;
	   84 : 0001;
	   85 : FFF8;
	   86 : FFF6;
	   87 : FFD0;
	   88 : FFEF;
	   89 : 0031;
	   90 : 0026;
	   91 : FFEF;
	   92 : 0009;
	   93 : 0024;
	   94 : FFFA;
	   95 : FFCF;
	   96 : FFD4;
	   97 : 0001;
	   98 : 0030;
	   99 : 0014;
	  100 : FFD4;
	  101 : FFE0;
	  102 : 001C;
	  103 : 0023;
	  104 : 000C;
	  105 : 000F;
	  106 : FFD0;
	  107 : 0022;
	  108 : 001E;
	  109 : FFE7;
	  110 : 0015;
	  111 : FFE3;
	  112 : FFD1;
	  113 : FFE1;
	  114 : FFDF;
	  115 : FFEF;
	  116 : FFF8;
	  117 : 0001;
	  118 : FFFE;
	  119 : FFE9;
	  120 : FFD0;
	  121 : 000B;
	  122 : FFF5;
	  123 : FFEB;
	  124 : 0026;
	  125 : 0019;
	  126 : 0025;
	  127 : FFFF;
	  128 : FFDA;
	  129 : 0014;
	  130 : FFE2;
	  131 : FFFA;
	  132 : FFD3;
	  133 : 0021;
	  134 : FFDA;
	  135 : 0029;
	  136 : 0025;
	  137 : FFFC;
	  138 : 0019;
	  139 : 000C;
	  140 : 001F;
	  141 : FFF9;
	  142 : 001D;
	  143 : FFFC;
	  144 : 002D;
	  145 : FFFF;
	  146 : FFFC;
	  147 : 001D;
	  148 : 0021;
	  149 : 0006;
	  150 : FFDF;
	  151 : FFFD;
	  152 : 0030;
	  153 : 001A;
	  154 : 0020;
	  155 : FFD0;
	  156 : FFFD;
	  157 : 000F;
	  158 : 0022;
	  159 : FFD2;
	  160 : 0024;
	  161 : 0005;
	  162 : FFE1;
	  163 : FFED;
	  164 : FFEA;
	  165 : 0003;
	  166 : FFD2;
	  167 : FFDD;
	  168 : 0020;
	  169 : FFDA;
	  170 : FFE5;
	  171 : FFFB;
	  172 : 0002;
	  173 : 001B;
	  174 : FFFB;
	  175 : 001E;
	  176 : 000C;
	  177 : FFD8;
	  178 : FFDD;
	  179 : FFFA;
	  180 : FFF5;
	  181 : 0019;
	  182 : 0008;
	  183 : FFF5;
	  184 : FFDE;
	  185 : FFE4;
	  186 : 0008;
	  187 : FFF8;
	  188 : 0002;
	  189 : FFDE;
	  190 : 0011;
	  191 : 0024;
	  192 : FFE7;
	  193 : FFFF;
	  194 : 0031;
	  195 : FFEF;
	  196 : 000A;
	  197 : FFD6;
	  198 : 000B;
	  199 : FFD6;
	  200 : 002F;
	  201 : 0016;
	  202 : 001E;
	  203 : 0015;
	  204 : 0009;
	  205 : FFFB;
	  206 : 0025;
	  207 : 002F;
	  208 : 0000;
	  209 : 002C;
	  210 : 0009;
	  211 : 0004;
	  212 : FFFB;
	  213 : FFE2;
	  214 : FFCD;
	  215 : FFE6;
	  216 : 0001;
	  217 : FFF4;
	  218 : FFFB;
	  219 : 0031;
	  220 : FFF1;
	  221 : FFFB;
	  222 : FFDA;
	  223 : FFD2;
	  224 : 001C;
	  225 : 0007;
	  226 : 001B;
	  227 : FFDC;
	  228 : 0007;
	  229 : FFE7;
	  230 : FFE4;
	  231 : FFCE;
	  232 : FFDA;
	  233 : FFEC;
	  234 : FFD9;
	  235 : 0032;
	  236 : FFEC;
	  237 : FFDA;
	  238 : FFE1;
	  239 : 0009;
	  240 : FFD3;
	  241 : 0025;
	  242 : 002F;
	  243 : FFE6;
	  244 : FFFB;
	  245 : FFCF;
	  246 : 000E;
	  247 : FFF7;
	  248 : FFE8;
	  249 : FFE2;
	  250 : 0010;
	  251 : FFF7;
	  252 : FFDF;
	  253 : 0013;
	  254 : 0007;
	  255 : 0025;
	  256 : FFD9;
	  257 : 001D;
	  258 : 0012;
	  259 : FFD9;
	  260 : 0014;
	  261 : FFFA;
	  262 : 002E;
	  263 : FFDB;
	  264 : 000F;
	  265 : FFF4;
	  266 : 002F;
	  267 : FFEF;
	  268 : 002F;
	  269 : 0029;
	  270 : FFE8;
	  271 : 001F;
	  272 : 0033;
	  273 : FFE7;
	  274 : FFFA;
	  275 : 0002;
	  276 : FFEB;
	  277 : FFCE;
	  278 : FFE3;
	  279 : FFEA;
	  280 : FFFA;
	  281 : FFDE;
	  282 : 0026;
	  283 : 0015;
	  284 : FFD6;
	  285 : 000F;
	  286 : 0010;
	  287 : 002F;
	  288 : FFCD;
	  289 : FFE6;
	  290 : 002C;
	  291 : 002C;
	  292 : 0017;
	  293 : 001B;
	  294 : FFD6;
	  295 : 0001;
	  296 : FFE5;
	  297 : FFDF;
	  298 : 0020;
	  299 : FFDB;
	  300 : FFFD;
	  301 : 002D;
	  302 : FFE0;
	  303 : 0031;
	  304 : 0033;
	  305 : 0006;
	  306 : FFDE;
	  307 : FFED;
	  308 : FFF8;
	  309 : FFEC;
	  310 : FFEA;
	  311 : 0030;
	  312 : FFDD;
	  313 : 0018;
	  314 : FFCD;
	  315 : 000A;
	  316 : 002B;
	  317 : FFEA;
	  318 : FFE0;
	  319 : 0010;
	  320 : 0016;
	  321 : 0013;
	  322 : FFED;
	  323 : FFE7;
	  324 : 002F;
	  325 : 002B;
	  326 : FFFC;
	  327 : 0023;
	  328 : FFFB;
	  329 : FFF8;
	  330 : FFDD;
	  331 : FFF8;
	  332 : 0004;
	  333 : FFCF;
	  334 : FFFA;
	  335 : 001D;
	  336 : 0012;
	  337 : 000E;
	  338 : 002A;
	  339 : FFCF;
	  340 : 0006;
	  341 : 001D;
	  342 : 0004;
	  343 : FFEE;
	  344 : FFDB;
	  345 : 0028;
	  346 : FFFD;
	  347 : 0027;
	  348 : 0009;
	  349 : 0012;
	  350 : 001F;
	  351 : 0010;
	  352 : FFF6;
	  353 : 0001;
	  354 : 001F;
	  355 : FFF3;
	  356 : FFF5;
	  357 : FFD7;
	  358 : 002A;
	  359 : FFD6;
	  360 : 000F;
	  361 : FFF7;
	  362 : FFF6;
	  363 : 0012;
	  364 : FFD4;
	  365 : 000A;
	  366 : 001C;
	  367 : 0022;
	  368 : FFDE;
	  369 : 0029;
	  370 : 0010;
	  371 : 0027;
	  372 : FFFE;
	  373 : 0004;
	  374 : 002B;
	  375 : 0029;
	  376 : FFFB;
	  377 : FFE9;
	  378 : FFF5;
	  379 : FFF5;
	  380 : FFEA;
	  381 : FFE8;
	  382 : 0025;
	  383 : FFD4;
	  384 : 0012;
	  385 : FFDE;
	  386 : FFF0;
	  387 : FFD3;
	  388 : FFE8;
	  389 : 001B;
	  390 : 0027;
	  391 : FFE3;
	  392 : FFFC;
	  393 : FFFD;
	  394 : 0026;
	  395 : 001B;
	  396 : 0001;
	  397 : 0011;
	  398 : 0024;
	  399 : FFCE;
	  400 : FFF6;
	  401 : 002A;
	  402 : 0019;
	  403 : 0004;
	  404 : 0003;
	  405 : FFF0;
	  406 : 0002;
	  407 : 0010;
	  408 : FFF8;
	  409 : 0016;
	  410 : 0025;
	  411 : FFDD;
	  412 : FFFB;
	  413 : FFF7;
	  414 : 0013;
	  415 : FFE6;
	  416 : 000E;
	  417 : 0027;
	  418 : FFF8;
	  419 : 002A;
	  420 : 0032;
	  421 : FFD8;
	  422 : FFE5;
	  423 : 002E;
	  424 : 002F;
	  425 : FFD7;
	  426 : FFCE;
	  427 : FFDD;
	  428 : 0033;
	  429 : FFDF;
	  430 : 0000;
	  431 : 0024;
	  432 : FFCF;
	  433 : 000B;
	  434 : FFE9;
	  435 : 0025;
	  436 : FFEA;
	  437 : 0013;
	  438 : 0012;
	  439 : FFE3;
	  440 : FFD0;
	  441 : FFF7;
	  442 : FFEA;
	  443 : 0020;
	  444 : 001F;
	  445 : FFFC;
	  446 : 000B;
	  447 : 000B;
	  448 : 0022;
	  449 : FFF8;
	  450 : FFE9;
	  451 : FFE8;
	  452 : 0004;
	  453 : FFFB;
	  454 : FFFA;
	  455 : FFD6;
	  456 : 0016;
	  457 : FFE3;
	  458 : FFE1;
	  459 : FFF7;
	  460 : FFE4;
	  461 : 0009;
	  462 : FFF3;
	  463 : FFFB;
	  464 : 0004;
	  465 : FFE2;
	  466 : FFDD;
	  467 : 0027;
	  468 : FFF9;
	  469 : FFF7;
	  470 : FFD0;
	  471 : 0000;
	  472 : 0006;
	  473 : 0006;
	  474 : 0015;
	  475 : FFDF;
	  476 : FFE7;
	  477 : 0020;
	  478 : 002E;
	  479 : FFDB;
	  480 : 0000;
	  481 : FFE3;
	  482 : FFD3;
	  483 : FFEE;
	  484 : FFDC;
	  485 : 0015;
	  486 : 0003;
	  487 : FFDC;
	  488 : FFCE;
	  489 : 0020;
	  490 : FFDF;
	  491 : 000B;
	  492 : FFEF;
	  493 : 0009;
	  494 : FFED;
	  495 : FFD6;
	  496 : FFE4;
	  497 : FFE0;
	  498 : FFF9;
	  499 : 0010;
	  500 : FFE8;
	  501 : FFCE;
	  502 : 0002;
	  503 : 000B;
	  504 : 002F;
	  505 : 0009;
	  506 : FFFD;
	  507 : 0008;
	  508 : 002C;
	  509 : 0022;
	  510 : FFEE;
	  511 : FFE5;
	  512 : FFE8;
	  513 : 0000;
	  514 : 0019;
	  515 : 0000;
	  516 : FFD4;
	  517 : 0017;
	  518 : 001F;
	  519 : FFEA;
	  520 : 0011;
	  521 : FFF8;
	  522 : 0028;
	  523 : 0023;
	  524 : 0003;
	  525 : 0014;
	  526 : 0027;
	  527 : 0000;
	  528 : FFED;
	  529 : 001A;
	  530 : FFE3;
	  531 : FFF5;
	  532 : 0025;
	  533 : 0017;
	  534 : FFF6;
	  535 : FFE3;
	  536 : FFF1;
	  537 : FFEA;
	  538 : FFDF;
	  539 : 0019;
	  540 : FFE7;
	  541 : FFFB;
	  542 : FFF4;
	  543 : 0031;
	  544 : FFF5;
	  545 : FFD5;
	  546 : FFD6;
	  547 : 0009;
	  548 : 000A;
	  549 : FFF8;
	  550 : FFF9;
	  551 : FFD2;
	  552 : 0002;
	  553 : 0000;
	  554 : FFDC;
	  555 : FFD7;
	  556 : FFD9;
	  557 : FFD7;
	  558 : 000B;
	  559 : FFE1;
	  560 : FFE7;
	  561 : FFDF;
	  562 : 002F;
	  563 : 0024;
	  564 : FFE4;
	  565 : FFEE;
	  566 : FFE2;
	  567 : FFFF;
	  568 : FFCF;
	  569 : 0012;
	  570 : 0002;
	  571 : 0029;
	  572 : FFDE;
	  573 : 001F;
	  574 : 001E;
	  575 : FFDA;
	  576 : FFF6;
	  577 : FFDE;
	  578 : FFE7;
	  579 : FFE8;
	  580 : 0006;
	  581 : FFF7;
	  582 : 002E;
	  583 : FFDA;
	  584 : 0031;
	  585 : FFE4;
	  586 : 001C;
	  587 : FFF0;
	  588 : FFDB;
	  589 : 0025;
	  590 : FFEC;
	  591 : 0010;
	  592 : 0007;
	  593 : FFFD;
	  594 : 0000;
	  595 : 0018;
	  596 : FFD6;
	  597 : 0011;
	  598 : 0029;
	  599 : FFD3;
	  600 : FFDB;
	  601 : 0016;
	  602 : FFFA;
	  603 : FFF6;
	  604 : FFDB;
	  605 : 0001;
	  606 : FFDA;
	  607 : FFFE;
	  608 : 001B;
	  609 : FFE7;
	  610 : FFFE;
	  611 : 0032;
	  612 : 0013;
	  613 : 0023;
	  614 : FFF7;
	  615 : 001B;
	  616 : FFD1;
	  617 : FFD9;
	  618 : FFE2;
	  619 : FFF6;
	  620 : 0023;
	  621 : FFF0;
	  622 : 0010;
	  623 : 0015;
	  624 : 0009;
	  625 : FFF1;
	  626 : 0008;
	  627 : FFF0;
	  628 : FFD5;
	  629 : 0032;
	  630 : FFDA;
	  631 : FFD4;
	  632 : 0027;
	  633 : FFEC;
	  634 : 000F;
	  635 : FFEE;
	  636 : FFF5;
	  637 : FFE8;
	  638 : FFF0;
	  639 : FFF7;
	  640 : 0017;
	  641 : 0001;
	  642 : 002D;
	  643 : FFD1;
	  644 : 0000;
	  645 : 0009;
	  646 : 002B;
	  647 : FFD2;
	  648 : 0008;
	  649 : 0024;
	  650 : FFE6;
	  651 : 0027;
	  652 : FFCF;
	  653 : 0018;
	  654 : 002C;
	  655 : 0010;
	  656 : FFFA;
	  657 : FFD1;
	  658 : 002B;
	  659 : FFFD;
	  660 : FFD0;
	  661 : 0013;
	  662 : FFFE;
	  663 : FFDA;
	  664 : FFE3;
	  665 : FFD3;
	  666 : 0008;
	  667 : 000C;
	  668 : 0001;
	  669 : 0020;
	  670 : 0025;
	  671 : 000C;
	  672 : FFCE;
	  673 : 0014;
	  674 : FFF8;
	  675 : 0007;
	  676 : 000F;
	  677 : FFF1;
	  678 : 002B;
	  679 : FFDB;
	  680 : 0012;
	  681 : FFCD;
	  682 : 002B;
	  683 : FFD8;
	  684 : FFD7;
	  685 : FFEF;
	  686 : FFF3;
	  687 : FFE3;
	  688 : 0009;
	  689 : FFFA;
	  690 : FFD0;
	  691 : FFEE;
	  692 : 0020;
	  693 : 0013;
	  694 : 0017;
	  695 : 0014;
	  696 : FFED;
	  697 : FFD7;
	  698 : FFE9;
	  699 : 0022;
	  700 : 0031;
	  701 : FFFF;
	  702 : FFCE;
	  703 : FFDB;
	  704 : FFEE;
	  705 : 0008;
	  706 : FFD4;
	  707 : 002D;
	  708 : FFF2;
	  709 : 002A;
	  710 : 001D;
	  711 : 001A;
	  712 : 000B;
	  713 : 000D;
	  714 : 000E;
	  715 : 000D;
	  716 : 0006;
	  717 : 0032;
	  718 : 0018;
	  719 : 001C;
	  720 : 0026;
	  721 : FFE3;
	  722 : FFD5;
	  723 : FFFE;
	  724 : 0001;
	  725 : 0022;
	  726 : FFFA;
	  727 : 0007;
	  728 : 0003;
	  729 : FFD1;
	  730 : 000C;
	  731 : 0022;
	  732 : FFDD;
	  733 : 000A;
	  734 : 000A;
	  735 : FFDE;
	  736 : FFD9;
	  737 : 0031;
	  738 : FFF5;
	  739 : FFE4;
	  740 : FFDE;
	  741 : 0011;
	  742 : 000B;
	  743 : 000F;
	  744 : FFD6;
	  745 : 0028;
	  746 : FFF5;
	  747 : FFED;
	  748 : FFFC;
	  749 : FFF5;
	  750 : 0025;
	  751 : 002C;
	  752 : FFEC;
	  753 : 0025;
	  754 : 001D;
	  755 : 002C;
	  756 : FFE6;
	  757 : 0008;
	  758 : FFE9;
	  759 : 0021;
	  760 : FFCD;
	  761 : 0007;
	  762 : FFF0;
	  763 : FFEE;
	  764 : 000F;
	  765 : 0024;
	  766 : 000B;
	  767 : 0024;
	  768 : FFE8;
	  769 : 0002;
	  770 : FFFB;
	  771 : FFCE;
	  772 : 0006;
	  773 : 0011;
	  774 : 0009;
	  775 : 0018;
	  776 : 0007;
	  777 : FFD4;
	  778 : FFD9;
	  779 : 000A;
	  780 : FFE9;
	  781 : FFD5;
	  782 : FFF9;
	  783 : 0006;
	  784 : FFEE;
	  785 : 0017;
	  786 : 000F;
	  787 : FFEF;
	  788 : 001A;
	  789 : 000F;
	  790 : 000E;
	  791 : 0005;
	  792 : FFCE;
	  793 : 0014;
	  794 : FFF3;
	  795 : 002D;
	  796 : 0021;
	  797 : 0009;
	  798 : FFE7;
	  799 : FFE2;
	  800 : FFF0;
	  801 : FFFE;
	  802 : FFEB;
	  803 : 0002;
	  804 : FFDE;
	  805 : 0031;
	  806 : FFD8;
	  807 : 002C;
	  808 : 002A;
	  809 : 0003;
	  810 : 0017;
	  811 : FFF9;
	  812 : 000D;
	  813 : FFF0;
	  814 : FFEC;
	  815 : 0008;
	  816 : 0000;
	  817 : 0008;
	  818 : FFEA;
	  819 : FFF2;
	  820 : FFD5;
	  821 : FFD2;
	  822 : FFE7;
	  823 : FFD4;
	  824 : FFD7;
	  825 : 0020;
	  826 : FFD1;
	  827 : 0010;
	  828 : FFE9;
	  829 : 0026;
	  830 : FFFE;
	  831 : FFEC;
	  832 : 0002;
	  833 : FFF4;
	  834 : 0007;
	  835 : FFD9;
	  836 : 0033;
	  837 : FFF8;
	  838 : FFF0;
	  839 : 0016;
	  840 : FFF2;
	  841 : 0022;
	  842 : FFFB;
	  843 : 0016;
	  844 : FFD8;
	  845 : 0023;
	  846 : 0018;
	  847 : FFE2;
	  848 : FFDC;
	  849 : FFED;
	  850 : 0031;
	  851 : FFE7;
	  852 : FFFC;
	  853 : FFD0;
	  854 : FFF5;
	  855 : 0007;
	  856 : 002E;
	  857 : 0002;
	  858 : 0021;
	  859 : 0005;
	  860 : FFD1;
	  861 : FFED;
	  862 : 0008;
	  863 : 002E;
	  864 : 0025;
	  865 : FFE4;
	  866 : FFE3;
	  867 : FFE1;
	  868 : 002B;
	  869 : 0024;
	  870 : 001C;
	  871 : FFF5;
	  872 : 0000;
	  873 : FFFC;
	  874 : FFE7;
	  875 : 0001;
	  876 : FFD0;
	  877 : FFDA;
	  878 : 0028;
	  879 : 001A;
	  880 : FFF8;
	  881 : 0002;
	  882 : FFF3;
	  883 : 0019;
	  884 : 001D;
	  885 : 001B;
	  886 : 0017;
	  887 : FFE2;
	  888 : FFEF;
	  889 : FFFD;
	  890 : FFEF;
	  891 : 001A;
	  892 : FFEF;
	  893 : FFDB;
	  894 : FFF6;
	  895 : 0031;
	  896 : FFE4;
	  897 : 000B;
	  898 : FFF9;
	  899 : FFD4;
	  900 : FFFF;
	  901 : 0015;
	  902 : 0001;
	  903 : 0026;
	  904 : FFEA;
	  905 : FFD6;
	  906 : 002D;
	  907 : FFF4;
	  908 : 0008;
	  909 : 001E;
	  910 : FFEE;
	  911 : 0016;
	  912 : FFDB;
	  913 : FFEB;
	  914 : FFDC;
	  915 : 0020;
	  916 : FFE4;
	  917 : 0016;
	  918 : 002D;
	  919 : 0003;
	  920 : 0004;
	  921 : FFFC;
	  922 : FFEE;
	  923 : FFFE;
	  924 : 000B;
	  925 : 0032;
	  926 : 002D;
	  927 : 0025;
	  928 : 0028;
	  929 : FFFD;
	  930 : 0010;
	  931 : 0028;
	  932 : FFF5;
	  933 : 002F;
	  934 : FFF7;
	  935 : 000A;
	  936 : 0015;
	  937 : 002E;
	  938 : FFE6;
	  939 : 0019;
	  940 : 0002;
	  941 : FFE8;
	  942 : 001C;
	  943 : 0005;
	  944 : 0010;
	  945 : FFEE;
	  946 : FFFE;
	  947 : 000C;
	  948 : FFF6;
	  949 : FFE1;
	  950 : 002F;
	  951 : 0001;
	  952 : 0018;
	  953 : FFF7;
	  954 : FFF1;
	  955 : FFF6;
	  956 : FFF7;
	  957 : 0005;
	  958 : 0004;
	  959 : 0000;
	  960 : FFDB;
	  961 : 0000;
	  962 : FFDE;
	  963 : FFDA;
	  964 : 002C;
	  965 : 000B;
	  966 : 0010;
	  967 : FFF6;
	  968 : 002A;
	  969 : 000E;
	  970 : 001C;
	  971 : FFF3;
	  972 : 002F;
	  973 : 0021;
	  974 : 0024;
	  975 : FFDE;
	  976 : FFE9;
	  977 : FFEA;
	  978 : FFE9;
	  979 : 0024;
	  980 : FFD0;
	  981 : FFD5;
	  982 : FFE9;
	  983 : FFE1;
	  984 : FFE5;
	  985 : 001F;
	  986 : 0006;
	  987 : FFCD;
	  988 : FFF9;
	  989 : FFF7;
	  990 : FFD8;
	  991 : 0012;
	  992 : 0015;
	  993 : 0017;
	  994 : 0017;
	  995 : FFCD;
	  996 : 002E;
	  997 : 0020;
	  998 : 0029;
	  999 : FFCE;
	 1000 : 002C;
	 1001 : 0020;
	 1002 : 0023;
	 1003 : FFD6;
	 1004 : 0018;
	 1005 : 002F;
	 1006 : 0012;
	 1007 : 0007;
	 1008 : 002E;
	 1009 : FFFA;
	 1010 : 000A;
	 1011 : FFFE;
	 1012 : 002C;
	 1013 : FFD5;
	 1014 : 0000;
	 1015 : 0013;
	 1016 : 001E;
	 1017 : 0009;
	 1018 : 002A;
	 1019 : 002D;
	 1020 : FFD3;
	 1021 : FFF6;
	 1022 : FFCF;
	 1023 : FFEF;
	 1024 : 0004;
	 1025 : 002A;
	 1026 : 0023;
	 1027 : FFDA;
	 1028 : FFD6;
	 1029 : 0009;
	 1030 : 0003;
	 1031 : FFE8;
	 1032 : 0029;
	 1033 : 002C;
	 1034 : FFF6;
	 1035 : 0028;
	 1036 : FFF4;
	 1037 : 0018;
	 1038 : FFFE;
	 1039 : FFD9;
	 1040 : 002C;
	 1041 : FFFB;
	 1042 : 0018;
	 1043 : FFF2;
	 1044 : FFCF;
	 1045 : FFD7;
	 1046 : 0000;
	 1047 : 0013;
	 1048 : FFEF;
	 1049 : 0014;
	 1050 : 0014;
	 1051 : 0015;
	 1052 : FFFF;
	 1053 : 002A;
	 1054 : FFFF;
	 1055 : FFFB;
	 1056 : FFE1;
	 1057 : FFEC;
	 1058 : FFD1;
	 1059 : 000E;
	 1060 : FFE6;
	 1061 : FFEC;
	 1062 : 001C;
	 1063 : FFEE;
	 1064 : FFE6;
	 1065 : FFDE;
	 1066 : 001C;
	 1067 : FFDA;
	 1068 : FFFB;
	 1069 : 0001;
	 1070 : 0013;
	 1071 : 000E;
	 1072 : 0020;
	 1073 : FFD1;
	 1074 : FFEB;
	 1075 : FFE9;
	 1076 : FFDC;
	 1077 : FFEA;
	 1078 : FFED;
	 1079 : 0002;
	 1080 : 0011;
	 1081 : FFF4;
	 1082 : 0016;
	 1083 : FFEF;
	 1084 : FFEB;
	 1085 : 0004;
	 1086 : FFCF;
	 1087 : FFD5;
	 1088 : FFF8;
	 1089 : 002D;
	 1090 : 0017;
	 1091 : FFD6;
	 1092 : 0023;
	 1093 : 0018;
	 1094 : 000B;
	 1095 : 0021;
	 1096 : FFF6;
	 1097 : FFE3;
	 1098 : 0001;
	 1099 : 0005;
	 1100 : 0004;
	 1101 : 0007;
	 1102 : 002E;
	 1103 : 0029;
	 1104 : 0026;
	 1105 : 001F;
	 1106 : 002D;
	 1107 : FFD7;
	 1108 : FFE8;
	 1109 : FFFF;
	 1110 : 0023;
	 1111 : 0001;
	 1112 : 0019;
	 1113 : FFDB;
	 1114 : FFE7;
	 1115 : 0018;
	 1116 : FFDE;
	 1117 : FFF1;
	 1118 : FFE8;
	 1119 : FFF1;
	 1120 : 0015;
	 1121 : FFF2;
	 1122 : 0006;
	 1123 : FFD7;
	 1124 : 001F;
	 1125 : FFF3;
	 1126 : 000F;
	 1127 : 0017;
	 1128 : FFE2;
	 1129 : 0027;
	 1130 : 000C;
	 1131 : FFF9;
	 1132 : FFDF;
	 1133 : 002D;
	 1134 : 001A;
	 1135 : FFE2;
	 1136 : FFEF;
	 1137 : 0020;
	 1138 : 0014;
	 1139 : 001B;
	 1140 : FFFA;
	 1141 : 0016;
	 1142 : FFF4;
	 1143 : FFE2;
	 1144 : 000E;
	 1145 : 0031;
	 1146 : FFED;
	 1147 : FFFC;
	 1148 : 0012;
	 1149 : 0004;
	 1150 : 0023;
	 1151 : 001B;
	 1152 : FFD3;
	 1153 : 0033;
	 1154 : 001A;
	 1155 : 0025;
	 1156 : 000F;
	 1157 : 0024;
	 1158 : FFD8;
	 1159 : FFF0;
	 1160 : 0027;
	 1161 : FFE1;
	 1162 : FFD5;
	 1163 : 001E;
	 1164 : 0022;
	 1165 : FFDD;
	 1166 : 0024;
	 1167 : 0013;
	 1168 : 0002;
	 1169 : 0022;
	 1170 : FFF8;
	 1171 : FFE1;
	 1172 : FFEA;
	 1173 : 0001;
	 1174 : 0003;
	 1175 : 001F;
	 1176 : 001E;
	 1177 : 0008;
	 1178 : 001D;
	 1179 : FFE0;
	 1180 : FFD2;
	 1181 : 0026;
	 1182 : FFD5;
	 1183 : FFE6;
	 1184 : 0014;
	 1185 : FFF7;
	 1186 : 0027;
	 1187 : FFEB;
	 1188 : FFCE;
	 1189 : FFEC;
	 1190 : 0008;
	 1191 : FFF3;
	 1192 : 0004;
	 1193 : 0027;
	 1194 : 002A;
	 1195 : FFE8;
	 1196 : FFFC;
	 1197 : 0005;
	 1198 : 002E;
	 1199 : 0033;
	 1200 : FFE5;
	 1201 : 0017;
	 1202 : FFF4;
	 1203 : FFCE;
	 1204 : FFCE;
	 1205 : FFFC;
	 1206 : FFFF;
	 1207 : FFCF;
	 1208 : 0013;
	 1209 : FFEB;
	 1210 : 0006;
	 1211 : FFEC;
	 1212 : FFDE;
	 1213 : FFF6;
	 1214 : FFE5;
	 1215 : 0004;
	 1216 : FFE1;
	 1217 : 0001;
	 1218 : FFDD;
	 1219 : 0012;
	 1220 : 001A;
	 1221 : FFD8;
	 1222 : FFFD;
	 1223 : FFD4;
	 1224 : 000A;
	 1225 : FFE8;
	 1226 : 0003;
	 1227 : 0002;
	 1228 : 002B;
	 1229 : 0005;
	 1230 : 0008;
	 1231 : FFF6;
	 1232 : 002E;
	 1233 : 001C;
	 1234 : FFEA;
	 1235 : 0023;
	 1236 : FFF9;
	 1237 : 0022;
	 1238 : 0021;
	 1239 : FFE0;
	 1240 : 0015;
	 1241 : FFEB;
	 1242 : FFEB;
	 1243 : FFEB;
	 1244 : 0017;
	 1245 : FFE4;
	 1246 : FFCD;
	 1247 : 0016;
	 1248 : FFDE;
	 1249 : FFD7;
	 1250 : FFE5;
	 1251 : FFF4;
	 1252 : FFFE;
	 1253 : FFD1;
	 1254 : 0030;
	 1255 : 0016;
	 1256 : FFEE;
	 1257 : FFED;
	 1258 : FFFB;
	 1259 : 000D;
	 1260 : FFDC;
	 1261 : FFE0;
	 1262 : 0025;
	 1263 : FFE7;
	 1264 : FFF4;
	 1265 : 0026;
	 1266 : 0011;
	 1267 : FFF0;
	 1268 : 0013;
	 1269 : FFCF;
	 1270 : 0018;
	 1271 : FFFF;
	 1272 : 0020;
	 1273 : 002F;
	 1274 : 002C;
	 1275 : 002A;
	 1276 : 0001;
	 1277 : FFF2;
	 1278 : FFFC;
	 1279 : 0013;
	 1280 : 0027;
	 1281 : FFE2;
	 1282 : 002B;
	 1283 : 0020;
	 1284 : 0031;
	 1285 : 0027;
	 1286 : FFE9;
	 1287 : FFD8;
	 1288 : FFD8;
	 1289 : FFEB;
	 1290 : 000C;
	 1291 : 001F;
	 1292 : 0029;
	 1293 : 000D;
	 1294 : FFCD;
	 1295 : FFE0;
	 1296 : FFD7;
	 1297 : FFF2;
	 1298 : 0000;
	 1299 : FFD1;
	 1300 : FFF0;
	 1301 : FFDF;
	 1302 : 000F;
	 1303 : FFFC;
	 1304 : 0000;
	 1305 : FFF9;
	 1306 : 002F;
	 1307 : FFE3;
	 1308 : 0002;
	 1309 : 0018;
	 1310 : 0006;
	 1311 : 002C;
	 1312 : FFF4;
	 1313 : FFFC;
	 1314 : FFD6;
	 1315 : 000B;
	 1316 : FFEA;
	 1317 : FFDD;
	 1318 : 0005;
	 1319 : 0003;
	 1320 : FFD5;
	 1321 : 0014;
	 1322 : 000D;
	 1323 : FFE0;
	 1324 : FFFD;
	 1325 : 0017;
	 1326 : 0003;
	 1327 : FFF5;
	 1328 : FFEE;
	 1329 : 000B;
	 1330 : 002D;
	 1331 : 0012;
	 1332 : FFD4;
	 1333 : FFFC;
	 1334 : 0028;
	 1335 : FFD6;
	 1336 : 0032;
	 1337 : 002E;
	 1338 : FFD5;
	 1339 : 002C;
	 1340 : FFF2;
	 1341 : 0023;
	 1342 : FFF8;
	 1343 : FFFA;
	 1344 : 000E;
	 1345 : 001C;
	 1346 : FFD0;
	 1347 : 000A;
	 1348 : FFE0;
	 1349 : FFF0;
	 1350 : FFF0;
	 1351 : FFFD;
	 1352 : FFEF;
	 1353 : FFD8;
	 1354 : FFDC;
	 1355 : FFD0;
	 1356 : FFFD;
	 1357 : 002F;
	 1358 : FFD9;
	 1359 : 002E;
	 1360 : 0018;
	 1361 : 000E;
	 1362 : 000F;
	 1363 : 0021;
	 1364 : FFD8;
	 1365 : 0000;
	 1366 : 0014;
	 1367 : 0009;
	 1368 : 0022;
	 1369 : FFD4;
	 1370 : 0014;
	 1371 : 0003;
	 1372 : FFF4;
	 1373 : FFF0;
	 1374 : 000C;
	 1375 : 0028;
	 1376 : 0000;
	 1377 : 0021;
	 1378 : FFF6;
	 1379 : FFD7;
	 1380 : FFD3;
	 1381 : FFD2;
	 1382 : FFF4;
	 1383 : FFEF;
	 1384 : 0016;
	 1385 : 0019;
	 1386 : FFD2;
	 1387 : FFE3;
	 1388 : FFE9;
	 1389 : 0005;
	 1390 : FFDC;
	 1391 : FFDB;
	 1392 : 002D;
	 1393 : 001F;
	 1394 : FFDF;
	 1395 : FFF6;
	 1396 : FFF1;
	 1397 : 001E;
	 1398 : 0001;
	 1399 : FFDA;
	 1400 : 0018;
	 1401 : FFF5;
	 1402 : FFE8;
	 1403 : FFF3;
	 1404 : 0000;
	 1405 : FFF0;
	 1406 : FFE6;
	 1407 : FFF6;
	 1408 : FFCF;
	 1409 : 001C;
	 1410 : FFDE;
	 1411 : FFD1;
	 1412 : 0010;
	 1413 : 001C;
	 1414 : 0020;
	 1415 : FFFF;
	 1416 : FFE2;
	 1417 : 0018;
	 1418 : 0014;
	 1419 : FFE6;
	 1420 : 0029;
	 1421 : FFD7;
	 1422 : 0031;
	 1423 : 0025;
	 1424 : 0013;
	 1425 : 002D;
	 1426 : 0017;
	 1427 : FFE0;
	 1428 : FFFA;
	 1429 : FFD4;
	 1430 : FFF5;
	 1431 : 0019;
	 1432 : FFF4;
	 1433 : FFEF;
	 1434 : 000A;
	 1435 : 0026;
	 1436 : FFD2;
	 1437 : FFF4;
	 1438 : FFDD;
	 1439 : 0014;
	 1440 : FFD8;
	 1441 : 0011;
	 1442 : FFEA;
	 1443 : FFE1;
	 1444 : 002D;
	 1445 : FFCF;
	 1446 : FFFA;
	 1447 : FFCF;
	 1448 : FFFE;
	 1449 : 0000;
	 1450 : FFEE;
	 1451 : FFDA;
	 1452 : FFF3;
	 1453 : 0012;
	 1454 : 001D;
	 1455 : 0003;
	 1456 : 0009;
	 1457 : FFE1;
	 1458 : FFEA;
	 1459 : FFDD;
	 1460 : FFE6;
	 1461 : FFE4;
	 1462 : 0002;
	 1463 : 0006;
	 1464 : 002E;
	 1465 : FFE1;
	 1466 : 000F;
	 1467 : 0020;
	 1468 : 0006;
	 1469 : FFE7;
	 1470 : FFE8;
	 1471 : FFD1;
	 1472 : FFEC;
	 1473 : 0019;
	 1474 : FFD2;
	 1475 : FFE3;
	 1476 : 0015;
	 1477 : 001D;
	 1478 : FFFB;
	 1479 : 0014;
	 1480 : FFF5;
	 1481 : FFDD;
	 1482 : FFF6;
	 1483 : 0008;
	 1484 : 002E;
	 1485 : FFD4;
	 1486 : 0001;
	 1487 : FFEE;
	 1488 : 0001;
	 1489 : FFCF;
	 1490 : FFED;
	 1491 : 0021;
	 1492 : 0006;
	 1493 : FFFB;
	 1494 : FFEA;
	 1495 : FFEB;
	 1496 : FFF4;
	 1497 : 0022;
	 1498 : 0030;
	 1499 : FFFA;
	 1500 : FFF5;
	 1501 : 0023;
	 1502 : FFF9;
	 1503 : 0005;
	 1504 : FFE4;
	 1505 : 0019;
	 1506 : 0003;
	 1507 : 0020;
	 1508 : 001D;
	 1509 : FFE3;
	 1510 : 0016;
	 1511 : 001F;
	 1512 : FFF0;
	 1513 : FFDE;
	 1514 : FFCD;
	 1515 : FFFB;
	 1516 : FFF1;
	 1517 : 0006;
	 1518 : FFE0;
	 1519 : 0025;
	 1520 : FFE7;
	 1521 : FFE4;
	 1522 : FFFE;
	 1523 : 0000;
	 1524 : FFE3;
	 1525 : FFE9;
	 1526 : FFDE;
	 1527 : 0016;
	 1528 : 001C;
	 1529 : FFFC;
	 1530 : 0016;
	 1531 : 0018;
	 1532 : FFDB;
	 1533 : 0030;
	 1534 : 0021;
	 1535 : FFE2;
	 1536 : FFE0;
	 1537 : FFDA;
	 1538 : FFDB;
	 1539 : 0019;
	 1540 : FFFD;
	 1541 : 001D;
	 1542 : 0019;
	 1543 : 000B;
	 1544 : 0013;
	 1545 : FFCF;
	 1546 : FFED;
	 1547 : 000E;
	 1548 : FFCE;
	 1549 : FFD0;
	 1550 : 0024;
	 1551 : 0013;
	 1552 : FFE8;
	 1553 : 0013;
	 1554 : 001E;
	 1555 : FFEC;
	 1556 : FFD0;
	 1557 : 002C;
	 1558 : FFF0;
	 1559 : FFD8;
	 1560 : FFFF;
	 1561 : 001B;
	 1562 : FFE3;
	 1563 : FFE8;
	 1564 : FFE6;
	 1565 : 0032;
	 1566 : FFE1;
	 1567 : 0008;
	 1568 : 002C;
	 1569 : FFDC;
	 1570 : 0030;
	 1571 : 002E;
	 1572 : 0027;
	 1573 : FFE3;
	 1574 : 000E;
	 1575 : 001B;
	 1576 : 0032;
	 1577 : FFDF;
	 1578 : 001B;
	 1579 : FFEF;
	 1580 : FFDF;
	 1581 : FFF8;
	 1582 : 001E;
	 1583 : FFFC;
	 1584 : 0004;
	 1585 : 0033;
	 1586 : FFF6;
	 1587 : 000C;
	 1588 : FFF2;
	 1589 : FFF5;
	 1590 : 0014;
	 1591 : 002D;
	 1592 : 0004;
	 1593 : 001B;
	 1594 : FFD6;
	 1595 : FFE2;
	 1596 : 0000;
	 1597 : FFCF;
	 1598 : FFE7;
	 1599 : 0002;
	 1600 : FFCE;
	 1601 : FFE8;
	 1602 : 0001;
	 1603 : 0007;
	 1604 : 002C;
	 1605 : 000F;
	 1606 : FFF7;
	 1607 : 002C;
	 1608 : 001D;
	 1609 : FFE1;
	 1610 : FFDA;
	 1611 : 0012;
	 1612 : 0006;
	 1613 : 001E;
	 1614 : 0018;
	 1615 : 000D;
	 1616 : 0032;
	 1617 : 0003;
	 1618 : FFD8;
	 1619 : 0022;
	 1620 : FFE7;
	 1621 : 001C;
	 1622 : 002F;
	 1623 : 0014;
	 1624 : 000A;
	 1625 : FFFC;
	 1626 : FFF2;
	 1627 : FFF1;
	 1628 : 000E;
	 1629 : 001A;
	 1630 : 0012;
	 1631 : FFE1;
	 1632 : FFFF;
	 1633 : 001E;
	 1634 : FFFE;
	 1635 : 0004;
	 1636 : 001C;
	 1637 : 0011;
	 1638 : FFF7;
	 1639 : 0028;
	 1640 : FFDD;
	 1641 : 0033;
	 1642 : FFD9;
	 1643 : FFCE;
	 1644 : 0028;
	 1645 : FFE6;
	 1646 : 0018;
	 1647 : 0020;
	 1648 : 0025;
	 1649 : 0032;
	 1650 : FFEB;
	 1651 : 0016;
	 1652 : FFD9;
	 1653 : FFF6;
	 1654 : 0024;
	 1655 : FFF2;
	 1656 : 0009;
	 1657 : 0000;
	 1658 : 000F;
	 1659 : 0030;
	 1660 : FFD3;
	 1661 : 0008;
	 1662 : 0025;
	 1663 : FFFE;
	 1664 : FFD5;
	 1665 : 0006;
	 1666 : FFEF;
	 1667 : FFDD;
	 1668 : 0024;
	 1669 : 0002;
	 1670 : 002C;
	 1671 : 001F;
	 1672 : 0014;
	 1673 : FFCD;
	 1674 : FFF9;
	 1675 : FFE1;
	 1676 : 002A;
	 1677 : FFDF;
	 1678 : FFEA;
	 1679 : 0002;
	 1680 : FFE8;
	 1681 : FFE2;
	 1682 : 000A;
	 1683 : FFD6;
	 1684 : FFD3;
	 1685 : FFF3;
	 1686 : 0017;
	 1687 : 0006;
	 1688 : FFF8;
	 1689 : 0007;
	 1690 : FFF2;
	 1691 : 002D;
	 1692 : FFD2;
	 1693 : 0012;
	 1694 : 0028;
	 1695 : 001F;
	 1696 : FFE0;
	 1697 : FFEB;
	 1698 : 0016;
	 1699 : FFD5;
	 1700 : 0020;
	 1701 : 0016;
	 1702 : 0018;
	 1703 : FFD7;
	 1704 : 0016;
	 1705 : 0012;
	 1706 : 0022;
	 1707 : FFD1;
	 1708 : FFCF;
	 1709 : FFF3;
	 1710 : FFDC;
	 1711 : 0006;
	 1712 : 002B;
	 1713 : FFF5;
	 1714 : 0023;
	 1715 : FFCD;
	 1716 : FFDE;
	 1717 : FFD0;
	 1718 : FFEE;
	 1719 : 002A;
	 1720 : FFD7;
	 1721 : 000B;
	 1722 : FFFB;
	 1723 : 002D;
	 1724 : FFD9;
	 1725 : FFE3;
	 1726 : FFD0;
	 1727 : FFF9;
	 1728 : FFE9;
	 1729 : 0026;
	 1730 : 000B;
	 1731 : 000C;
	 1732 : 0003;
	 1733 : FFD6;
	 1734 : FFFA;
	 1735 : 0033;
	 1736 : 0022;
	 1737 : 0028;
	 1738 : 0021;
	 1739 : FFD7;
	 1740 : FFE4;
	 1741 : FFCD;
	 1742 : FFEC;
	 1743 : FFD8;
	 1744 : FFFD;
	 1745 : 0012;
	 1746 : 0026;
	 1747 : 001A;
	 1748 : 002D;
	 1749 : FFD2;
	 1750 : FFCE;
	 1751 : 0011;
	 1752 : FFEA;
	 1753 : FFE7;
	 1754 : FFEF;
	 1755 : FFE8;
	 1756 : 0001;
	 1757 : FFFA;
	 1758 : 0001;
	 1759 : 0012;
	 1760 : FFF4;
	 1761 : FFE7;
	 1762 : FFDE;
	 1763 : FFF1;
	 1764 : 0019;
	 1765 : 001A;
	 1766 : 0011;
	 1767 : FFE5;
	 1768 : 0009;
	 1769 : 0007;
	 1770 : FFFE;
	 1771 : 0005;
	 1772 : FFFF;
	 1773 : 0007;
	 1774 : 0016;
	 1775 : FFD8;
	 1776 : 001A;
	 1777 : FFDB;
	 1778 : FFD4;
	 1779 : 0031;
	 1780 : 002F;
	 1781 : FFD3;
	 1782 : FFFA;
	 1783 : FFE0;
	 1784 : FFFE;
	 1785 : 0022;
	 1786 : 002E;
	 1787 : 000E;
	 1788 : FFF1;
	 1789 : 000B;
	 1790 : FFED;
	 1791 : 002A;
	 1792 : 0026;
	 1793 : 0006;
	 1794 : FFEE;
	 1795 : FFEB;
	 1796 : FFD0;
	 1797 : 0020;
	 1798 : FFFB;
	 1799 : FFEE;
	 1800 : FFFD;
	 1801 : 0021;
	 1802 : FFDA;
	 1803 : 0025;
	 1804 : 0029;
	 1805 : 002E;
	 1806 : FFF6;
	 1807 : FFE3;
	 1808 : FFF3;
	 1809 : FFEF;
	 1810 : FFDF;
	 1811 : 000B;
	 1812 : FFFE;
	 1813 : 0025;
	 1814 : FFD0;
	 1815 : 000F;
	 1816 : 001B;
	 1817 : 001B;
	 1818 : 0028;
	 1819 : 0017;
	 1820 : 002C;
	 1821 : FFEF;
	 1822 : 0000;
	 1823 : FFCE;
	 1824 : FFCE;
	 1825 : FFE5;
	 1826 : FFD7;
	 1827 : FFE7;
	 1828 : FFDF;
	 1829 : FFD0;
	 1830 : 002A;
	 1831 : FFCE;
	 1832 : 0018;
	 1833 : FFDC;
	 1834 : 002A;
	 1835 : 0028;
	 1836 : 0010;
	 1837 : 0012;
	 1838 : FFCD;
	 1839 : 0032;
	 1840 : 0027;
	 1841 : 0028;
	 1842 : 0010;
	 1843 : FFF0;
	 1844 : 0028;
	 1845 : FFEB;
	 1846 : 0006;
	 1847 : FFD7;
	 1848 : 002B;
	 1849 : FFDB;
	 1850 : FFE4;
	 1851 : 0006;
	 1852 : 001B;
	 1853 : 000C;
	 1854 : FFE5;
	 1855 : FFCD;
	 1856 : 001A;
	 1857 : 0032;
	 1858 : 0020;
	 1859 : FFFC;
	 1860 : 0029;
	 1861 : FFF7;
	 1862 : 0003;
	 1863 : FFFE;
	 1864 : FFFB;
	 1865 : 001C;
	 1866 : 0003;
	 1867 : FFED;
	 1868 : FFE7;
	 1869 : FFD1;
	 1870 : 0009;
	 1871 : FFE4;
	 1872 : FFDC;
	 1873 : 0010;
	 1874 : 0013;
	 1875 : 001A;
	 1876 : 0000;
	 1877 : 0028;
	 1878 : 002D;
	 1879 : 001F;
	 1880 : 000E;
	 1881 : FFEC;
	 1882 : 0031;
	 1883 : FFE9;
	 1884 : FFE2;
	 1885 : FFFA;
	 1886 : FFD3;
	 1887 : 0031;
	 1888 : 0009;
	 1889 : 0006;
	 1890 : 0010;
	 1891 : 0000;
	 1892 : FFD0;
	 1893 : 000C;
	 1894 : 0016;
	 1895 : FFF7;
	 1896 : 001A;
	 1897 : FFE4;
	 1898 : FFE3;
	 1899 : FFDD;
	 1900 : FFF3;
	 1901 : 0024;
	 1902 : 0022;
	 1903 : FFF4;
	 1904 : 0009;
	 1905 : 0017;
	 1906 : FFE5;
	 1907 : FFDE;
	 1908 : 0030;
	 1909 : 000C;
	 1910 : 0031;
	 1911 : FFEF;
	 1912 : 0015;
	 1913 : FFE4;
	 1914 : FFE8;
	 1915 : 0001;
	 1916 : FFEE;
	 1917 : FFDE;
	 1918 : FFE8;
	 1919 : FFD0;
	 1920 : 0015;
	 1921 : FFFF;
	 1922 : FFD6;
	 1923 : FFDE;
	 1924 : FFD7;
	 1925 : 000C;
	 1926 : FFD6;
	 1927 : 001A;
	 1928 : FFCF;
	 1929 : FFE6;
	 1930 : 0028;
	 1931 : 0016;
	 1932 : FFD4;
	 1933 : 0021;
	 1934 : FFFF;
	 1935 : 0024;
	 1936 : 000A;
	 1937 : 0013;
	 1938 : 0033;
	 1939 : FFE5;
	 1940 : 000D;
	 1941 : FFFC;
	 1942 : FFD1;
	 1943 : FFCE;
	 1944 : FFD9;
	 1945 : 000F;
	 1946 : 0007;
	 1947 : 0005;
	 1948 : FFD0;
	 1949 : FFFD;
	 1950 : 002B;
	 1951 : FFF6;
	 1952 : 000D;
	 1953 : 001D;
	 1954 : 001D;
	 1955 : 0002;
	 1956 : 0025;
	 1957 : FFF5;
	 1958 : 0028;
	 1959 : FFE5;
	 1960 : FFE9;
	 1961 : FFD2;
	 1962 : 001E;
	 1963 : FFF8;
	 1964 : FFE4;
	 1965 : FFE5;
	 1966 : 0029;
	 1967 : 0022;
	 1968 : 0005;
	 1969 : 000C;
	 1970 : FFFD;
	 1971 : FFF5;
	 1972 : 002B;
	 1973 : FFDA;
	 1974 : FFF8;
	 1975 : FFF0;
	 1976 : 0000;
	 1977 : FFFC;
	 1978 : 0002;
	 1979 : FFDB;
	 1980 : 0001;
	 1981 : FFE6;
	 1982 : FFE0;
	 1983 : FFD3;
	 1984 : 001B;
	 1985 : FFF9;
	 1986 : 000D;
	 1987 : 0017;
	 1988 : 0012;
	 1989 : FFFD;
	 1990 : FFF5;
	 1991 : FFF3;
	 1992 : 000E;
	 1993 : FFFF;
	 1994 : 0024;
	 1995 : 0026;
	 1996 : FFDE;
	 1997 : FFDB;
	 1998 : 000D;
	 1999 : FFEC;
	 2000 : FFCF;
	 2001 : 0028;
	 2002 : FFE4;
	 2003 : 002C;
	 2004 : 0016;
	 2005 : 001B;
	 2006 : FFE1;
	 2007 : FFE5;
	 2008 : 0002;
	 2009 : FFDE;
	 2010 : FFEC;
	 2011 : FFEE;
	 2012 : FFDD;
	 2013 : FFE2;
	 2014 : 001E;
	 2015 : FFDE;
	 2016 : FFD0;
	 2017 : 000D;
	 2018 : 0031;
	 2019 : FFEF;
	 2020 : FFD9;
	 2021 : 0007;
	 2022 : 002A;
	 2023 : 001D;
	 2024 : 000D;
	 2025 : FFED;
	 2026 : 0004;
	 2027 : FFD6;
	 2028 : 0012;
	 2029 : 0017;
	 2030 : 0030;
	 2031 : FFE7;
	 2032 : FFCF;
	 2033 : 0005;
	 2034 : 0015;
	 2035 : 001E;
	 2036 : FFE1;
	 2037 : FFE8;
	 2038 : 0001;
	 2039 : FFEF;
	 2040 : 0025;
	 2041 : FFFD;
	 2042 : 001F;
	 2043 : 0008;
	 2044 : 001C;
	 2045 : FFEF;
	 2046 : 0022;
	 2047 : FFE9;
	 2048 : 0005;
	 2049 : FFE3;
	 2050 : FFFD;
	 2051 : FFED;
	 2052 : FFE8;
	 2053 : 0030;
	 2054 : FFDD;
	 2055 : 001D;
	 2056 : 0032;
	 2057 : FFCF;
	 2058 : 0014;
	 2059 : FFE7;
	 2060 : FFD1;
	 2061 : FFF6;
	 2062 : 002D;
	 2063 : FFCE;
	 2064 : 0009;
	 2065 : 0000;
	 2066 : 0026;
	 2067 : FFD5;
	 2068 : 0013;
	 2069 : 0012;
	 2070 : 0011;
	 2071 : 002D;
	 2072 : 0021;
	 2073 : FFD1;
	 2074 : FFFD;
	 2075 : FFF6;
	 2076 : FFED;
	 2077 : FFFB;
	 2078 : FFF4;
	 2079 : FFF9;
	 2080 : 0031;
	 2081 : FFD6;
	 2082 : 002B;
	 2083 : FFFE;
	 2084 : 000D;
	 2085 : 0022;
	 2086 : FFF2;
	 2087 : FFF9;
	 2088 : FFF7;
	 2089 : FFF3;
	 2090 : 002C;
	 2091 : 0022;
	 2092 : FFD8;
	 2093 : FFD8;
	 2094 : FFF9;
	 2095 : FFD7;
	 2096 : 000C;
	 2097 : FFDC;
	 2098 : 0002;
	 2099 : FFCE;
	 2100 : FFED;
	 2101 : 0012;
	 2102 : FFFE;
	 2103 : 0031;
	 2104 : 0026;
	 2105 : FFF2;
	 2106 : FFD1;
	 2107 : 0023;
	 2108 : 002A;
	 2109 : 0021;
	 2110 : FFDA;
	 2111 : 0033;
	 2112 : FFE7;
	 2113 : 0017;
	 2114 : 002A;
	 2115 : FFE5;
	 2116 : 002A;
	 2117 : FFEC;
	 2118 : 0031;
	 2119 : FFEA;
	 2120 : 002E;
	 2121 : FFD2;
	 2122 : 0015;
	 2123 : 0003;
	 2124 : FFFE;
	 2125 : FFE4;
	 2126 : 0015;
	 2127 : FFE0;
	 2128 : 0005;
	 2129 : FFE7;
	 2130 : 002F;
	 2131 : FFD0;
	 2132 : FFE1;
	 2133 : FFE6;
	 2134 : FFF7;
	 2135 : FFE5;
	 2136 : FFFF;
	 2137 : 0026;
	 2138 : 0016;
	 2139 : 0008;
	 2140 : FFD6;
	 2141 : 0014;
	 2142 : FFDE;
	 2143 : 001D;
	 2144 : FFE6;
	 2145 : FFF8;
	 2146 : FFF1;
	 2147 : 0025;
	 2148 : FFDA;
	 2149 : 0007;
	 2150 : FFDB;
	 2151 : 0015;
	 2152 : 0029;
	 2153 : FFF9;
	 2154 : FFFF;
	 2155 : 002C;
	 2156 : 0002;
	 2157 : FFFF;
	 2158 : 0008;
	 2159 : 0013;
	 2160 : FFD8;
	 2161 : 0021;
	 2162 : FFF9;
	 2163 : FFD4;
	 2164 : 001D;
	 2165 : FFF3;
	 2166 : FFD7;
	 2167 : 000E;
	 2168 : 0027;
	 2169 : 0028;
	 2170 : 002F;
	 2171 : 0026;
	 2172 : FFCD;
	 2173 : FFF4;
	 2174 : 0021;
	 2175 : FFF2;
	 2176 : 000A;
	 2177 : 000B;
	 2178 : FFF2;
	 2179 : 0029;
	 2180 : 0000;
	 2181 : FFFC;
	 2182 : 0033;
	 2183 : FFFF;
	 2184 : FFDF;
	 2185 : 0001;
	 2186 : 0020;
	 2187 : 001C;
	 2188 : 001E;
	 2189 : 0015;
	 2190 : FFE7;
	 2191 : 0025;
	 2192 : 0028;
	 2193 : FFE1;
	 2194 : FFDA;
	 2195 : 0031;
	 2196 : 0026;
	 2197 : 0028;
	 2198 : 0028;
	 2199 : 0004;
	 2200 : 000F;
	 2201 : 0005;
	 2202 : FFD2;
	 2203 : 0019;
	 2204 : 0001;
	 2205 : 000F;
	 2206 : 0000;
	 2207 : FFFF;
	 2208 : FFDE;
	 2209 : FFE9;
	 2210 : FFDD;
	 2211 : FFE1;
	 2212 : 0030;
	 2213 : FFDC;
	 2214 : FFE8;
	 2215 : 0009;
	 2216 : 000B;
	 2217 : FFDD;
	 2218 : 001E;
	 2219 : 001D;
	 2220 : FFE5;
	 2221 : FFEA;
	 2222 : 002D;
	 2223 : 0021;
	 2224 : 0014;
	 2225 : FFD5;
	 2226 : FFF8;
	 2227 : 0006;
	 2228 : FFE0;
	 2229 : FFFB;
	 2230 : 000A;
	 2231 : FFEE;
	 2232 : 001D;
	 2233 : 0023;
	 2234 : FFEE;
	 2235 : 0023;
	 2236 : FFD7;
	 2237 : 0023;
	 2238 : FFDC;
	 2239 : FFD5;
	 2240 : 000F;
	 2241 : FFFD;
	 2242 : 002A;
	 2243 : FFF2;
	 2244 : FFEA;
	 2245 : 0000;
	 2246 : FFFB;
	 2247 : FFF0;
	 2248 : 0014;
	 2249 : 001B;
	 2250 : 0024;
	 2251 : 0030;
	 2252 : FFE8;
	 2253 : 0016;
	 2254 : FFF5;
	 2255 : 0012;
	 2256 : FFFE;
	 2257 : 0033;
	 2258 : 0017;
	 2259 : 002E;
	 2260 : 0022;
	 2261 : 0029;
	 2262 : 0020;
	 2263 : FFFC;
	 2264 : FFE7;
	 2265 : FFF3;
	 2266 : FFCF;
	 2267 : 0002;
	 2268 : 0001;
	 2269 : 0003;
	 2270 : 0031;
	 2271 : 002A;
	 2272 : FFDD;
	 2273 : FFF3;
	 2274 : FFF8;
	 2275 : FFF2;
	 2276 : 001F;
	 2277 : 0002;
	 2278 : 0007;
	 2279 : 0024;
	 2280 : 001F;
	 2281 : FFDA;
	 2282 : 0016;
	 2283 : FFF9;
	 2284 : FFEB;
	 2285 : FFD2;
	 2286 : FFFF;
	 2287 : FFF1;
	 2288 : FFE7;
	 2289 : 0014;
	 2290 : 001C;
	 2291 : FFE6;
	 2292 : FFD2;
	 2293 : 0024;
	 2294 : FFCE;
	 2295 : 002D;
	 2296 : 000D;
	 2297 : FFEE;
	 2298 : FFE6;
	 2299 : FFCE;
	 2300 : FFE5;
	 2301 : FFDB;
	 2302 : 000B;
	 2303 : FFDE;
	 2304 : 0003;
	 2305 : 0009;
	 2306 : FFEB;
	 2307 : FFD0;
	 2308 : FFD1;
	 2309 : FFCF;
	 2310 : 0018;
	 2311 : FFED;
	 2312 : 001E;
	 2313 : FFF9;
	 2314 : FFFB;
	 2315 : 0001;
	 2316 : 0016;
	 2317 : FFE9;
	 2318 : FFD9;
	 2319 : 0006;
	 2320 : FFEE;
	 2321 : FFFA;
	 2322 : 000F;
	 2323 : FFFF;
	 2324 : 000C;
	 2325 : 0005;
	 2326 : 0019;
	 2327 : 0015;
	 2328 : 0004;
	 2329 : 0012;
	 2330 : 0026;
	 2331 : FFF9;
	 2332 : FFF7;
	 2333 : 001B;
	 2334 : 0008;
	 2335 : FFD4;
	 2336 : 0028;
	 2337 : FFD0;
	 2338 : 0019;
	 2339 : 001B;
	 2340 : 002E;
	 2341 : FFD2;
	 2342 : 000A;
	 2343 : FFF9;
	 2344 : FFEF;
	 2345 : FFD6;
	 2346 : 0006;
	 2347 : FFFE;
	 2348 : FFD8;
	 2349 : 000C;
	 2350 : 0018;
	 2351 : 001B;
	 2352 : 002A;
	 2353 : FFF7;
	 2354 : 002E;
	 2355 : 0025;
	 2356 : FFEB;
	 2357 : FFDD;
	 2358 : FFF9;
	 2359 : FFF6;
	 2360 : 0008;
	 2361 : 0009;
	 2362 : 001A;
	 2363 : 0001;
	 2364 : FFD8;
	 2365 : 0025;
	 2366 : FFED;
	 2367 : 0030;
	 2368 : FFD9;
	 2369 : 002F;
	 2370 : FFD6;
	 2371 : FFE4;
	 2372 : FFD2;
	 2373 : 0015;
	 2374 : 0024;
	 2375 : FFF9;
	 2376 : 002C;
	 2377 : 0009;
	 2378 : 000D;
	 2379 : 0023;
	 2380 : FFEB;
	 2381 : FFF1;
	 2382 : 002A;
	 2383 : 0029;
	 2384 : 0031;
	 2385 : 0029;
	 2386 : FFDA;
	 2387 : 0021;
	 2388 : FFF7;
	 2389 : 0032;
	 2390 : FFFD;
	 2391 : 0006;
	 2392 : 0003;
	 2393 : FFEE;
	 2394 : FFD4;
	 2395 : 0029;
	 2396 : 001F;
	 2397 : FFDB;
	 2398 : 001C;
	 2399 : 000D;
	 2400 : FFF7;
	 2401 : FFE7;
	 2402 : 0025;
	 2403 : 0014;
	 2404 : 0005;
	 2405 : 000B;
	 2406 : FFD6;
	 2407 : FFFD;
	 2408 : FFE1;
	 2409 : FFE2;
	 2410 : 0011;
	 2411 : 002A;
	 2412 : FFF6;
	 2413 : FFE2;
	 2414 : 000F;
	 2415 : 0026;
	 2416 : 0019;
	 2417 : 0026;
	 2418 : 0004;
	 2419 : 001A;
	 2420 : FFDB;
	 2421 : FFF0;
	 2422 : FFF5;
	 2423 : 0001;
	 2424 : 002C;
	 2425 : 0026;
	 2426 : FFDB;
	 2427 : FFDE;
	 2428 : FFF1;
	 2429 : FFEB;
	 2430 : 000C;
	 2431 : 0029;
	 2432 : 002F;
	 2433 : 0010;
	 2434 : 0023;
	 2435 : 0003;
	 2436 : FFE2;
	 2437 : 0003;
	 2438 : 0006;
	 2439 : 0019;
	 2440 : FFE3;
	 2441 : FFF3;
	 2442 : FFF2;
	 2443 : 002F;
	 2444 : FFFA;
	 2445 : 001A;
	 2446 : 001A;
	 2447 : FFE8;
	 2448 : 0007;
	 2449 : 0028;
	 2450 : FFFD;
	 2451 : 002E;
	 2452 : FFE3;
	 2453 : FFD4;
	 2454 : 0028;
	 2455 : 0024;
	 2456 : 0032;
	 2457 : 0012;
	 2458 : 002D;
	 2459 : 0021;
	 2460 : 0023;
	 2461 : 0007;
	 2462 : FFF4;
	 2463 : 002C;
	 2464 : FFF9;
	 2465 : 0004;
	 2466 : FFFA;
	 2467 : 0007;
	 2468 : FFFD;
	 2469 : FFD2;
	 2470 : 0027;
	 2471 : FFFA;
	 2472 : 0009;
	 2473 : FFDB;
	 2474 : FFCD;
	 2475 : FFE6;
	 2476 : 0015;
	 2477 : FFD7;
	 2478 : 002A;
	 2479 : FFE3;
	 2480 : FFE2;
	 2481 : FFDF;
	 2482 : FFCE;
	 2483 : 001C;
	 2484 : 0026;
	 2485 : 000C;
	 2486 : FFE0;
	 2487 : FFEA;
	 2488 : FFFE;
	 2489 : 002F;
	 2490 : FFE6;
	 2491 : 0018;
	 2492 : FFFA;
	 2493 : FFEB;
	 2494 : FFFB;
	 2495 : FFD4;
	 2496 : 001F;
	 2497 : FFE6;
	 2498 : 0017;
	 2499 : FFD4;
	 2500 : 002F;
	 2501 : FFE1;
	 2502 : 0027;
	 2503 : 0020;
	 2504 : 0030;
	 2505 : FFFE;
	 2506 : 0017;
	 2507 : FFF3;
	 2508 : FFE0;
	 2509 : FFFA;
	 2510 : FFDE;
	 2511 : 0031;
	 2512 : FFD7;
	 2513 : 0009;
	 2514 : 000D;
	 2515 : 0004;
	 2516 : 0011;
	 2517 : FFD9;
	 2518 : 0006;
	 2519 : FFEA;
	 2520 : 002D;
	 2521 : 001B;
	 2522 : 0030;
	 2523 : FFD1;
	 2524 : FFEA;
	 2525 : FFE1;
	 2526 : FFCE;
	 2527 : FFE6;
	 2528 : 0012;
	 2529 : FFE4;
	 2530 : 0001;
	 2531 : 0028;
	 2532 : 0014;
	 2533 : FFF5;
	 2534 : FFF3;
	 2535 : FFFB;
	 2536 : FFDF;
	 2537 : 000E;
	 2538 : FFF2;
	 2539 : 0024;
	 2540 : 001A;
	 2541 : 000B;
	 2542 : FFF2;
	 2543 : FFE2;
	 2544 : 001C;
	 2545 : FFFF;
	 2546 : FFE4;
	 2547 : FFE1;
	 2548 : FFDE;
	 2549 : 001C;
	 2550 : FFE4;
	 2551 : 0003;
	 2552 : FFFB;
	 2553 : 0008;
	 2554 : 0027;
	 2555 : 0026;
	 2556 : FFFB;
	 2557 : FFCE;
	 2558 : FFF8;
	 2559 : 000B;
	 2560 : 0006;
	 2561 : 000F;
	 2562 : FFDD;
	 2563 : 000F;
	 2564 : FFE0;
	 2565 : 001A;
	 2566 : FFF0;
	 2567 : 0015;
	 2568 : FFD2;
	 2569 : FFF7;
	 2570 : 0015;
	 2571 : FFE4;
	 2572 : 001E;
	 2573 : 000D;
	 2574 : 0009;
	 2575 : FFF1;
	 2576 : FFFE;
	 2577 : 000A;
	 2578 : FFFD;
	 2579 : 0014;
	 2580 : FFF9;
	 2581 : FFE2;
	 2582 : FFE3;
	 2583 : FFCD;
	 2584 : FFEC;
	 2585 : 0019;
	 2586 : 001E;
	 2587 : FFE2;
	 2588 : 002F;
	 2589 : 0000;
	 2590 : 002B;
	 2591 : 0015;
	 2592 : 0017;
	 2593 : FFD6;
	 2594 : FFE3;
	 2595 : FFCE;
	 2596 : 0016;
	 2597 : FFF0;
	 2598 : 001D;
	 2599 : FFF0;
	 2600 : 0021;
	 2601 : FFDA;
	 2602 : FFDF;
	 2603 : FFF0;
	 2604 : FFF7;
	 2605 : FFF1;
	 2606 : 001B;
	 2607 : FFD7;
	 2608 : FFF1;
	 2609 : 0023;
	 2610 : FFD4;
	 2611 : 002D;
	 2612 : 0032;
	 2613 : FFD6;
	 2614 : FFEB;
	 2615 : FFF3;
	 2616 : 001C;
	 2617 : 000A;
	 2618 : 000F;
	 2619 : 001A;
	 2620 : FFD9;
	 2621 : 0022;
	 2622 : 0015;
	 2623 : 0008;
	 2624 : 0028;
	 2625 : 0015;
	 2626 : FFE1;
	 2627 : FFF9;
	 2628 : FFFF;
	 2629 : FFD2;
	 2630 : 002F;
	 2631 : FFDA;
	 2632 : 0014;
	 2633 : 0001;
	 2634 : FFCF;
	 2635 : 002B;
	 2636 : 0024;
	 2637 : 0002;
	 2638 : FFE4;
	 2639 : FFD9;
	 2640 : FFF2;
	 2641 : FFE7;
	 2642 : 0001;
	 2643 : 0030;
	 2644 : 0008;
	 2645 : 0028;
	 2646 : 000F;
	 2647 : FFFD;
	 2648 : 0024;
	 2649 : FFFD;
	 2650 : 0026;
	 2651 : FFEB;
	 2652 : FFDA;
	 2653 : 0024;
	 2654 : 0009;
	 2655 : 0028;
	 2656 : 002D;
	 2657 : FFD2;
	 2658 : 0000;
	 2659 : FFF3;
	 2660 : 000D;
	 2661 : 001E;
	 2662 : FFEA;
	 2663 : 0006;
	 2664 : 0015;
	 2665 : FFDB;
	 2666 : 0020;
	 2667 : 000B;
	 2668 : 002E;
	 2669 : FFF0;
	 2670 : FFD8;
	 2671 : 0001;
	 2672 : FFD6;
	 2673 : 0030;
	 2674 : FFD1;
	 2675 : 001A;
	 2676 : 0003;
	 2677 : FFF3;
	 2678 : FFD4;
	 2679 : 000D;
	 2680 : 0009;
	 2681 : FFEA;
	 2682 : 002A;
	 2683 : FFEC;
	 2684 : FFFB;
	 2685 : 0004;
	 2686 : FFD7;
	 2687 : 002C;
	 2688 : FFF3;
	 2689 : FFD5;
	 2690 : FFF4;
	 2691 : 000A;
	 2692 : 0001;
	 2693 : 0014;
	 2694 : FFD2;
	 2695 : FFEA;
	 2696 : 0021;
	 2697 : FFD5;
	 2698 : 0024;
	 2699 : FFD6;
	 2700 : 0022;
	 2701 : FFF2;
	 2702 : 000B;
	 2703 : FFDC;
	 2704 : FFD4;
	 2705 : FFE3;
	 2706 : FFDA;
	 2707 : FFED;
	 2708 : 0001;
	 2709 : 0009;
	 2710 : 001E;
	 2711 : 0010;
	 2712 : 000B;
	 2713 : FFF7;
	 2714 : FFFD;
	 2715 : FFF7;
	 2716 : 0023;
	 2717 : FFE4;
	 2718 : FFCD;
	 2719 : 000F;
	 2720 : FFE2;
	 2721 : 0028;
	 2722 : 0025;
	 2723 : FFD5;
	 2724 : FFD8;
	 2725 : 0000;
	 2726 : 000B;
	 2727 : FFE9;
	 2728 : 0016;
	 2729 : 000A;
	 2730 : FFEE;
	 2731 : FFCF;
	 2732 : 001A;
	 2733 : FFE3;
	 2734 : 0022;
	 2735 : FFF8;
	 2736 : 0008;
	 2737 : 0026;
	 2738 : 0025;
	 2739 : FFF3;
	 2740 : FFE2;
	 2741 : 001C;
	 2742 : FFF9;
	 2743 : FFE0;
	 2744 : 0029;
	 2745 : FFE1;
	 2746 : FFCF;
	 2747 : FFCF;
	 2748 : 000D;
	 2749 : 0011;
	 2750 : FFED;
	 2751 : FFEE;
	 2752 : FFF0;
	 2753 : 0012;
	 2754 : FFD3;
	 2755 : 002C;
	 2756 : FFE4;
	 2757 : 0033;
	 2758 : FFDE;
	 2759 : 001C;
	 2760 : FFE4;
	 2761 : FFD5;
	 2762 : 0026;
	 2763 : 0025;
	 2764 : FFF6;
	 2765 : 0015;
	 2766 : 0006;
	 2767 : 0024;
	 2768 : FFED;
	 2769 : 0002;
	 2770 : FFFF;
	 2771 : FFF1;
	 2772 : 0028;
	 2773 : FFDE;
	 2774 : FFDC;
	 2775 : 0008;
	 2776 : 0010;
	 2777 : FFE1;
	 2778 : FFF5;
	 2779 : 002E;
	 2780 : FFE6;
	 2781 : 0011;
	 2782 : 0019;
	 2783 : FFFB;
	 2784 : 002D;
	 2785 : 0018;
	 2786 : FFFC;
	 2787 : 0007;
	 2788 : 0014;
	 2789 : 0009;
	 2790 : 0027;
	 2791 : FFF1;
	 2792 : FFEC;
	 2793 : FFE3;
	 2794 : FFD1;
	 2795 : FFD1;
	 2796 : 0026;
	 2797 : 0012;
	 2798 : 0010;
	 2799 : 000C;
	 2800 : 0024;
	 2801 : FFFE;
	 2802 : 0026;
	 2803 : FFF2;
	 2804 : 002C;
	 2805 : 0014;
	 2806 : FFE7;
	 2807 : 0007;
	 2808 : 0003;
	 2809 : FFDB;
	 2810 : 0009;
	 2811 : FFED;
	 2812 : FFD2;
	 2813 : 002E;
	 2814 : 000E;
	 2815 : 0027;
	 2816 : 0012;
	 2817 : FFF1;
	 2818 : 0001;
	 2819 : 0012;
	 2820 : 002F;
	 2821 : FFE7;
	 2822 : 0026;
	 2823 : 002B;
	 2824 : 0011;
	 2825 : 002C;
	 2826 : FFF6;
	 2827 : 002E;
	 2828 : 0015;
	 2829 : FFD1;
	 2830 : 002A;
	 2831 : FFFE;
	 2832 : FFFC;
	 2833 : 0007;
	 2834 : FFDC;
	 2835 : FFFD;
	 2836 : 0022;
	 2837 : FFCE;
	 2838 : FFE9;
	 2839 : FFCD;
	 2840 : FFF7;
	 2841 : 0017;
	 2842 : 001F;
	 2843 : 002E;
	 2844 : 000B;
	 2845 : FFE7;
	 2846 : 002B;
	 2847 : 001C;
	 2848 : 0008;
	 2849 : 0014;
	 2850 : 002B;
	 2851 : 0016;
	 2852 : FFF3;
	 2853 : 0016;
	 2854 : FFD1;
	 2855 : FFF4;
	 2856 : FFF6;
	 2857 : FFDE;
	 2858 : FFCF;
	 2859 : FFDA;
	 2860 : 0010;
	 2861 : 001F;
	 2862 : 0032;
	 2863 : FFF0;
	 2864 : 000A;
	 2865 : 002D;
	 2866 : FFDE;
	 2867 : 0016;
	 2868 : 001A;
	 2869 : FFD6;
	 2870 : 0025;
	 2871 : 0020;
	 2872 : FFD0;
	 2873 : FFD6;
	 2874 : FFD2;
	 2875 : FFEF;
	 2876 : 0001;
	 2877 : 0003;
	 2878 : FFE8;
	 2879 : 002A;
	 2880 : FFF3;
	 2881 : FFD1;
	 2882 : FFEC;
	 2883 : 0003;
	 2884 : FFF7;
	 2885 : FFE9;
	 2886 : FFDA;
	 2887 : 0021;
	 2888 : 0033;
	 2889 : FFEF;
	 2890 : FFF4;
	 2891 : 000C;
	 2892 : 0016;
	 2893 : FFF5;
	 2894 : 0029;
	 2895 : 0006;
	 2896 : FFFB;
	 2897 : 000F;
	 2898 : 002E;
	 2899 : 001E;
	 2900 : FFD1;
	 2901 : FFEF;
	 2902 : FFFD;
	 2903 : FFED;
	 2904 : 0014;
	 2905 : 0021;
	 2906 : 0018;
	 2907 : 0032;
	 2908 : FFE9;
	 2909 : 0026;
	 2910 : 001B;
	 2911 : FFF2;
	 2912 : 0018;
	 2913 : FFD7;
	 2914 : 001E;
	 2915 : 0003;
	 2916 : FFEB;
	 2917 : 0010;
	 2918 : 000F;
	 2919 : FFE2;
	 2920 : FFD0;
	 2921 : FFF9;
	 2922 : 0007;
	 2923 : 0027;
	 2924 : 002C;
	 2925 : 0003;
	 2926 : 001A;
	 2927 : FFFA;
	 2928 : 0019;
	 2929 : FFE2;
	 2930 : FFF3;
	 2931 : 000E;
	 2932 : FFCF;
	 2933 : 0017;
	 2934 : 0022;
	 2935 : FFF6;
	 2936 : FFFB;
	 2937 : 0024;
	 2938 : 001C;
	 2939 : FFEA;
	 2940 : FFEE;
	 2941 : 0012;
	 2942 : 0006;
	 2943 : FFDD;
	 2944 : FFED;
	 2945 : 0029;
	 2946 : 0013;
	 2947 : 0032;
	 2948 : 001B;
	 2949 : 002D;
	 2950 : FFE3;
	 2951 : 001C;
	 2952 : FFCF;
	 2953 : 0011;
	 2954 : FFFD;
	 2955 : FFF0;
	 2956 : 0025;
	 2957 : 0024;
	 2958 : FFCF;
	 2959 : 000B;
	 2960 : FFF2;
	 2961 : FFF7;
	 2962 : 0022;
	 2963 : FFED;
	 2964 : 002D;
	 2965 : FFDF;
	 2966 : 0011;
	 2967 : 0012;
	 2968 : FFE7;
	 2969 : FFEE;
	 2970 : 0022;
	 2971 : 001B;
	 2972 : FFEE;
	 2973 : 0003;
	 2974 : FFD3;
	 2975 : FFE2;
	 2976 : FFFF;
	 2977 : FFD6;
	 2978 : 0023;
	 2979 : 0016;
	 2980 : 002D;
	 2981 : 0014;
	 2982 : 002D;
	 2983 : 0006;
	 2984 : 000A;
	 2985 : 0031;
	 2986 : 000F;
	 2987 : FFD0;
	 2988 : 0017;
	 2989 : 002A;
	 2990 : 001E;
	 2991 : 0009;
	 2992 : 0012;
	 2993 : 0032;
	 2994 : FFD6;
	 2995 : 0011;
	 2996 : FFEA;
	 2997 : 000E;
	 2998 : 000B;
	 2999 : FFDD;
	 3000 : FFE2;
	 3001 : 000C;
	 3002 : FFDA;
	 3003 : FFE8;
	 3004 : 0022;
	 3005 : FFEE;
	 3006 : FFFF;
	 3007 : 002D;
	 3008 : FFE4;
	 3009 : FFF5;
	 3010 : 000B;
	 3011 : 001A;
	 3012 : 0029;
	 3013 : 002B;
	 3014 : 001C;
	 3015 : FFE4;
	 3016 : FFCF;
	 3017 : FFF4;
	 3018 : FFDB;
	 3019 : 0016;
	 3020 : 0010;
	 3021 : FFD1;
	 3022 : 0022;
	 3023 : FFE6;
	 3024 : FFF9;
	 3025 : 0011;
	 3026 : FFF9;
	 3027 : FFFA;
	 3028 : FFD4;
	 3029 : FFF6;
	 3030 : 001B;
	 3031 : 002B;
	 3032 : FFF7;
	 3033 : FFF8;
	 3034 : 0015;
	 3035 : 002D;
	 3036 : FFE8;
	 3037 : FFFA;
	 3038 : 001E;
	 3039 : 000B;
	 3040 : FFD8;
	 3041 : 000D;
	 3042 : FFE0;
	 3043 : 0001;
	 3044 : 0003;
	 3045 : 0027;
	 3046 : FFFC;
	 3047 : FFE9;
	 3048 : FFE4;
	 3049 : 0026;
	 3050 : FFDE;
	 3051 : FFF8;
	 3052 : FFE0;
	 3053 : 001C;
	 3054 : FFFD;
	 3055 : FFF1;
	 3056 : FFF2;
	 3057 : 0024;
	 3058 : 0006;
	 3059 : 0016;
	 3060 : 0029;
	 3061 : 0029;
	 3062 : FFEE;
	 3063 : 002E;
	 3064 : FFCF;
	 3065 : FFF3;
	 3066 : 0029;
	 3067 : FFE9;
	 3068 : FFE9;
	 3069 : FFEC;
	 3070 : 000C;
	 3071 : FFFA;
	 3072 : 0017;
	 3073 : 0028;
	 3074 : 0012;
	 3075 : FFE2;
	 3076 : 002C;
	 3077 : FFE8;
	 3078 : FFDC;
	 3079 : FFD6;
	 3080 : 0006;
	 3081 : FFD8;
	 3082 : FFDB;
	 3083 : FFEC;
	 3084 : FFEA;
	 3085 : 000B;
	 3086 : 0020;
	 3087 : 001B;
	 3088 : FFE8;
	 3089 : FFE6;
	 3090 : 0030;
	 3091 : FFCE;
	 3092 : 0027;
	 3093 : FFE1;
	 3094 : 002E;
	 3095 : FFF0;
	 3096 : FFFA;
	 3097 : 0015;
	 3098 : 0009;
	 3099 : FFED;
	 3100 : 0006;
	 3101 : 0018;
	 3102 : FFD1;
	 3103 : FFCE;
	 3104 : FFFC;
	 3105 : FFDA;
	 3106 : 0011;
	 3107 : FFE3;
	 3108 : FFF9;
	 3109 : FFE1;
	 3110 : 0005;
	 3111 : FFD9;
	 3112 : FFCF;
	 3113 : FFD2;
	 3114 : 002F;
	 3115 : FFDB;
	 3116 : 0015;
	 3117 : FFD4;
	 3118 : FFD8;
	 3119 : 0001;
	 3120 : FFFC;
	 3121 : 002E;
	 3122 : 002E;
	 3123 : 001D;
	 3124 : 000A;
	 3125 : FFFB;
	 3126 : FFF1;
	 3127 : 002E;
	 3128 : 000B;
	 3129 : 0008;
	 3130 : FFE5;
	 3131 : FFD2;
	 3132 : 002E;
	 3133 : FFED;
	 3134 : FFFA;
	 3135 : FFD9;
	 3136 : 0023;
	 3137 : FFD0;
	 3138 : 0022;
	 3139 : FFDB;
	 3140 : 0028;
	 3141 : 0018;
	 3142 : FFDE;
	 3143 : 0007;
	 3144 : FFED;
	 3145 : FFDF;
	 3146 : 0025;
	 3147 : FFF6;
	 3148 : FFF6;
	 3149 : FFDE;
	 3150 : FFF4;
	 3151 : 0026;
	 3152 : FFF2;
	 3153 : 002E;
	 3154 : 002E;
	 3155 : FFDC;
	 3156 : FFDF;
	 3157 : 0025;
	 3158 : FFF5;
	 3159 : FFCD;
	 3160 : FFE9;
	 3161 : 000A;
	 3162 : 001F;
	 3163 : FFDA;
	 3164 : FFD8;
	 3165 : 002B;
	 3166 : 001A;
	 3167 : 0009;
	 3168 : 001C;
	 3169 : FFF9;
	 3170 : 001A;
	 3171 : FFF3;
	 3172 : FFE6;
	 3173 : 0017;
	 3174 : FFF8;
	 3175 : 0031;
	 3176 : FFF1;
	 3177 : 002B;
	 3178 : 002C;
	 3179 : FFE6;
	 3180 : 001F;
	 3181 : FFF9;
	 3182 : 002B;
	 3183 : FFFB;
	 3184 : 0019;
	 3185 : FFFD;
	 3186 : FFE4;
	 3187 : FFE1;
	 3188 : FFF8;
	 3189 : 001A;
	 3190 : 000B;
	 3191 : 0013;
	 3192 : FFEA;
	 3193 : FFFE;
	 3194 : FFD1;
	 3195 : 0021;
	 3196 : 0032;
	 3197 : FFF6;
	 3198 : FFCE;
	 3199 : FFDE;
	 3200 : 0010;
	 3201 : 000B;
	 3202 : 001D;
	 3203 : FFE7;
	 3204 : 001B;
	 3205 : 0013;
	 3206 : FFEE;
	 3207 : 0005;
	 3208 : FFDC;
	 3209 : FFFB;
	 3210 : 0027;
	 3211 : FFF8;
	 3212 : 0023;
	 3213 : 0009;
	 3214 : FFE0;
	 3215 : 0008;
	 3216 : 0001;
	 3217 : FFF6;
	 3218 : FFD9;
	 3219 : FFF7;
	 3220 : FFD4;
	 3221 : FFD7;
	 3222 : FFF7;
	 3223 : FFEC;
	 3224 : 002C;
	 3225 : FFF3;
	 3226 : 001A;
	 3227 : 0003;
	 3228 : 0015;
	 3229 : FFE7;
	 3230 : 002D;
	 3231 : 0003;
	 3232 : 0022;
	 3233 : FFF2;
	 3234 : FFD7;
	 3235 : 0012;
	 3236 : FFCE;
	 3237 : FFFD;
	 3238 : FFE1;
	 3239 : 000D;
	 3240 : 0031;
	 3241 : FFFC;
	 3242 : 0021;
	 3243 : 0001;
	 3244 : 0000;
	 3245 : 002C;
	 3246 : 0028;
	 3247 : 001D;
	 3248 : FFEB;
	 3249 : 0005;
	 3250 : FFE4;
	 3251 : FFFA;
	 3252 : FFFE;
	 3253 : 0022;
	 3254 : 0029;
	 3255 : FFF7;
	 3256 : FFCF;
	 3257 : 0025;
	 3258 : FFDF;
	 3259 : 000C;
	 3260 : FFCF;
	 3261 : FFF6;
	 3262 : 0032;
	 3263 : FFD7;
	 3264 : FFF8;
	 3265 : FFEC;
	 3266 : 0029;
	 3267 : 0026;
	 3268 : FFE5;
	 3269 : FFD5;
	 3270 : 000D;
	 3271 : FFEF;
	 3272 : 0012;
	 3273 : FFD0;
	 3274 : FFDA;
	 3275 : 0013;
	 3276 : FFE3;
	 3277 : 0025;
	 3278 : FFD3;
	 3279 : FFE3;
	 3280 : 0033;
	 3281 : FFF9;
	 3282 : 0015;
	 3283 : FFE0;
	 3284 : 000B;
	 3285 : 0017;
	 3286 : FFED;
	 3287 : 0022;
	 3288 : 000B;
	 3289 : FFF5;
	 3290 : 0006;
	 3291 : 0008;
	 3292 : FFDE;
	 3293 : FFF6;
	 3294 : FFF0;
	 3295 : FFF6;
	 3296 : 001B;
	 3297 : FFFE;
	 3298 : 002D;
	 3299 : FFEB;
	 3300 : FFF7;
	 3301 : 001D;
	 3302 : 0005;
	 3303 : 0005;
	 3304 : FFD2;
	 3305 : FFF6;
	 3306 : FFE9;
	 3307 : 0033;
	 3308 : FFEC;
	 3309 : 0027;
	 3310 : 0012;
	 3311 : FFF0;
	 3312 : 0004;
	 3313 : 0023;
	 3314 : 0027;
	 3315 : FFDD;
	 3316 : FFF0;
	 3317 : FFEF;
	 3318 : FFD1;
	 3319 : 000A;
	 3320 : 0024;
	 3321 : FFF4;
	 3322 : 0019;
	 3323 : 000D;
	 3324 : FFF3;
	 3325 : FFDB;
	 3326 : 0015;
	 3327 : 0024;
	 3328 : 0013;
	 3329 : FFCF;
	 3330 : FFE3;
	 3331 : FFD4;
	 3332 : 0007;
	 3333 : 001A;
	 3334 : FFD8;
	 3335 : 0023;
	 3336 : 0006;
	 3337 : 0013;
	 3338 : 0030;
	 3339 : FFD5;
	 3340 : 0029;
	 3341 : FFDA;
	 3342 : FFF5;
	 3343 : 0024;
	 3344 : 002A;
	 3345 : 0001;
	 3346 : 000A;
	 3347 : 0015;
	 3348 : 0022;
	 3349 : FFD9;
	 3350 : 0020;
	 3351 : FFFE;
	 3352 : FFFB;
	 3353 : FFF8;
	 3354 : 0001;
	 3355 : 002E;
	 3356 : 0005;
	 3357 : 002E;
	 3358 : FFDF;
	 3359 : 0017;
	 3360 : 0020;
	 3361 : 0012;
	 3362 : 000B;
	 3363 : 0007;
	 3364 : 0025;
	 3365 : 0021;
	 3366 : FFD9;
	 3367 : 0024;
	 3368 : FFF7;
	 3369 : FFE7;
	 3370 : 0026;
	 3371 : FFF9;
	 3372 : 0020;
	 3373 : FFE8;
	 3374 : FFCD;
	 3375 : 0000;
	 3376 : FFD7;
	 3377 : 001A;
	 3378 : FFE9;
	 3379 : FFFA;
	 3380 : FFD6;
	 3381 : FFEA;
	 3382 : 001D;
	 3383 : FFDC;
	 3384 : 000F;
	 3385 : 002B;
	 3386 : 0012;
	 3387 : 0020;
	 3388 : FFD8;
	 3389 : FFE6;
	 3390 : 0028;
	 3391 : 0016;
	 3392 : 000E;
	 3393 : 0011;
	 3394 : FFF7;
	 3395 : FFD1;
	 3396 : 001D;
	 3397 : 0012;
	 3398 : FFFD;
	 3399 : 0029;
	 3400 : FFEF;
	 3401 : FFEB;
	 3402 : 0026;
	 3403 : 001E;
	 3404 : 0002;
	 3405 : FFDA;
	 3406 : FFE3;
	 3407 : 0010;
	 3408 : FFF4;
	 3409 : 0022;
	 3410 : 002E;
	 3411 : 001F;
	 3412 : FFF3;
	 3413 : 001E;
	 3414 : FFF1;
	 3415 : FFDE;
	 3416 : FFD0;
	 3417 : FFF4;
	 3418 : 0029;
	 3419 : FFE5;
	 3420 : FFE2;
	 3421 : 0030;
	 3422 : FFCF;
	 3423 : 001D;
	 3424 : FFEE;
	 3425 : FFD1;
	 3426 : 002B;
	 3427 : FFDB;
	 3428 : 0005;
	 3429 : FFE9;
	 3430 : FFD3;
	 3431 : FFD2;
	 3432 : FFD9;
	 3433 : FFD4;
	 3434 : 001B;
	 3435 : FFFF;
	 3436 : FFF0;
	 3437 : FFF8;
	 3438 : 002C;
	 3439 : 002A;
	 3440 : 0016;
	 3441 : 0027;
	 3442 : FFEE;
	 3443 : FFF4;
	 3444 : 000C;
	 3445 : 000D;
	 3446 : FFFE;
	 3447 : FFF6;
	 3448 : 0032;
	 3449 : 0021;
	 3450 : FFF9;
	 3451 : 0017;
	 3452 : FFE8;
	 3453 : FFD7;
	 3454 : FFF1;
	 3455 : FFF6;
	 3456 : FFCE;
	 3457 : 0020;
	 3458 : FFF2;
	 3459 : 0008;
	 3460 : FFD4;
	 3461 : FFDF;
	 3462 : 0028;
	 3463 : 000B;
	 3464 : 002E;
	 3465 : 0033;
	 3466 : FFF3;
	 3467 : FFEB;
	 3468 : 0025;
	 3469 : 0033;
	 3470 : 000D;
	 3471 : 001E;
	 3472 : 001D;
	 3473 : FFF1;
	 3474 : 0008;
	 3475 : 0022;
	 3476 : 0013;
	 3477 : FFCF;
	 3478 : FFEF;
	 3479 : FFDC;
	 3480 : FFE5;
	 3481 : 002A;
	 3482 : FFD1;
	 3483 : FFE3;
	 3484 : FFEC;
	 3485 : 000C;
	 3486 : 0003;
	 3487 : FFE3;
	 3488 : FFDE;
	 3489 : FFE5;
	 3490 : 0000;
	 3491 : FFE9;
	 3492 : 002E;
	 3493 : FFFC;
	 3494 : FFD3;
	 3495 : 0017;
	 3496 : FFEE;
	 3497 : 0010;
	 3498 : FFE9;
	 3499 : 0007;
	 3500 : 001C;
	 3501 : 002C;
	 3502 : FFE8;
	 3503 : FFEF;
	 3504 : FFFC;
	 3505 : 002C;
	 3506 : 0029;
	 3507 : FFD6;
	 3508 : FFDA;
	 3509 : 0000;
	 3510 : FFD8;
	 3511 : FFF0;
	 3512 : FFDC;
	 3513 : 000E;
	 3514 : 002E;
	 3515 : 0033;
	 3516 : FFF3;
	 3517 : 000A;
	 3518 : 0024;
	 3519 : FFD9;
	 3520 : 0013;
	 3521 : FFF7;
	 3522 : FFE2;
	 3523 : FFF6;
	 3524 : FFD5;
	 3525 : 0014;
	 3526 : FFE7;
	 3527 : FFED;
	 3528 : FFD9;
	 3529 : 0025;
	 3530 : FFFF;
	 3531 : 0007;
	 3532 : 0007;
	 3533 : FFF7;
	 3534 : FFE1;
	 3535 : 0019;
	 3536 : FFDA;
	 3537 : FFD7;
	 3538 : 0016;
	 3539 : FFE2;
	 3540 : FFEC;
	 3541 : FFFD;
	 3542 : FFFB;
	 3543 : 0015;
	 3544 : 000D;
	 3545 : 000F;
	 3546 : 0016;
	 3547 : FFEB;
	 3548 : FFEE;
	 3549 : FFFA;
	 3550 : FFEC;
	 3551 : 0032;
	 3552 : 0020;
	 3553 : FFDE;
	 3554 : FFCD;
	 3555 : FFD1;
	 3556 : FFE6;
	 3557 : FFD9;
	 3558 : 0003;
	 3559 : 0025;
	 3560 : 0018;
	 3561 : FFE3;
	 3562 : FFF6;
	 3563 : 0001;
	 3564 : 0020;
	 3565 : 0023;
	 3566 : 002A;
	 3567 : 0001;
	 3568 : 0014;
	 3569 : FFD8;
	 3570 : 0007;
	 3571 : FFE6;
	 3572 : FFF9;
	 3573 : 000E;
	 3574 : FFE7;
	 3575 : FFD2;
	 3576 : FFCE;
	 3577 : FFCF;
	 3578 : FFCE;
	 3579 : FFD8;
	 3580 : FFE5;
	 3581 : FFE3;
	 3582 : 0032;
	 3583 : FFEC;
	 3584 : FFDA;
	 3585 : 0005;
	 3586 : 0025;
	 3587 : 0012;
	 3588 : FFEB;
	 3589 : 0006;
	 3590 : 0016;
	 3591 : 0017;
	 3592 : 0011;
	 3593 : 0026;
	 3594 : 0026;
	 3595 : 0008;
	 3596 : FFF9;
	 3597 : 000E;
	 3598 : 0021;
	 3599 : FFCD;
	 3600 : 0032;
	 3601 : FFE0;
	 3602 : FFFD;
	 3603 : 0026;
	 3604 : FFE4;
	 3605 : FFFE;
	 3606 : FFDA;
	 3607 : FFF5;
	 3608 : FFDF;
	 3609 : FFF2;
	 3610 : FFF3;
	 3611 : 0033;
	 3612 : 0033;
	 3613 : FFD9;
	 3614 : 0017;
	 3615 : FFD2;
	 3616 : FFD0;
	 3617 : FFD8;
	 3618 : 0030;
	 3619 : 002D;
	 3620 : FFE1;
	 3621 : FFDD;
	 3622 : FFE5;
	 3623 : 0002;
	 3624 : 0007;
	 3625 : FFE3;
	 3626 : 001A;
	 3627 : FFEC;
	 3628 : 002B;
	 3629 : 0010;
	 3630 : FFF9;
	 3631 : 001E;
	 3632 : 0021;
	 3633 : FFEB;
	 3634 : FFF0;
	 3635 : 002D;
	 3636 : FFDE;
	 3637 : FFD1;
	 3638 : FFFB;
	 3639 : 001F;
	 3640 : 001C;
	 3641 : 002B;
	 3642 : 0003;
	 3643 : FFD7;
	 3644 : 0009;
	 3645 : 001D;
	 3646 : FFD6;
	 3647 : FFDE;
	 3648 : FFCE;
	 3649 : 000A;
	 3650 : 0028;
	 3651 : 0011;
	 3652 : 0031;
	 3653 : FFD3;
	 3654 : 0029;
	 3655 : 0020;
	 3656 : FFED;
	 3657 : 0030;
	 3658 : FFEA;
	 3659 : 0028;
	 3660 : 0027;
	 3661 : 001A;
	 3662 : 0006;
	 3663 : FFD9;
	 3664 : 0003;
	 3665 : FFF1;
	 3666 : 001E;
	 3667 : 001A;
	 3668 : 002A;
	 3669 : FFCE;
	 3670 : 0020;
	 3671 : 002D;
	 3672 : 001E;
	 3673 : FFDA;
	 3674 : FFD5;
	 3675 : FFCF;
	 3676 : 000D;
	 3677 : 000D;
	 3678 : 0032;
	 3679 : FFF6;
	 3680 : FFEF;
	 3681 : 000D;
	 3682 : 0021;
	 3683 : 002D;
	 3684 : 001F;
	 3685 : FFF8;
	 3686 : 000E;
	 3687 : 0024;
	 3688 : FFFF;
	 3689 : FFE3;
	 3690 : FFDE;
	 3691 : FFCD;
	 3692 : 0016;
	 3693 : FFD8;
	 3694 : FFE6;
	 3695 : FFEB;
	 3696 : 0006;
	 3697 : FFF6;
	 3698 : 0012;
	 3699 : FFD2;
	 3700 : FFD9;
	 3701 : 0000;
	 3702 : FFEF;
	 3703 : FFEB;
	 3704 : FFD4;
	 3705 : 0029;
	 3706 : 0014;
	 3707 : FFD9;
	 3708 : FFD3;
	 3709 : 0031;
	 3710 : 0013;
	 3711 : FFF8;
	 3712 : 0015;
	 3713 : 001A;
	 3714 : 001D;
	 3715 : FFFE;
	 3716 : FFF9;
	 3717 : FFCE;
	 3718 : 002C;
	 3719 : 000B;
	 3720 : FFE2;
	 3721 : 002B;
	 3722 : 002A;
	 3723 : 0032;
	 3724 : 0026;
	 3725 : 0033;
	 3726 : FFE6;
	 3727 : 0023;
	 3728 : 0021;
	 3729 : FFE4;
	 3730 : FFD7;
	 3731 : 0031;
	 3732 : FFEB;
	 3733 : 0026;
	 3734 : FFCD;
	 3735 : FFCF;
	 3736 : FFFD;
	 3737 : FFE5;
	 3738 : 0013;
	 3739 : 0007;
	 3740 : FFD5;
	 3741 : FFDD;
	 3742 : FFF5;
	 3743 : FFE0;
	 3744 : 001E;
	 3745 : FFF7;
	 3746 : FFD6;
	 3747 : FFFE;
	 3748 : FFD6;
	 3749 : FFDA;
	 3750 : FFE5;
	 3751 : 0025;
	 3752 : 002B;
	 3753 : 0021;
	 3754 : FFEF;
	 3755 : FFE9;
	 3756 : 0005;
	 3757 : 0017;
	 3758 : 0033;
	 3759 : FFDA;
	 3760 : FFD2;
	 3761 : 0014;
	 3762 : 0022;
	 3763 : 0023;
	 3764 : 0012;
	 3765 : 002E;
	 3766 : 0001;
	 3767 : 002A;
	 3768 : 0030;
	 3769 : 0024;
	 3770 : FFED;
	 3771 : FFE1;
	 3772 : 0005;
	 3773 : FFFB;
	 3774 : 0027;
	 3775 : FFD7;
	 3776 : FFE7;
	 3777 : 001A;
	 3778 : FFD7;
	 3779 : FFEE;
	 3780 : FFF4;
	 3781 : 000D;
	 3782 : FFDD;
	 3783 : 0025;
	 3784 : FFFB;
	 3785 : 002B;
	 3786 : FFFD;
	 3787 : FFE9;
	 3788 : FFDB;
	 3789 : FFCD;
	 3790 : 0003;
	 3791 : FFD8;
	 3792 : FFF5;
	 3793 : 0009;
	 3794 : FFE9;
	 3795 : FFDF;
	 3796 : 001C;
	 3797 : 002E;
	 3798 : FFD7;
	 3799 : FFDD;
	 3800 : 002F;
	 3801 : FFD1;
	 3802 : 0031;
	 3803 : FFCD;
	 3804 : 0026;
	 3805 : FFEC;
	 3806 : 002D;
	 3807 : FFED;
	 3808 : 0010;
	 3809 : FFD5;
	 3810 : FFE6;
	 3811 : 001C;
	 3812 : 0003;
	 3813 : 002C;
	 3814 : FFF9;
	 3815 : 0026;
	 3816 : FFFB;
	 3817 : 0031;
	 3818 : 002F;
	 3819 : FFEF;
	 3820 : 0028;
	 3821 : 0024;
	 3822 : FFE2;
	 3823 : 000D;
	 3824 : FFD4;
	 3825 : 0022;
	 3826 : FFDF;
	 3827 : FFD4;
	 3828 : FFF6;
	 3829 : 0008;
	 3830 : 0024;
	 3831 : 0031;
	 3832 : FFFA;
	 3833 : FFD3;
	 3834 : 001A;
	 3835 : 0007;
	 3836 : FFFB;
	 3837 : FFEC;
	 3838 : 0000;
	 3839 : FFEF;
	 3840 : 001A;
	 3841 : 0004;
	 3842 : 0027;
	 3843 : 0004;
	 3844 : FFE5;
	 3845 : 0024;
	 3846 : 0006;
	 3847 : FFE2;
	 3848 : 000D;
	 3849 : FFF1;
	 3850 : 0023;
	 3851 : FFFB;
	 3852 : 0017;
	 3853 : FFD7;
	 3854 : FFF5;
	 3855 : 0031;
	 3856 : 0020;
	 3857 : FFDD;
	 3858 : FFE9;
	 3859 : FFEF;
	 3860 : 000F;
	 3861 : 001A;
	 3862 : 001A;
	 3863 : 0001;
	 3864 : 0020;
	 3865 : FFFA;
	 3866 : FFD9;
	 3867 : 0007;
	 3868 : 002E;
	 3869 : 001E;
	 3870 : 0008;
	 3871 : 000F;
	 3872 : 002C;
	 3873 : FFF9;
	 3874 : FFEF;
	 3875 : 0031;
	 3876 : 0025;
	 3877 : FFEE;
	 3878 : FFFC;
	 3879 : FFF7;
	 3880 : FFDC;
	 3881 : 002F;
	 3882 : FFF6;
	 3883 : 0026;
	 3884 : FFE0;
	 3885 : 0005;
	 3886 : FFCF;
	 3887 : 001B;
	 3888 : 0008;
	 3889 : 000D;
	 3890 : FFD2;
	 3891 : FFE2;
	 3892 : FFD4;
	 3893 : FFEA;
	 3894 : 000D;
	 3895 : 0007;
	 3896 : 000B;
	 3897 : 0005;
	 3898 : FFE9;
	 3899 : FFE6;
	 3900 : FFDB;
	 3901 : 0024;
	 3902 : 000C;
	 3903 : FFE0;
	 3904 : FFDF;
	 3905 : 0026;
	 3906 : 0019;
	 3907 : 0010;
	 3908 : FFF6;
	 3909 : FFE8;
	 3910 : 0031;
	 3911 : 001E;
	 3912 : FFEC;
	 3913 : 0024;
	 3914 : 001B;
	 3915 : FFEB;
	 3916 : FFF8;
	 3917 : FFE0;
	 3918 : FFD8;
	 3919 : 0017;
	 3920 : FFE8;
	 3921 : 0021;
	 3922 : 0033;
	 3923 : FFD5;
	 3924 : FFFD;
	 3925 : 001F;
	 3926 : 001E;
	 3927 : 001B;
	 3928 : FFF1;
	 3929 : FFFB;
	 3930 : 000A;
	 3931 : 0031;
	 3932 : FFEE;
	 3933 : 002B;
	 3934 : FFE8;
	 3935 : 0032;
	 3936 : 0011;
	 3937 : FFFC;
	 3938 : 000C;
	 3939 : FFE9;
	 3940 : FFE9;
	 3941 : FFD8;
	 3942 : FFD8;
	 3943 : FFF0;
	 3944 : 001B;
	 3945 : 000B;
	 3946 : FFD7;
	 3947 : 0024;
	 3948 : 000A;
	 3949 : 002F;
	 3950 : 0011;
	 3951 : FFDF;
	 3952 : FFFD;
	 3953 : 000F;
	 3954 : FFD0;
	 3955 : FFCE;
	 3956 : FFDA;
	 3957 : FFE7;
	 3958 : FFF9;
	 3959 : FFFF;
	 3960 : FFDB;
	 3961 : 0012;
	 3962 : 000A;
	 3963 : FFEB;
	 3964 : FFCE;
	 3965 : FFD5;
	 3966 : FFF5;
	 3967 : FFDD;
	 3968 : FFF3;
	 3969 : 000D;
	 3970 : 0005;
	 3971 : FFE4;
	 3972 : FFF0;
	 3973 : 000C;
	 3974 : 0025;
	 3975 : 001A;
	 3976 : 0005;
	 3977 : FFF2;
	 3978 : FFF2;
	 3979 : 0027;
	 3980 : FFD1;
	 3981 : 0032;
	 3982 : 0011;
	 3983 : 0013;
	 3984 : FFD1;
	 3985 : 000B;
	 3986 : FFFE;
	 3987 : FFD8;
	 3988 : FFE9;
	 3989 : 0028;
	 3990 : 0005;
	 3991 : FFF7;
	 3992 : FFD4;
	 3993 : 0016;
	 3994 : 0015;
	 3995 : 000C;
	 3996 : 0001;
	 3997 : FFF9;
	 3998 : 000A;
	 3999 : FFE5;
	 4000 : 002D;
	 4001 : 0009;
	 4002 : FFED;
	 4003 : FFFB;
	 4004 : 001F;
	 4005 : FFDD;
	 4006 : FFEB;
	 4007 : 0012;
	 4008 : FFED;
	 4009 : 001E;
	 4010 : FFDA;
	 4011 : 001B;
	 4012 : FFD4;
	 4013 : FFCE;
	 4014 : 0029;
	 4015 : 0008;
	 4016 : FFF1;
	 4017 : FFE5;
	 4018 : 000C;
	 4019 : 0001;
	 4020 : 0032;
	 4021 : 0031;
	 4022 : 000E;
	 4023 : FFFA;
	 4024 : FFFF;
	 4025 : 0013;
	 4026 : FFD7;
	 4027 : FFEE;
	 4028 : FFD5;
	 4029 : FFD4;
	 4030 : FFE1;
	 4031 : FFFE;
	 4032 : 001D;
	 4033 : FFFF;
	 4034 : FFEF;
	 4035 : FFD5;
	 4036 : 0005;
	 4037 : FFE9;
	 4038 : 000C;
	 4039 : 0031;
	 4040 : FFD8;
	 4041 : FFE3;
	 4042 : FFFD;
	 4043 : 0030;
	 4044 : 001C;
	 4045 : 0029;
	 4046 : FFEF;
	 4047 : 0032;
	 4048 : FFD7;
	 4049 : FFD2;
	 4050 : 0024;
	 4051 : 002C;
	 4052 : FFD6;
	 4053 : FFD8;
	 4054 : FFD0;
	 4055 : FFD8;
	 4056 : FFE2;
	 4057 : 0030;
	 4058 : 0011;
	 4059 : 001D;
	 4060 : 001C;
	 4061 : 0004;
	 4062 : 001E;
	 4063 : 000A;
	 4064 : FFED;
	 4065 : 0006;
	 4066 : 0003;
	 4067 : 0021;
	 4068 : 0031;
	 4069 : FFF7;
	 4070 : 001B;
	 4071 : FFD7;
	 4072 : 001C;
	 4073 : FFF3;
	 4074 : FFD1;
	 4075 : FFF2;
	 4076 : 000B;
	 4077 : FFD9;
	 4078 : 002B;
	 4079 : FFD5;
	 4080 : 002C;
	 4081 : 0015;
	 4082 : FFEF;
	 4083 : FFF5;
	 4084 : 0019;
	 4085 : 000A;
	 4086 : 0012;
	 4087 : FFF5;
	 4088 : FFFF;
	 4089 : 0032;
	 4090 : FFE3;
	 4091 : FFF8;
	 4092 : FFEB;
	 4093 : 001B;
	 4094 : 001B;
	 4095 : FFEB;
END;
